{"<|pad|>":0,"<|unknown|>":1,"<|startoftext|>":2,"<|endoftext|>":3,"'t've":4,"'s":5,"'t":6,"'ve":7,"'n":8,"'d":9,"'ll":10,"'re":11,"'m":12,"'clock":13,"  ":14,"    ":15,"        ":16,"            ":17,"                ":18,"\u2003":19,"\u2002":20,"⁂":21,"─":22,"***":23,"----":24," \"":25," Author":26," Title":27," Tags":28," Genre":29," Style":30," Knowledge":31," Summary":32," Rating":33,"Type":34,"Characters":35,"Glossary":36,"<|spmspace|>":37,"<|spmspace|><|spmspace|>":38,"<|spmspace|><|spmspace|><|spmspace|><|spmspace|>":39,"<|spmspace|><|spmspace|><|spmspace|><|spmspace|><|spmspace|><|spmspace|><|spmspace|><|spmspace|>":40,"<|spmspace|><|spmspace|><|spmspace|><|spmspace|><|spmspace|><|spmspace|><|spmspace|><|spmspace|><|spmspace|><|spmspace|><|spmspace|><|spmspace|>":41,"<|spmspace|><|spmspace|><|spmspace|><|spmspace|><|spmspace|><|spmspace|><|spmspace|><|spmspace|><|spmspace|><|spmspace|><|spmspace|><|spmspace|><|spmspace|><|spmspace|><|spmspace|><|spmspace|>":42,"<|mtvocab|>":43,"<|mtvenglish|>":44,"<|mtvjapanese|>":45,"<|mtsentence|>":46,"<|mtsjapanese|>":47,"<|mtsenglish|>":48,"<|mtsentenceend|>":49,"<|mtvocabend|>":50,"<|mtend|>":51,"<|mask|>":52,"<|masksingle|>":53,"<|maskshort|>":54,"<|maskmedium|>":55,"<|masklong|>":56,"<|maskparagraph|>":57,"<|maskend|>":58,"<|fill|>":59,"<|fillend|>":60,"<|rubycover|>":61,"<|rubystart|>":62,"<|rubyend|>":63,"<|reserved0|>":64,"<|reserved1|>":65,"<|reserved2|>":66,"<|reserved3|>":67,"<|reserved4|>":68,"<|reserved5|>":69,"<|reserved6|>":70,"<|reserved7|>":71,"<|reserved8|>":72,"<|reserved9|>":73,"<|reserved10|>":74,"0x00":75,"0x01":76,"0x02":77,"0x03":78,"0x04":79,"0x05":80,"0x06":81,"0x07":82,"0x08":83,"0x09":84,"0x0a":85,"0x0b":86,"0x0c":87,"0x0d":88,"0x0e":89,"0x0f":90,"0x10":91,"0x11":92,"0x12":93,"0x13":94,"0x14":95,"0x15":96,"0x16":97,"0x17":98,"0x18":99,"0x19":100,"0x1a":101,"0x1b":102,"0x1c":103,"0x1d":104,"0x1e":105,"0x1f":106,"0x20":107,"0x21":108,"0x22":109,"0x23":110,"0x24":111,"0x25":112,"0x26":113,"0x27":114,"0x28":115,"0x29":116,"0x2a":117,"0x2b":118,"0x2c":119,"0x2d":120,"0x2e":121,"0x2f":122,"0x30":123,"0x31":124,"0x32":125,"0x33":126,"0x34":127,"0x35":128,"0x36":129,"0x37":130,"0x38":131,"0x39":132,"0x3a":133,"0x3b":134,"0x3c":135,"0x3d":136,"0x3e":137,"0x3f":138,"0x40":139,"0x41":140,"0x42":141,"0x43":142,"0x44":143,"0x45":144,"0x46":145,"0x47":146,"0x48":147,"0x49":148,"0x4a":149,"0x4b":150,"0x4c":151,"0x4d":152,"0x4e":153,"0x4f":154,"0x50":155,"0x51":156,"0x52":157,"0x53":158,"0x54":159,"0x55":160,"0x56":161,"0x57":162,"0x58":163,"0x59":164,"0x5a":165,"0x5b":166,"0x5c":167,"0x5d":168,"0x5e":169,"0x5f":170,"0x60":171,"0x61":172,"0x62":173,"0x63":174,"0x64":175,"0x65":176,"0x66":177,"0x67":178,"0x68":179,"0x69":180,"0x6a":181,"0x6b":182,"0x6c":183,"0x6d":184,"0x6e":185,"0x6f":186,"0x70":187,"0x71":188,"0x72":189,"0x73":190,"0x74":191,"0x75":192,"0x76":193,"0x77":194,"0x78":195,"0x79":196,"0x7a":197,"0x7b":198,"0x7c":199,"0x7d":200,"0x7e":201,"0x7f":202,"0x80":203,"0x81":204,"0x82":205,"0x83":206,"0x84":207,"0x85":208,"0x86":209,"0x87":210,"0x88":211,"0x89":212,"0x8a":213,"0x8b":214,"0x8c":215,"0x8d":216,"0x8e":217,"0x8f":218,"0x90":219,"0x91":220,"0x92":221,"0x93":222,"0x94":223,"0x95":224,"0x96":225,"0x97":226,"0x98":227,"0x99":228,"0x9a":229,"0x9b":230,"0x9c":231,"0x9d":232,"0x9e":233,"0x9f":234,"0xa0":235,"0xa1":236,"0xa2":237,"0xa3":238,"0xa4":239,"0xa5":240,"0xa6":241,"0xa7":242,"0xa8":243,"0xa9":244,"0xaa":245,"0xab":246,"0xac":247,"0xad":248,"0xae":249,"0xaf":250,"0xb0":251,"0xb1":252,"0xb2":253,"0xb3":254,"0xb4":255,"0xb5":256,"0xb6":257,"0xb7":258,"0xb8":259,"0xb9":260,"0xba":261,"0xbb":262,"0xbc":263,"0xbd":264,"0xbe":265,"0xbf":266,"0xc0":267,"0xc1":268,"0xc2":269,"0xc3":270,"0xc4":271,"0xc5":272,"0xc6":273,"0xc7":274,"0xc8":275,"0xc9":276,"0xca":277,"0xcb":278,"0xcc":279,"0xcd":280,"0xce":281,"0xcf":282,"0xd0":283,"0xd1":284,"0xd2":285,"0xd3":286,"0xd4":287,"0xd5":288,"0xd6":289,"0xd7":290,"0xd8":291,"0xd9":292,"0xda":293,"0xdb":294,"0xdc":295,"0xdd":296,"0xde":297,"0xdf":298,"0xe0":299,"0xe1":300,"0xe2":301,"0xe3":302,"0xe4":303,"0xe5":304,"0xe6":305,"0xe7":306,"0xe8":307,"0xe9":308,"0xea":309,"0xeb":310,"0xec":311,"0xed":312,"0xee":313,"0xef":314,"0xf0":315,"0xf1":316,"0xf2":317,"0xf3":318,"0xf4":319,"0xf5":320,"0xf6":321,"0xf7":322,"0xf8":323,"0xf9":324,"0xfa":325,"0xfb":326,"0xfc":327,"0xfd":328,"0xfe":329,"0xff":330," t":331,"he":332," a":333,"in":334,"re":335," the":336,"on":337," s":338,"er":339," w":340," o":341,"at":342,"nd":343,"it":344," c":345,"is":346,"ou":347," b":348,"or":349,"en":350,"ed":351," f":352,"ing":353,"es":354,"an":355," p":356," to":357," m":358,"ar":359,"al":360," of":361," h":362," and":363," in":364," d":365,"as":366,"le":367,"ic":368,"om":369," th":370,"ion":371,"ll":372," l":373," n":374,"st":375," e":376,"ent":377," I":378," g":379,"ve":380,"ro":381,"ly":382," re":383,"ac":384," be":385," y":386,"ut":387,"ot":388,"id":389," T":390,"ad":391," he":392,"et":393," S":394,"ow":395," on":396,"im":397,"ay":398," you":399,"am":400," is":401,"ig":402,"se":403," for":404,"ur":405," A":406," u":407,"ld":408,"ver":409,"ct":410," that":411," C":412," st":413,"ith":414,"ir":415," it":416," with":417,"ce":418," M":419,"ation":420," as":421,"il":422,"った":423,"てい":424,"ch":425," was":426,"ter":427," (":428," we":429," wh":430,"ol":431," an":432," B":433," H":434,"ke":435,"ill":436,"if":437,"ag":438," ha":439," P":440,"her":441,"od":442,"ない":443,"ht":444,"ri":445," at":446,"em":447," The":448," W":449,"ers":450,"pp":451,"ra":452,"el":453,"us":454,"ul":455," con":456,"th":457," D":458,"って":459,"ore":460," se":461," are":462,"rom":463,"から":464,"un":465,"して":466,"um":467," or":468,"ate":469," pro":470," R":471,"した":472,"ess":473,"ab":474," F":475,"ist":476,"est":477," com":478,"pe":479," r":480,"ain":481," L":482,"ight":483,"qu":484," sh":485,"ant":486," his":487," ne":488,"and":489," de":490," G":491," not":492,"ould":493," from":494,"op":495," v":496,"os":497," ex":498," N":499," by":500,"res":501,"ust":502," al":503,"art":504," E":505," have":506,"red":507,"ている":508," su":509," this":510,"all":511,"ard":512,"oc":513,"ity":514,"nt":515,"ive":516,"ack":517," le":518,"する":519,"ort":520,"ok":521," k":522,"ie":523," ch":524,"ies":525," her":526,"……":527,"rou":528,"ome":529," -":530,"out":531,"ment":532,"ak":533," O":534," me":535,"iv":536," do":537,"te":538," can":539,"こと":540,"The":541," ab":542," but":543," J":544,"ally":545,"our":546,"ge":547," j":548," your":549," all":550," pl":551," go":552,"pt":553,"ide":554,"ast":555,"ost":556,"ud":557," wor":558,"ある":559,"gh":560," whe":561," had":562," out":563," up":564,"され":565,"ine":566," will":567," my":568,"ame":569,"fe":570," so":571,"よう":572,"ind":573,"to":574,"ook":575,"one":576,"ong":577," they":578,"ure":579,"ear":580,"ther":581,"per":582,"ich":583,"ry":584,"ip":585," K":586," us":587,".\"":588," one":589,"ice":590,"その":591," cl":592," she":593,"age":594," sa":595,"act":596,"og":597,"ime":598,"ap":599,"ous":600,"ake":601,"ike":602," their":603,"ていた":604,"pl":605,"ated":606,"ite":607,"ial":608,"ction":609,"それ":610,"そう":611,"are":612," U":613," has":614," en":615,"very":616,"ace":617,"ue":618,"ber":619," him":620,"ne":621,"iz":622," were":623," ad":624,"..":625,"ans":626," who":627,"ass":628," He":629," te":630," fe":631," more":632,"able":633," them":634,"ia":635," Th":636," man":637,"orm":638," Y":639,"own":640,"ff":641," about":642,"ire":643," comp":644," tr":645,"au":646,"ven":647,"です":648,"so":649,"cc":650," which":651,"ance":652," would":653,"ib":654,"ick":655,"ep":656," any":657," cont":658," like":659,"ary":660,"んだ":661,"cl":662,"ub":663," other":664," In":665,"ions":666," im":667,"ile":668," ag":669,"ose":670,"ach":671," It":672,"では":673,"？」":674," ar":675,"には":676," some":677,"ove":678," qu":679," un":680," kn":681," time":682,"ks":683,"reat":684,"av":685," sp":686,"ond":687,"ase":688,"ord":689,"られ":690," St":691,"にな":692," into":693," if":694," been":695," V":696," app":697,"hed":698," get":699,"ign":700," there":701," res":702," off":703,"いう":704," ro":705,"uc":706,"ish":707,"ult":708," when":709,"この":710,"ree":711," over":712,"==":713,"ound":714,"ang":715,"ays":716,"かった":717," Ch":718," what":719,"ings":720,"ress":721," dis":722,"ical":723," sc":724," also":725," our":726,"ence":727,"fter":728," just":729,"ations":730,"ail":731," bl":732,"wn":733,"ount":734," said":735,"ru":736,"ren":737,"int":738,"いた":739,"でも":740," per":741,"ood":742,"ink":743," part":744," no":745,"ark":746," back":747,"urn":748,"irst":749," pe":750,"form":751,"nder":752,"ian":753," tw":754,"ade":755," than":756," spe":757,"さん":758,"ens":759," bec":760," could":761,"ild":762,"vel":763,"erv":764,"という":765,"itt":766,"ov":767,"ents":768,"ition":769,"ろう":770," year":771,"ft":772," look":773,"ory":774,"しい":775,"sel":776,"んな":777,"mer":778," $":779,"we":780," work":781,"ough":782,"hing":783,"round":784," new":785," only":786,"ob":787,"のだ":788," pre":789," know":790,"ater":791,"oy":792,"である":793," did":794,"ath":795,"いて":796,"ors":797,"ull":798," co":799," am":800,"ople":801," fl":802,",\"":803,"ph":804," its":805," first":806,"ons":807,"しま":808,"end":809,"fore":810," rec":811,"れた":812,"だけ":813," how":814,"vers":815,"として":816," then":817,"ious":818,"rough":819,"リー":820,"...":821,"ces":822,"っている":823," pr":824,"だった":825,"ict":826,"port":827," need":828," des":829," \\":830,"！」":831,"している":832," We":833,"iss":834," two":835," sm":836,"igh":837," want":838,"xt":839," people":840,"れる":841,"なく":842," see":843," through":844,"のは":845,"ause":846,"ward":847," bet":848," after":849,"ock":850," again":851," po":852," “":853,"まで":854,"''":855," down":856,"row":857,"tern":858,"),":859,"Th":860,"ning":861,"ates":862," may":863," under":864,"ily":865,"aw":866,"された":867,"ght":868,"be":869,"んで":870," acc":871," fo":872,"les":873,"っと":874,"ール":875," every":876,"?\"":877,"ont":878,"com":879,"これ":880,"amp":881,"du":882,"uch":883,"じゃ":884," now":885," comm":886," even":887,"のか":888,"hen":889," make":890,"ます":891,"self":892," way":893,"どう":894,"ual":895,"ise":896,"ると":897," act":898,"ife":899,").":900," att":901,"ied":902," before":903,"clud":904,"other":905," where":906," use":907," most":908,"ター":909,"ック":910," hand":911,"もの":912,"way":913,"ect":914,"ss":915,"しか":916,"rent":917,"ec":918," hel":919,"In":920,"__":921," well":922," This":923," play":924," right":925,"old":926,"rit":927,"ty":928,"ting":929," em":930,"oth":931,"れば":932,"omet":933,"llow":934," She":935,"なかった":936," rem":937,"ating":938,"あり":939,"を見":940,"ng":941," should":942,"ように":943,"ower":944,"oss":945," cons":946,"lic":947," You":948,"より":949,"なら":950," gu":951," don":952,"ちゃ":953,"ful":954," help":955," good":956,"ew":957," ind":958,"ため":959,"aking":960," very":961," –":962," ke":963," bu":964," Un":965,"get":966,"でき":967," sl":968," sec":969," long":970,"alk":971,"bs":972,"erm":973,"ert":974," add":975," much":976,"lect":977,"ラン":978,"ave":979,"ble":980,"がら":981," think":982," rel":983,"いい":984," these":985,"日本":986," made":987," ent":988,"える":989,"led":990,"air":991,"ット":992,"ject":993," Re":994,"hat":995,"ited":996," ac":997,"the":998,"vent":999,"fect":1000," prov":1001," own":1002,"スト":1003," here":1004,"erson":1005,"gr":1006,"ell":1007," dif":1008,"pect":1009,"イン":1010," includ":1011,"なん":1012,"sh":1013," being":1014,"anc":1015,"ながら":1016,"とな":1017,"up":1018," ass":1019," reg":1020," tra":1021,"ased":1022,"ific":1023,"ather":1024,"iew":1025," fin":1026," start":1027,"hes":1028,"ティ":1029," ph":1030,"たち":1031,"als":1032," col":1033,"ible":1034,"ange":1035,"uring":1036,"ities":1037," around":1038," many":1039,"====":1040," br":1041," because":1042," And":1043," end":1044," such":1045,"など":1046,"ee":1047," &":1048,"ck":1049," supp":1050," set":1051," serv":1052," years":1053," sy":1054,"ener":1055,"ank":1056,"az":1057," head":1058,"あった":1059,"ool":1060,"ational":1061,"ics":1062,"orn":1063,"ys":1064,"ince":1065,"its":1066," Sh":1067,"ix":1068," take":1069,"ート":1070," ra":1071,"きた":1072," sur":1073,"ments":1074," find":1075," still":1076," imp":1077,"ures":1078," somet":1079,"っていた":1080," =":1081,"ah":1082,"ょう":1083,"にも":1084,"ular":1085," call":1086,"He":1087,"day":1088,"cess":1089,"ually":1090," op":1091,"gan":1092,"リア":1093," while":1094,"ける":1095," does":1096,"ので":1097,"io":1098,"ug":1099," bel":1100," car":1101,"ility":1102," dec":1103,"any":1104," used":1105,"ident":1106," inst":1107," gr":1108," read":1109,"？　":1110,"ts":1111,"けど":1112," inc":1113,"と思":1114,"{\\":1115," Al":1116," str":1117,"ex":1118,"arch":1119," ins":1120,"ef":1121,"ような":1122," great":1123,"ik":1124," che":1125,"atch":1126," ret":1127," Ar":1128,"ought":1129,"ale":1130,"だろう":1131,"pr":1132," day":1133,"ason":1134,"ms":1135,"ディ":1136,"ative":1137,"olog":1138," |":1139,"そんな":1140,"ash":1141,"land":1142," those":1143,"！　":1144," too":1145,"していた":1146,"ier":1147," inv":1148," going":1149,"れて":1150,"――":1151,"It":1152,"ters":1153," But":1154,"ittle":1155,"……」":1156," show":1157,"ax":1158,"自分":1159," Com":1160,"ins":1161,"rib":1162," They":1163,"uck":1164," '":1165,"ング":1166," stud":1167," spec":1168,"ever":1169," If":1170,"ices":1171,"read":1172," gl":1173," ear":1174,"ps":1175,"ouse":1176," mon":1177," ey":1178,"がある":1179,"ork":1180," life":1181," char":1182,"imes":1183," inte":1184," say":1185," person":1186," fam":1187,"der":1188," pres":1189," world":1190,"cept":1191,"ody":1192," follow":1193,"ness":1194,"riv":1195,"ared":1196,"stem":1197," turn":1198,"thing":1199,"ween":1200," same":1201," sub":1202," sim":1203,"また":1204,"und":1205," loc":1206,"とは":1207," found":1208,"formation":1209," high":1210," fr":1211," point":1212," last":1213," :":1214," diffe":1215,"We":1216,"ード":1217,"ple":1218," min":1219,"enc":1220,"けて":1221,"pped":1222,"riend":1223,"ient":1224,"You":1225," feel":1226," mem":1227,"rest":1228,"man":1229,"chool":1230,"iness":1231,"oun":1232," exper":1233,"えて":1234," each":1235,"によ":1236," ask":1237," sk":1238,"しく":1239," really":1240,"ience":1241," real":1242," little":1243,"iet":1244," something":1245," ser":1246," between":1247,"ner":1248,"めて":1249,"かな":1250," trans":1251,"たい":1252," An":1253," As":1254," mod":1255,"meric":1256," both":1257," De":1258," didn":1259," bo":1260," cur":1261,"ize":1262,"ret":1263," met":1264," best":1265," {":1266,"の中":1267,"ライ":1268," form":1269," happ":1270,"ement":1271," cour":1272," few":1273," num":1274," bus":1275," produ":1276," inter":1277," cre":1278,"いる":1279," disc":1280,"とも":1281,"ield":1282,"akes":1283,"att":1284,"ublic":1285,"ives":1286," run":1287,"ines":1288,"ames":1289,"彼女":1290,"ata":1291,"oh":1292,"させ":1293," open":1294,"ュー":1295,"ric":1296,"ross":1297,"だが":1298," exp":1299,"ント":1300,"もう":1301,"ちゃん":1302,"される":1303," pol":1304," New":1305,"ute":1306,"こう":1307,"いつ":1308," home":1309," Pro":1310," got":1311," three":1312,"えた":1313,"ませ":1314," never":1315,"less":1316,"「……":1317," let":1318,"ues":1319,"arm":1320,"ways":1321," cr":1322," Le":1323,"けた":1324,"line":1325,"ages":1326,"ーム":1327,"ined":1328,"ョン":1329,"ished":1330," away":1331,"velop":1332," place":1333,"hip":1334," dist":1335," requ":1336," comple":1337,"gin":1338," care":1339,"ving":1340,"//":1341," another":1342," det":1343," lead":1344,"ってい":1345," against":1346,"そして":1347," come":1348,"ars":1349,"ことを":1350,"ling":1351,"of":1352,"ized":1353,"ution":1354,"ger":1355,"ivers":1356,"Re":1357," bro":1358,"=\"":1359," art":1360," ob":1361,"alth":1362," ev":1363,"ann":1364,"irect":1365," ed":1366," lar":1367,"ired":1368," seem":1369,"リン":1370," For":1371," cle":1372,"ered":1373,"This":1374,"gg":1375,"ten":1376,"ほど":1377,"ffect":1378," child":1379," things":1380,"uth":1381," thought":1382,"ision":1383,"lease":1384," information":1385," fil":1386," small":1387," Se":1388,"かり":1389," try":1390," rep":1391," class":1392,"ved":1393," Wh":1394," dr":1395," book":1396," second":1397," count":1398,"ets":1399," tri":1400,"と言":1401," Cl":1402,"St":1403,"める":1404,"ころ":1405," av":1406,"ists":1407," system":1408,"ted":1409," unt":1410," el":1411," sw":1412," sign":1413," wee":1414,"だから":1415," med":1416," keep":1417," left":1418,"iving":1419,"ode":1420," different":1421," pur":1422," without":1423,"ことが":1424,"ton":1425," Z":1426,"人の":1427," must":1428,"になる":1429," Americ":1430," [":1431," friend":1432,"られた":1433," There":1434," put":1435," old":1436,"feren":1437," pass":1438," fun":1439,"outh":1440,"めた":1441,"ves":1442," mov":1443," power":1444," gener":1445,"あの":1446," ref":1447,"ER":1448," rest":1449," wr":1450," love":1451,"世界":1452," def":1453," conf":1454," team":1455,"ファ":1456,"ense":1457," eas":1458," might":1459," Bl":1460," contin":1461,"arn":1462," during":1463,"俺は":1464,"ました":1465," wom":1466," since":1467," int":1468," next":1469,"アル":1470," eyes":1471,"ants":1472,"over":1473," ca":1474," poss":1475,"duc":1476,"\",":1477,"上げ":1478," room":1479,"gram":1480,"here":1481,"ption":1482,"con":1483," game":1484,"くる":1485," sure":1486,"chn":1487,"ern":1488,"ここ":1489,"view":1490," hard":1491,"しょう":1492,"me":1493,"ctions":1494," full":1495," name":1496,"そこ":1497," stand":1498,"roup":1499,"魔法":1500," always":1501," develop":1502," post":1503," until":1504," cent":1505,"ering":1506,"ically":1507,"フィ":1508,"ature":1509,"さい":1510," list":1511,"れない":1512,"言葉":1513," hum":1514,"aj":1515," fact":1516,"ided":1517," light":1518,"私は":1519,"</":1520," ext":1521," lot":1522," mark":1523,"new":1524,"まま":1525," design":1526,"なる":1527,"bers":1528,"られる":1529,"ract":1530," val":1531,"ース":1532,"ately":1533,"med":1534," vis":1535,"reen":1536," tell":1537,"!\"":1538," beh":1539," top":1540," How":1541,"rand":1542,"\":":1543,"ional":1544," business":1545,"uss":1546," On":1547," quest":1548," expl":1549," Q":1550,"まり":1551,"ched":1552," side":1553,"ird":1554,"ことは":1555," better":1556,"じゃない":1557,"osed":1558,"シャ":1559," ty":1560,"ーク":1561,"のに":1562," del":1563," face":1564,"cent":1565,"学校":1566,"gy":1567,"app":1568,"ced":1569,"とか":1570," support":1571,"ised":1572," plan":1573," using":1574,"ially":1575," family":1576,"少し":1577," var":1578,"もし":1579,"ral":1580,"dd":1581,"elt":1582," appro":1583,"になった":1584,"raph":1585," main":1586,".”":1587,"____":1588," Be":1589,"ats":1590," enough":1591,"それは":1592,"出来":1593,"ides":1594," free":1595,"手を":1596," Sc":1597," adv":1598,"らい":1599,"ining":1600," cor":1601,"おり":1602,"かに":1603,"ality":1604,"br":1605,"ably":1606,"ロー":1607," water":1608,"ても":1609,"stand":1610," word":1611," allow":1612," commun":1613,"by":1614," Mar":1615,"ertain":1616," though":1617," build":1618,"oice":1619,"rol":1620,"リス":1621," At":1622," i":1623,"inal":1624,"しかし":1625,"ism":1626," result":1627,"に入":1628,"--":1629," took":1630,"IN":1631,"ream":1632," school":1633,"els":1634," partic":1635," resp":1636," mus":1637," .":1638," return":1639,"ません":1640,"irl":1641," Is":1642," prof":1643,"の人":1644,"uk":1645,"ember":1646," give":1647," inf":1648," thing":1649," came":1650," number":1651,"pec":1652,"_{":1653,"いや":1654,"ron":1655,"大き":1656,"ured":1657,"ope":1658,"cri":1659,"atter":1660,"ina":1661,"ator":1662," belie":1663,"時間":1664," able":1665," body":1666," mom":1667,"取り":1668,"oad":1669,"iqu":1670,"大学":1671," rece":1672," ide":1673,"ider":1674,"レイ":1675,"rist":1676,"バー":1677," import":1678," near":1679,"ump":1680,"aster":1681,"ON":1682,"Ch":1683," sing":1684," bre":1685,"持ち":1686," interest":1687," product":1688," big":1689,"りと":1690," Fr":1691,"ury":1692,"ained":1693,"ital":1694," ''":1695,"ards":1696," Sp":1697,"orth":1698,"iver":1699," So":1700," opp":1701,"なんだ":1702," direct":1703,"ではない":1704," That":1705,"らない":1706,"ップ":1707,"・・":1708,"AT":1709,"ural":1710," level":1711,"ission":1712,"ンド":1713,"ところ":1714," sol":1715,"ane":1716," pat":1717,"ains":1718," est":1719," order":1720,"ジャ":1721,"bo":1722,"はい":1723," process":1724,"感じ":1725," All":1726,"できる":1727,"aring":1728," kill":1729,"ently":1730,"ology":1731," month":1732,"========":1733," Or":1734,"sp":1735,"ruct":1736,"されている":1737,"pend":1738,"wards":1739,"What":1740," four":1741,"eng":1742," air":1743," night":1744," along":1745," const":1746,"let":1747," program":1748,"ote":1749," Pl":1750,"If":1751,"ley":1752,"にお":1753,"ait":1754,"ですか":1755,"まだ":1756,"ott":1757," once":1758," effect":1759,"my":1760,"na":1761,"iversity":1762," es":1763," within":1764," mar":1765,"ead":1766," days":1767,"ention":1768," far":1769,"pro":1770," including":1771,"oint":1772,"ots":1773," asked":1774," leg":1775,"ustom":1776,"err":1777,"alf":1778,"ma":1779,"ション":1780,"ither":1781,"part":1782," later":1783,"ived":1784," men":1785,"ened":1786,"との":1787," looked":1788," bit":1789,"言う":1790,"テレ":1791," large":1792,"%%":1793," talk":1794," /":1795," less":1796,"の一":1797,"side":1798,"ged":1799," proble":1800,"前に":1801," Ind":1802," war":1803,"らしい":1804,"ready":1805,"iven":1806," why":1807,"ベル":1808," attack":1809," pos":1810,"同じ":1811,"oney":1812,"lish":1813," Tr":1814," dem":1815,"used":1816," went":1817,");":1818," mind":1819," When":1820," *":1821,"ery":1822," techn":1823,"につ":1824," called":1825,"俺の":1826," iss":1827," sit":1828,"ior":1829,"ただ":1830,"なんて":1831," looking":1832," area":1833,"ips":1834," move":1835," perform":1836," kind":1837,"gether":1838,"。」":1839,"See":1840,"vern":1841,"ohn":1842,"ai":1843," Ph":1844,"tend":1845,"しまった":1846," data":1847," ele":1848,"most":1849," case":1850," mag":1851,"ene":1852,"uff":1853," prom":1854,"idd":1855," ever":1856," equ":1857," state":1858," house":1859,"not":1860,"ああ":1861,"ccess":1862," mean":1863," making":1864," having":1865," law":1866," hold":1867,"ージ":1868," already":1869," win":1870," charac":1871," Con":1872," soc":1873,"ball":1874," walk":1875," Col":1876,"ying":1877,"ンの":1878,"ush":1879,"ailable":1880,"とした":1881," ve":1882,"ちょ":1883," pop":1884," public":1885," Ad":1886,"的な":1887,"And":1888,"せる":1889,"As":1890," oper":1891,"シュ":1892,"mb":1893," report":1894,"私の":1895,"のが":1896," No":1897,"aces":1898," course":1899,"してい":1900," appear":1901,"ung":1902,"arent":1903," land":1904,"aim":1905,"ちら":1906,"力を":1907,"AR":1908," $\\":1909," His":1910,"ified":1911,"work":1912,"pping":1913,"de":1914," together":1915," pay":1916," group":1917," Ex":1918,"aps":1919,"vious":1920,"を受":1921," done":1922," organ":1923,"ried":1924,"レー":1925,"っても":1926," bas":1927,"ium":1928," line":1929,"ister":1930,"考え":1931,"エル":1932,"ES":1933," par":1934," grow":1935," company":1936,"aut":1937," least":1938," quick":1939,"for":1940,"顔を":1941,"プロ":1942,"アン":1943," anything":1944," sever":1945," times":1946,"She":1947," health":1948,"テレビ":1949," himself":1950," short":1951,"ッド":1952," God":1953,"良い":1954,"mber":1955,"use":1956," To":1957," incre":1958," known":1959,"タイ":1960," proper":1961,"AN":1962,"une":1963," meet":1964," fore":1965,"sc":1966,"Wh":1967," My":1968,"チャ":1969,"://":1970," pain":1971," important":1972," May":1973,"的に":1974,"カー":1975," creat":1976," young":1977," stat":1978,"right":1979," Te":1980,"キャ":1981,"rop":1982,"れている":1983," understand":1984,"oot":1985,"son":1986," manag":1987,"スの":1988,"ours":1989," past":1990," Comm":1991,"ases":1992,"min":1993,"わけ":1994," service":1995,"enn":1996,"ってる":1997," ann":1998," eng":1999," sound":2000," prote":2001," current":2002," others":2003," several":2004,"思い":2005," present":2006,"りの":2007,"年に":2008,"raw":2009,"oor":2010,"ware":2011,"であった":2012,"クラ":2013," govern":2014,"しまう":2015,"ency":2016," American":2017," X":2018,"ffic":2019," chang":2020," test":2021,"co":2022,"rew":2023,"アイ":2024,"ored":2025," available":2026,"ploy":2027," term":2028," door":2029,"すると":2030,"ories":2031," won":2032,"ony":2033," record":2034," webs":2035," experience":2036," hist":2037," occ":2038," says":2039,"ising":2040," pa":2041,"par":2042,"iam":2043," complete":2044," often":2045,"ization":2046,"しない":2047," What":2048,"arr":2049," Eng":2050," —":2051,"orld":2052,"りに":2053,"リカ":2054,"事を":2055,"スター":2056,"ステ":2057," orig":2058," +":2059,"inc":2060," view":2061," city":2062," doing":2063," behind":2064," United":2065,"……。":2066," told":2067," across":2068,"augh":2069," started":2070," week":2071," wasn":2072," la":2073," writ":2074,"へと":2075,"みたい":2076," become":2077," seen":2078," children":2079,"uthor":2080," change":2081,"....":2082," close":2083,"por":2084,"ison":2085,"ルー":2086," tre":2087,"OR":2088,"ully":2089,"コン":2090,"An":2091,"ster":2092," fight":2093,"とう":2094," sn":2095,"Ex":2096,"本当":2097," rese":2098," site":2099,"istr":2100," custom":2101,"何か":2102," project":2103,"itions":2104,"お前":2105," Christ":2106,"oll":2107,"ows":2108," following":2109," doesn":2110,"ape":2111,"ians":2112," girl":2113,"utes":2114,"上が":2115,"Al":2116,"aken":2117," ste":2118," event":2119,"ued":2120," Pr":2121,"aced":2122," expect":2123," cap":2124," offic":2125," death":2126,"ney":2127," special":2128," story":2129,"ances":2130," market":2131,"こんな":2132,"On":2133,"ルド":2134," someone":2135,"そうだ":2136," moment":2137," certain":2138,"を持":2139,"oci":2140," Man":2141,"ajor":2142," human":2143,"oon":2144," wanted":2145,"年の":2146,"、「":2147,"ole":2148,"ample":2149," getting":2150,"気が":2151," hands":2152,"のだろう":2153,"に対":2154,"]]":2155,"There":2156," yet":2157,"},":2158," control":2159,"ids":2160,"ination":2161," working":2162,"But":2163,"ref":2164,"部屋":2165," cost":2166,"acy":2167," dev":2168,"えば":2169,"いで":2170," nothing":2171,"選手":2172," heart":2173,"illion":2174,"ortun":2175,"uro":2176,"くな":2177,"pos":2178,"すぐ":2179,"・・・":2180,"によって":2181,"rown":2182," felt":2183,"引き":2184,"ヴィ":2185,"joy":2186,"sw":2187," front":2188," food":2189,"iety":2190,"yn":2191,"inks":2192,"eb":2193," University":2194,"ales":2195," conc":2196," actually":2197,"放送":2198,"それを":2199," With":2200," given":2201,"irc":2202,"eth":2203,"IS":2204," learn":2205,"東京":2206,"EN":2207," almost":2208,"フェ":2209,"ries":2210," black":2211," season":2212," job":2213," wind":2214," John":2215,",”":2216," money":2217," strong":2218," lim":2219,"フォ":2220,"にして":2221," turned":2222,"シー":2223,"せて":2224," reason":2225," mil":2226,"attle":2227," Fl":2228," prob":2229," half":2230,"目を":2231," access":2232," et":2233," knew":2234," feat":2235," invest":2236," series":2237," US":2238," clear":2239," addition":2240," fall":2241," After":2242,"bl":2243," Her":2244,"lished":2245,"ために":2246," possible":2247,"方が":2248," pract":2249," live":2250,"ograph":2251,"!!":2252," saw":2253," success":2254,"ones":2255,"サー":2256," repl":2257," non":2258,"間に":2259,"ills":2260," provide":2261," cond":2262,"国の":2263,"自分の":2264,"icle":2265,"omm":2266,"ober":2267,"uly":2268,"スタ":2269,"ivid":2270,"存在":2271,"ラー":2272," local":2273," vers":2274,"resent":2275,"ferences":2276,"はず":2277," else":2278," rele":2279,"atic":2280,"そうな":2281," Car":2282," fur":2283,"head":2284,"ring":2285,"時に":2286,"wh":2287," website":2288,"yl":2289,"日本の":2290,"への":2291,"ability":2292," today":2293,"よく":2294," elect":2295,"により":2296,"人が":2297," Can":2298,"ちょっと":2299," States":2300,"マン":2301," cou":2302," based":2303,"ument":2304," dam":2305," dri":2306," foot":2307," makes":2308," music":2309," jo":2310," fire":2311,"ze":2312,"Sh":2313,"elf":2314," Gu":2315," intern":2316," means":2317,".,":2318," above":2319," low":2320," everything":2321," cut":2322,"可能":2323," tem":2324,"ヴァ":2325," trying":2326,"iding":2327,"による":2328," ground":2329,"ift":2330,"無い":2331,"かる":2332,"ulation":2333,"AL":2334,"}\\":2335,"ches":2336," women":2337,"パー":2338," members":2339," Me":2340," Not":2341," activ":2342,"必要":2343,"まる":2344," However":2345,"ctor":2346," either":2347," red":2348," film":2349,"ilt":2350,"though":2351,"fully":2352,"イト":2353,"であり":2354,"オー":2355,"iron":2356,"ルの":2357,"たし":2358,"出した":2359,"います":2360," stay":2361," conne":2362,"AS":2363,"場所":2364," single":2365,"yle":2366," check":2367," colle":2368,"No":2369,"mp":2370,"レン":2371," profess":2372,"これは":2373," deal":2374,"ource":2375," sent":2376," upon":2377,"ことも":2378,"以上":2379," Dr":2380,"されて":2381,"っぱ":2382," began":2383,"ails":2384,"put":2385," enjoy":2386,"umb":2387,"\">":2388,"について":2389,"^{":2390,"ama":2391,"出す":2392,"ili":2393," bad":2394,"ければ":2395,"日に":2396," Ste":2397,"reet":2398,"ential":2399,"での":2400," One":2401," visit":2402,"aterial":2403,"いか":2404," held":2405,"ジェ":2406,"となった":2407,"シア":2408,"fer":2409,"ルト":2410," gra":2411,"好き":2412," field":2413,"言って":2414," phot":2415,"tt":2416," pull":2417," Su":2418,"相手":2419," wond":2420," dark":2421,"にある":2422,"itive":2423," miss":2424," Br":2425,"くらい":2426," stop":2427,"aff":2428," vide":2429," Cent":2430," wall":2431," step":2432,"のように":2433," wait":2434," soon":2435,"ording":2436,"amed":2437," voice":2438,"ドラ":2439,".)":2440,"ask":2441," comb":2442," sum":2443,"うん":2444," War":2445,"ilar":2446,"くれた":2447,"よね":2448," words":2449," z":2450,"）、":2451,"For":2452,"となる":2453," question":2454," press":2455," whole":2456,"af":2457,"urs":2458," country":2459,"目の":2460," sil":2461,"How":2462," early":2463," foc":2464," soft":2465," pick":2466,"アメ":2467," dest":2468," true":2469," government":2470,"ached":2471," trad":2472,"IC":2473,"のお":2474,"立ち":2475," pot":2476," Am":2477," watch":2478," Do":2479," online":2480," begin":2481," mor":2482," particular":2483,"When":2484,"ule":2485,"ique":2486," bring":2487," fac":2488,"li":2489,"問題":2490,"oid":2491,"¯¯":2492," port":2493," taking":2494,"where":2495," services":2496,"人間":2497,"ler":2498,"IT":2499," major":2500,"roll":2501," Gr":2502,"oke":2503," quite":2504," inside":2505,"後に":2506," entire":2507,"えない":2508,"人は":2509,"ividual":2510," friends":2511," believe":2512,"irt":2513,"raft":2514," ce":2515,"tr":2516,"uture":2517," due":2518,"を開":2519," ‘":2520," bar":2521,"ients":2522," item":2523,"selves":2524," camp":2525,"今日":2526,"に行":2527," character":2528,"angu":2529,"That":2530,"**":2531," aut":2532,"っち":2533," lo":2534," impro":2535,"ges":2536,"に向":2537," became":2538,"アー":2539,"go":2540,"che":2541,"}}":2542,"変わ":2543," personal":2544," five":2545,"声を":2546,"作品":2547," Res":2548,"とする":2549,"fr":2550," opt":2551,"ことに":2552," World":2553,"rain":2554,"unch":2555,"落ち":2556,"urch":2557," mult":2558," woman":2559," --":2560,"itch":2561," break":2562,"aining":2563," super":2564," fav":2565,"irth":2566,"So":2567,"のも":2568,"になって":2569,"ox":2570," easy":2571,"ien":2572,"します":2573," idea":2574," account":2575,"text":2576,"もしれない":2577,"osp":2578,"はない":2579,"ply":2580,"=-":2581,"ference":2582," probably":2583," sle":2584,"htt":2585,"anks":2586,"empt":2587," mess":2588," problem":2589," sat":2590," father":2591,"iod":2592,"時代":2593,"あれ":2594,"HE":2595," taken":2596,"play":2597," space":2598," polit":2599," enc":2600,"女性":2601," arm":2602," author":2603," applic":2604," beaut":2605," hot":2606," comes":2607,"だと":2608," fre":2609," students":2610," ener":2611,"いている":2612,"昭和":2613,"と思う":2614,"攻撃":2615,"inn":2616,"ume":2617,"のような":2618," include":2619," gave":2620,"RE":2621,"来た":2622,"を使":2623," cho":2624,"せた":2625," bed":2626,"ging":2627,"食べ":2628,"言わ":2629," Ne":2630,"isc":2631,"出身":2632,"くれ":2633," among":2634,"しよう":2635," employ":2636," cook":2637,"どこ":2638,"通り":2639," white":2640," pri":2641,"itting":2642," ben":2643,"くだ":2644," Count":2645," leave":2646,"場合":2647,"duced":2648,"合わ":2649,"研究":2650,"に出":2651,"orts":2652,"oud":2653," works":2654,"rap":2655,"オン":2656," Co":2657," treat":2658,"それに":2659," dou":2660,"iff":2661,"ening":2662,"agon":2663," claim":2664,"ief":2665,"ourn":2666,"かい":2667," everyone":2668,"itle":2669," invol":2670,"aly":2671,"だって":2672,"room":2673,"終わ":2674," hope":2675,"~~":2676,"aving":2677,"れど":2678," rather":2679," age":2680," couldn":2681,"\".":2682,"とい":2683,"まった":2684,"icy":2685,"fl":2686,"彼は":2687," En":2688," defe":2689," squ":2690,"amb":2691,"ague":2692," pie":2693," however":2694,"現在":2695," ident":2696," individual":2697,"関係":2698,"mon":2699,"val":2700,"reg":2701,"ateg":2702,"アメリカ":2703," cal":2704,"まあ":2705,"映画":2706," matter":2707," example":2708," cover":2709,"ara":2710,"lement":2711," hair":2712,"ify":2713,"conom":2714," material":2715,"にか":2716,"apt":2717,"ilities":2718,"くれる":2719," These":2720,"ana":2721," mother":2722,"振り":2723," needed":2724,"AC":2725," hig":2726," blood":2727," community":2728,"ですね":2729," coming":2730,"）。":2731," offer":2732,"apan":2733,"体を":2734,"itor":2735," town":2736," building":2737,"idence":2738," forward":2739,"overed":2740," perfect":2741," needs":2742,"lex":2743,"icult":2744,"Pro":2745," type":2746," song":2747," pub":2748,"eter":2749,"uation":2750,"さら":2751,"ino":2752," Rep":2753," boy":2754," tot":2755,"mm":2756,"ively":2757," priv":2758,"ops":2759," shall":2760,"さんが":2761,"bed":2762," heard":2763," York":2764,"cted":2765," review":2766,"ese":2767,"さんは":2768,"oved":2769," typ":2770,"erc":2771,"}$":2772," mot":2773," common":2774," below":2775,"ae":2776," research":2777," third":2778,"からない":2779," net":2780," blog":2781," deep":2782,"org":2783," future":2784,"urity":2785,"一緒":2786," vol":2787," players":2788," contact":2789," King":2790,"abel":2791,"言い":2792," Ed":2793," indust":2794,"vert":2795," educ":2796," hours":2797," slow":2798,"情報":2799," specific":2800,"さんの":2801,"pecially":2802," fig":2803," value":2804," express":2805," games":2806,"しても":2807,"スは":2808,"騎士":2809," hit":2810,".'":2811," further":2812,"ダー":2813," compet":2814," City":2815,"isk":2816," quickly":2817,"とき":2818,"ってきた":2819,"str":2820,"References":2821,"いの":2822,"arl":2823,"oul":2824," ant":2825,"back":2826,"like":2827," answ":2828,"言った":2829,"気持ち":2830,"itted":2831,"げる":2832," Mr":2833," estab":2834,"ogn":2835,"My":2836,"hod":2837,"ブル":2838,"ゲーム":2839,"hel":2840," diff":2841," outside":2842,"』（":2843," pret":2844,"意味":2845," abs":2846,"oe":2847,"ude":2848," tou":2849," Will":2850," months":2851,"話を":2852,"ーン":2853,"けれど":2854," aff":2855,"math":2856," exc":2857,"後の":2858,"を行":2859," energy":2860," minutes":2861," social":2862,"つも":2863,"itten":2864,"ことで":2865," El":2866,"medi":2867," phys":2868," Then":2869," lost":2870,"こちら":2871," create":2872," pack":2873," #":2874,"eral":2875," swe":2876,"！！":2877,"ands":2878,"ault":2879,"っき":2880,"がない":2881,"しながら":2882,"(\\":2883,"irm":2884,"からの":2885,"会社":2886,"ires":2887,"ナー":2888,"付け":2889,"他の":2890,"になり":2891,"うち":2892,"だけで":2893,"スキ":2894," self":2895," history":2896," dead":2897," ago":2898," position":2899," sugg":2900,"ありが":2901," suggest":2902,"俺が":2903,"/(":2904,"aged":2905," table":2906,"リンク":2907,"To":2908,"pper":2909,"ari":2910,"違い":2911,"ternal":2912," cult":2913," Cal":2914," key":2915,"だな":2916,"よりも":2917," six":2918," isn":2919," Ge":2920,"atural":2921," products":2922,"丈夫":2923,"者の":2924,"crib":2925," discuss":2926,"asure":2927,"unt":2928,"なた":2929,"ille":2930,"urope":2931," Qu":2932,"表情":2933," ,":2934," period":2935,"}{":2936," Go":2937,"をつ":2938," pretty":2939,"cle":2940," circ":2941,"OU":2942," hon":2943,"load":2944," Jan":2945,"no":2946," relations":2947," respect":2948," please":2949," Sy":2950,"________":2951,"らず":2952,"脚注":2953," tried":2954,"illed":2955," Har":2956,"本当に":2957," National":2958,"ランド":2959," exist":2960,"っく":2961,"人物":2962,"vi":2963," mat":2964," ep":2965,"Not":2966," party":2967,"ウェ":2968," similar":2969," travel":2970,"Cl":2971," etc":2972,"fort":2973,"ED":2974,"lling":2975," cannot":2976," represent":2977," amount":2978," final":2979,"があった":2980,"」（":2981," content":2982," anyone":2983," towards":2984,"ST":2985,"Ar":2986," function":2987," track":2988,"set":2989,"arget":2990,"エン":2991," consider":2992,"anced":2993," Med":2994,"nding":2995,"viron":2996," quality":2997,"idge":2998,"ray":2999,"それが":3000,"少女":3001,"ental":3002," surpr":3003," State":3004,"大丈夫":3005," general":3006," video":3007," Just":3008," various":3009,"やら":3010," anim":3011," respons":3012,"私が":3013,"多く":3014," whether":3015," breat":3016,"face":3017,"ニー":3018,"ibr":3019," living":3020,"ights":3021,"モン":3022," speak":3023,"らく":3024," sold":3025," accept":3026," hor":3027,"のだが":3028,"てる":3029," myself":3030," seemed":3031,"ha":3032,"su":3033," news":3034," method":3035,"sy":3036," simply":3037,"They":3038,"たり":3039,"ources":3040,"外部":3041,"ックス":3042," norm":3043," lay":3044," million":3045,"adj":3046," fund":3047," Ass":3048,"aur":3049,"cription":3050,"メン":3051," App":3052," fail":3053," deb":3054,"avy":3055," Sec":3056,"anger":3057,"airs":3058,"様子":3059,"セン":3060,"手に":3061,"ruction":3062,"ibility":3063,"kn":3064," Aust":3065,"ades":3066," Pe":3067," instead":3068," South":3069,"asing":3070,"クロ":3071,"rel":3072," ord":3073,"の子":3074,"era":3075,"関連":3076," Now":3077," share":3078," parent":3079," appe":3080,"itary":3081,"imate":3082,"fact":3083,"emy":3084,"気に":3085,"uary":3086," necess":3087," seems":3088," compan":3089,"ID":3090," longer":3091,"aught":3092,"rought":3093,"add":3094,"日の":3095," benef":3096," page":3097," member":3098,"ival":3099,"のです":3100," sense":3101," attempt":3102,"iddle":3103,"iful":3104," address":3105," purch":3106," previous":3107," clos":3108,"alt":3109," rad":3110," Cont":3111," hear":3112," crit":3113," Ab":3114,"だよ":3115,"ada":3116," compl":3117,"iled":3118,"イル":3119,"浮か":3120,"われた":3121,"ises":3122," x":3123," Inst":3124,"anguage":3125,"ators":3126," pict":3127," opportun":3128," Min":3129," development":3130," son":3131,"reme":3132,"ジョン":3133," running":3134,"aves":3135," obs":3136,"すぎ":3137," weap":3138," former":3139," School":3140,"しゃ":3141,"小さ":3142,"iol":3143," feet":3144,"bum":3145," mass":3146," original":3147,"book":3148,"なければ":3149," eff":3150,"の上":3151," version":3152," North":3153," coun":3154,"けない":3155,"oph":3156,"ショ":3157," points":3158,"コー":3159,"レス":3160,"ダン":3161,"exp":3162,"ウィ":3163," Pol":3164," Ke":3165,"odd":3166,"だけど":3167,"いに":3168," Tw":3169," Europe":3170,"aching":3171,"AM":3172,"hers":3173,"、『":3174," sex":3175," Intern":3176,"できない":3177,"全て":3178,"rict":3179,"たく":3180," difficult":3181," road":3182,"そうに":3183,"urt":3184," Japan":3185," birth":3186," econom":3187,"gress":3188,"abor":3189," require":3190,"二人":3191," Part":3192,"ceed":3193," takes":3194,"ky":3195,"ござ":3196,"らの":3197,"ground":3198,"サン":3199,"その後":3200,"あなた":3201,"名前":3202,"antly":3203," div":3204,"iber":3205," size":3206," Brit":3207," object":3208,"ていない":3209," text":3210," clean":3211," Bar":3212," themselves":3213," hy":3214,"外部リンク":3215,"でしょう":3216,"いく":3217,"After":3218," store":3219,"cell":3220," late":3221," ri":3222,"key":3223,"ald":3224," host":3225,"iter":3226,"ledge":3227,"utions":3228," subject":3229," range":3230,"OT":3231,"ji":3232,"ites":3233," comput":3234," especially":3235,"ばかり":3236,"haps":3237," By":3238," stri":3239," search":3240," ple":3241,"やって":3242,"pril":3243,"time":3244,"ensive":3245," received":3246,"たちは":3247,"をする":3248," chall":3249," di":3250,"生き":3251," <":3252,"ッチ":3253," buy":3254,"かって":3255," stra":3256," added":3257,"ming":3258," round":3259," init":3260,"vironment":3261," results":3262,"Un":3263," Mc":3264,"rem":3265," itself":3266," usually":3267,"FF":3268," features":3269,"hern":3270,"させる":3271,"ugust":3272," wide":3273,"gs":3274,"かし":3275," looks":3276,"rec":3277,"られている":3278," cop":3279,"起こ":3280,"冒険":3281,"come":3282," floor":3283,"ules":3284,"られて":3285,"irit":3286," dro":3287,"mit":3288," Des":3289," Some":3290," finally":3291,"oo":3292," determ":3293,"olution":3294," tax":3295,"視線":3296," Per":3297,"ga":3298,"ください":3299," exact":3300,"を見て":3301," tele":3302," focus":3303,"All":3304," office":3305,"こそ":3306," infl":3307," created":3308," Oct":3309,"ification":3310," simple":3311,"しょ":3312,"様に":3313,"あまり":3314,"Be":3315,"off":3316,"Com":3317,"彼の":3318," ready":3319," moved":3320,"================":3321," Germ":3322," training":3323," likely":3324," Sw":3325," County":3326,"なり":3327,")/":3328,"からは":3329,"ルは":3330,"reng":3331," Your":3332," ill":3333,"彼女は":3334,"登場":3335,"omes":3336," decided":3337," Cor":3338,"の人物":3339," action":3340,"uge":3341,"の方":3342," coll":3343,"われる":3344," links":3345," gen":3346," cross":3347,"dom":3348,"わず":3349," fast":3350,"違う":3351,"番組":3352," capt":3353," sett":3354," questions":3355,"マー":3356,"col":3357," cred":3358," aw":3359,"自身":3360,"%%%%":3361,"ゅう":3362," bott":3363,"ship":3364,"LE":3365," doc":3366," wrong":3367,"一人":3368," box":3369,"begin":3370,"使用":3371,"comp":3372," battle":3373," brought":3374,"rows":3375," brother":3376,"gest":3377," sun":3378,"あっ":3379,"と呼":3380," log":3381," study":3382," immedi":3383,"が出":3384,"aughter":3385,"De":3386,"！！」":3387," provided":3388," agre":3389,"大きな":3390," Pres":3391,"icated":3392," reading":3393,"At":3394,"イド":3395," II":3396," released":3397,"グラ":3398,"かない":3399," Gl":3400," model":3401," favor":3402," Em":3403,"平成":3404,"まず":3405," inde":3406,"いを":3407,"状態":3408,"ptember":3409,"vs":3410," chance":3411," Don":3412," Comp":3413,"OM":3414," Sm":3415,"ニア":3416," Reg":3417," played":3418,"パン":3419,"にと":3420," remember":3421,"最初":3422,"ようだ":3423," Serv":3424," led":3425,"まさ":3426," vill":3427,"apter":3428," yourself":3429,"clus":3430,"クト":3431,"iction":3432,"頭を":3433,"ひと":3434," recogn":3435,"いが":3436," March":3437," Af":3438," sens":3439,"んです":3440,"！？」":3441," happy":3442," continue":3443,"tain":3444,"フラン":3445," morning":3446,"ww":3447,"chie":3448,"iting":3449," except":3450," worked":3451," price":3452," prep":3453,"ポー":3454,"バス":3455,"込んで":3456,"ek":3457,"ols":3458," safe":3459,"普通":3460,"なのか":3461,"確認":3462,"ありがとう":3463,"やる":3464,"様の":3465,"りを":3466," ens":3467,"ears":3468,"lected":3469," ship":3470," relationship":3471,"魔力":3472," fing":3473,"iles":3474,"子供":3475,"ていく":3476," aud":3477," ess":3478,"owers":3479," couple":3480,"ady":3481," ang":3482,"そういう":3483," path":3484," June":3485,"roy":3486,"With":3487,"iday":3488," nice":3489," required":3490,"resh":3491,"udd":3492,"以外":3493," announ":3494,"aint":3495,"魔物":3496," events":3497,"pite":3498," writing":3499,"zz":3500,"equ":3501," regard":3502," intro":3503," struct":3504," cell":3505,"べき":3506,"lin":3507," color":3508,"共に":3509," cast":3510,"ブラ":3511," defin":3512," wouldn":3513,"ux":3514," role":3515,"ests":3516,"において":3517," built":3518,"のみ":3519," Bro":3520," written":3521,"iple":3522,"ani":3523," recomm":3524," wonder":3525," link":3526,"ではなく":3527,"ham":3528,"出し":3529," sleep":3530,"切り":3531,"れていた":3532,"oes":3533," base":3534," House":3535,"ocked":3536," dig":3537,"><":3538,"osh":3539,"aul":3540," Mag":3541," associ":3542," mouth":3543," paper":3544,"ovember":3545," target":3546," books":3547,"omb":3548," Che":3549,"僕は":3550," ball":3551,"カル":3552," exam":3553," attention":3554,"cember":3555," recommend":3556," saying":3557," English":3558,"と同じ":3559,"発売":3560,"すぐに":3561,"ication":3562," ones":3563," arriv":3564," Bo":3565," sto":3566," web":3567,")$":3568,"前の":3569,"何も":3570," bur":3571,"ING":3572,"Ph":3573,"かもしれない":3574,"と言う":3575,"かけ":3576,"ners":3577," album":3578,"いていた":3579," mount":3580," esc":3581,"理由":3582," issues":3583," issue":3584,"bit":3585,"body":3586,"彼女の":3587,"ica":3588,"子の":3589,"に関":3590," card":3591,"ほう":3592,"家の":3593," player":3594," draw":3595,"さま":3596,"ords":3597,"tered":3598," assist":3599,"くん":3600," concern":3601,"Con":3602," skin":3603," mention":3604," High":3605,"vision":3606," dom":3607,"したら":3608,"のを":3609," court":3610," beautiful":3611,"なお":3612,"一緒に":3613,"with":3614," blue":3615," shows":3616,"Le":3617,"悪い":3618," arg":3619," April":3620," Ag":3621,"チェ":3622,"ンは":3623," feeling":3624,"事は":3625,"つの":3626," herself":3627," media":3628,"www":3629," July":3630,"unk":3631,"初めて":3632,"idered":3633,"_{\\":3634," reve":3635,"そのまま":3636,"ION":3637,"bor":3638," worth":3639,"くと":3640,"AP":3641," August":3642," Our":3643,"すれば":3644,"それで":3645," percent":3646,"ねぇ":3647,"ength":3648,"んだよ":3649," alone":3650," gold":3651," particip":3652,"スを":3653," happened":3654," gone":3655,"ius":3656," Mon":3657,"じゃあ":3658," signific":3659,"いえ":3660," sus":3661,"::":3662,"action":3663,"もある":3664,"を受け":3665," ways":3666," wood":3667,"中に":3668,"ashing":3669,"ography":3670," engine":3671," describ":3672,"aled":3673," force":3674," Par":3675,"ウン":3676," dep":3677,"lection":3678," protect":3679,"uel":3680,"ris":3681," phone":3682,"BS":3683," band":3684,"light":3685,"ables":3686,"atur":3687,"であ":3688,"EC":3689,"身体":3690,"iced":3691,"izing":3692," areas":3693,"に戻":3694,"##":3695," ability":3696,"かの":3697," thinking":3698," cause":3699,"一度":3700," Ser":3701," Act":3702,"lying":3703," industry":3704," West":3705,"鉄道":3706,"cy":3707," da":3708,"onse":3709," goes":3710," answer":3711,"事が":3712,"わたし":3713,"ny":3714,"rench":3715,"ニュー":3716," mach":3717,"見た":3718," fine":3719,"rect":3720," completely":3721,"cil":3722,"pose":3723," inj":3724," property":3725,"たちの":3726," neg":3727,"iant":3728,"itional":3729,"lt":3730,"istic":3731,"ander":3732," eye":3733," jud":3734,"確かに":3735," viol":3736,"を作":3737," companies":3738," America":3739," natural":3740," total":3741," playing":3742,"ett":3743," email":3744,"...\"":3745,"もっと":3746," ten":3747,"rence":3748,"US":3749,"活動":3750,"動き":3751,"def":3752," gets":3753,"sec":3754,"下の":3755,"yr":3756," lives":3757,"されていた":3758," damage":3759,"cast":3760," prim":3761," match":3762," career":3763," onto":3764,"ffe":3765," vict":3766,"ティー":3767," popular":3768,"者が":3769," January":3770,"CD":3771," professional":3772,"duct":3773,"more":3774,"icles":3775,"name":3776,"umn":3777,"atform":3778," date":3779," style":3780,"enty":3781," knowledge":3782," September":3783,"状況":3784," slight":3785," improve":3786," staff":3787,"さらに":3788," toward":3789,"リーズ":3790,"rugg":3791," Ang":3792,"んど":3793," section":3794," send":3795,"出して":3796," higher":3797,"そも":3798,"Se":3799,"結果":3800,"error":3801," October":3802,"wise":3803,"span":3804," performance":3805," depend":3806,"ジュ":3807,"首を":3808,"願い":3809,"付き":3810," official":3811," Black":3812," dire":3813," Dav":3814,"field":3815," named":3816,"arth":3817," streng":3818,"Pl":3819," title":3820,"みを":3821," weeks":3822,"band":3823,"iment":3824,"気を":3825," easily":3826,"生ま":3827,"ya":3828,"時の":3829,"程度":3830," located":3831," green":3832,"aling":3833,"ivil":3834,"uted":3835,"verage":3836," considered":3837," continued":3838," While":3839," national":3840,"貴族":3841," environment":3842," serious":3843,"ET":3844,"ancial":3845,"込む":3846,"ken":3847,"監督":3848," lif":3849," problems":3850," contract":3851,"AD":3852,"atever":3853," kept":3854," lower":3855," imm":3856," rock":3857," included":3858,"Yes":3859,"歴史":3860,"OS":3861,"高い":3862,"げた":3863," hop":3864,"聞いて":3865," upd":3866," technology":3867,"べて":3868," magic":3869,"ams":3870,"っかり":3871,"無理":3872,"達は":3873," Dep":3874," opened":3875,"に見":3876," regular":3877,"http":3878," shot":3879," save":3880,"んでいる":3881,"ministr":3882,"cer":3883,"戦闘":3884,"oring":3885," inn":3886,"astic":3887,"多い":3888,"それでも":3889,"なくて":3890,"icro":3891,"aging":3892," items":3893," arms":3894,"iling":3895," Red":3896,"oman":3897," trust":3898," ter":3899,"代表":3900," corn":3901,"Oh":3902," Park":3903," separ":3904," terms":3905," touch":3906," sometimes":3907,"飛び":3908,"inally":3909,"Tr":3910," wat":3911," according":3912," speed":3913,"早く":3914," ut":3915," Val":3916,"シェ":3917,"orge":3918," cat":3919," pers":3920," Austral":3921,"ならない":3922,"ジョ":3923,"ものだ":3924,"ples":3925,"eneral":3926,"まぁ":3927," cold":3928," died":3929," reach":3930,"つもり":3931," screen":3932,"アルバ":3933,"Ab":3934,"いつも":3935," giving":3936,"year":3937," attend":3938,"):":3939,"aby":3940,"Is":3941,"あん":3942,"isode":3943,"frac":3944,"言葉を":3945,"なくな":3946,"obal":3947,"おう":3948," deg":3949,"項目":3950," wish":3951,"ael":3952," Art":3953," risk":3954," More":3955," changes":3956,"erve":3957," Feb":3958,"ushed":3959,"おか":3960,"聞こ":3961,"oly":3962," achie":3963," loss":3964," followed":3965," wife":3966,"ruary":3967,"もない":3968," fair":3969,"vt":3970," comfort":3971,"acing":3972," killed":3973," smile":3974,"yond":3975,"楽し":3976,"osing":3977," surv":3978,"やり":3979," extra":3980,"出来る":3981,"Bl":3982," Even":3983,"++":3984,"urg":3985," maybe":3986," November":3987,"ondon":3988,"hood":3989," December":3990," straight":3991,"ったら":3992,"参加":3993," ye":3994,"の中で":3995,"undred":3996," comment":3997,"色の":3998,"可愛":3999,"スが":4000,"ixed":4001,"られない":4002," Mus":4003,"ety":4004,"受け":4005," receive":4006," parents":4007,"声が":4008,"ension":4009," born":4010," fem":4011,"アニ":4012," gun":4013,"なんか":4014," cry":4015," Cour":4016,"があり":4017,"ipped":4018,"しろ":4019,"テー":4020,"net":4021," pan":4022,"cript":4023," Im":4024,"LL":4025," jump":4026," ver":4027,"dden":4028,"roups":4029," prop":4030,"ibly":4031,"かつ":4032," arch":4033," install":4034," ...":4035,"打ち":4036,"uses":4037,"ils":4038,"hib":4039," und":4040," reached":4041," dream":4042,"なの":4043,"来る":4044,"の大":4045,"anch":4046,"たちが":4047,"ological":4048," brand":4049,"lls":4050," security":4051,"過ぎ":4052," note":4053," sort":4054,"んと":4055," carry":4056," moving":4057," THE":4058," includes":4059,"押し":4060,"事に":4061,"zy":4062," talking":4063," （":4064,"トル":4065,"ament":4066,"ずに":4067," offers":4068," stuff":4069," sudden":4070,"思う":4071," prior":4072," football":4073,"立て":4074,"ession":4075," throughout":4076,"せい":4077," designed":4078,"スペ":4079,"---":4080,"などの":4081," stood":4082,"atory":4083," grad":4084,"IG":4085," contrib":4086,"サイ":4087,"iers":4088,"aker":4089,"asons":4090,"BC":4091,"かわ":4092,"lier":4093,"ovel":4094,"々と":4095," necessary":4096,"ta":4097,"しば":4098,"Or":4099,"olf":4100," Mich":4101," fit":4102,"nded":4103," doub":4104," warm":4105,"One":4106," kids":4107," via":4108,"くない":4109,"men":4110," yes":4111," Rec":4112,"を取り":4113," immediately":4114," provides":4115,"ocr":4116," threat":4117," rate":4118," language":4119,"シン":4120,"AA":4121," mid":4122," situation":4123,"oom":4124,"king":4125,"Well":4126," normal":4127," station":4128," enter":4129," choice":4130,"理解":4131," trou":4132,"arning":4133,"なので":4134,"強い":4135,"sequ":4136," center":4137,"教育":4138," private":4139," returned":4140," board":4141,"してる":4142," President":4143," Lord":4144," image":4145,"arter":4146,"rs":4147," dress":4148," meeting":4149," network":4150," imag":4151," Afric":4152," From":4153," published":4154,"後ろ":4155,"azing":4156,"関連項目":4157,"alys":4158,"が見":4159,"ournal":4160,"説明":4161," unique":4162," Mark":4163,"iny":4164,"もち":4165,"んだけど":4166," club":4167," Jack":4168," exactly":4169,"に対して":4170," user":4171,"リオ":4172,"みに":4173," political":4174," Soc":4175,"itc":4176," Of":4177,"音楽":4178,"年生":4179," British":4180,"特に":4181,"using":4182," decision":4183," eat":4184," weight":4185,"今回":4186,"完全":4187,"イツ":4188,"魔王":4189,"mar":4190,"ki":4191,"aven":4192,"aches":4193," decl":4194,"ータ":4195,"you":4196,"チーム":4197," nature":4198,"今の":4199,"冒険者":4200,"およ":4201,"urance":4202,"ampions":4203,"シリーズ":4204," choose":4205," cool":4206," Je":4207,"行く":4208,"bf":4209,"ufact":4210,"orry":4211,"そろ":4212," click":4213,"overn":4214," nearly":4215," disapp":4216,"mission":4217," article":4218,"eta":4219,"()":4220," parts":4221,"つけ":4222,"but":4223," expected":4224,"bib":4225," education":4226,"estern":4227," currently":4228,"だし":4229," details":4230," veh":4231,"何を":4232," guess":4233," pred":4234," middle":4235," leading":4236,"hold":4237," Mor":4238," military":4239,"arily":4240," systems":4241,"やっぱ":4242,"urb":4243," exec":4244," increase":4245,"imin":4246," gives":4247,"Don":4248,"ラク":4249,"ええ":4250,"先生":4251," although":4252,"たら":4253,"da":4254," spot":4255," request":4256," potential":4257," passed":4258,"lebr":4259," drive":4260,"duction":4261,"ml":4262," San":4263,"様は":4264,"rief":4265," source":4266,"rm":4267," Air":4268,"ねえ":4269,"gu":4270," rev":4271,"までの":4272," hundred":4273," den":4274," release":4275,"cite":4276," cand":4277," write":4278," Sl":4279,"かく":4280,"だろ":4281,"大会":4282,"抱き":4283," prevent":4284,"rey":4285," production":4286,"えている":4287,"マイ":4288,"ですよ":4289," shown":4290," piece":4291,"ならば":4292,"出て":4293," affect":4294," happen":4295," Us":4296," appeared":4297,"ford":4298,"きて":4299,"fig":4300," offe":4301,"obile":4302,"Now":4303," fear":4304," London":4305,"やす":4306,"差し":4307,"imum":4308,"itely":4309," huge":4310,"wood":4311,"enced":4312," cases":4313,"aste":4314,"…」":4315,"心配":4316,"都市":4317,"ration":4318,"ハン":4319," meant":4320," convers":4321," practice":4322," Ac":4323," consum":4324,"ously":4325," directly":4326,"一番":4327,"lege":4328," uses":4329,"just":4330,"大きく":4331," cam":4332," emer":4333,"ウス":4334," TV":4335,"ジオ":4336,"nds":4337," clot":4338," powerful":4339,"とり":4340,"cal":4341," involved":4342," platform":4343,"IV":4344,"言葉に":4345,"ヴェ":4346,"ecause":4347," broad":4348,"スク":4349," policy":4350," opportunity":4351,"kay":4352,"ビー":4353,"シング":4354,"itation":4355,"born":4356," display":4357,"人を":4358," changed":4359,"かれた":4360,"aid":4361," nodd":4362,"すが":4363,"となり":4364,"order":4365,"一つ":4366,"oyal":4367," additional":4368," Day":4369," apart":4370,"ございます":4371,"By":4372,"rupt":4373,"well":4374," impact":4375,"とても":4376," First":4377,"igation":4378,"にとって":4379," groups":4380," February":4381," file":4382," served":4383,"earch":4384," bal":4385,"aign":4386,"bb":4387," burn":4388,"atives":4389,"いは":4390,"生活":4391," computer":4392,"left":4393," spent":4394," hol":4395," Pat":4396,"身を":4397,"ederal":4398," rout":4399,"をした":4400,"なんで":4401,"ネル":4402,"ありません":4403,"itution":4404," Sim":4405,"comm":4406,"ギルド":4407," bi":4408,"文化":4409,"Do":4410,"今は":4411,"部分":4412,"達の":4413,"OL":4414," Sam":4415," demon":4416," cy":4417," sal":4418,"ナル":4419,"cont":4420,"者は":4421,"rang":4422,"ollow":4423,"=:":4424," option":4425,"出演":4426,"aries":4427," race":4428," Coun":4429," Every":4430," distrib":4431,"ishing":4432," autom":4433,"距離":4434," related":4435,"利用":4436,"ディア":4437,"rote":4438," goal":4439," grand":4440," extreme":4441,"あと":4442,"uild":4443," places":4444," collect":4445," allowed":4446,"chan":4447,"さえ":4448,"バイ":4449," eight":4450,"様が":4451," print":4452,"ND":4453,"われ":4454,"出身の人物":4455," Dem":4456,"ror":4457," beginning":4458," recent":4459,"らは":4460,"||":4461," rights":4462,"inter":4463," Russ":4464," management":4465," standard":4466," block":4467," closed":4468," prot":4469," location":4470,"お願い":4471,"同時に":4472," breath":4473," mur":4474,"聞いた":4475,"にて":4476,"したが":4477,"Te":4478,"アレ":4479,"iring":4480," Stud":4481," secret":4482,"ですが":4483," Great":4484,"ager":4485," ahead":4486,"¯¯¯¯":4487," influ":4488," mis":4489,"item":4490,"になっている":4491,"月に":4492,"Des":4493," star":4494," glass":4495,"としては":4496,"orks":4497," danger":4498,"達が":4499," spirit":4500,"結婚":4501," leaders":4502,"と共に":4503," lack":4504," feed":4505,"ものの":4506," gas":4507,"ロン":4508," skills":4509," figure":4510,"にいる":4511," leaving":4512,"力が":4513,"itute":4514,"mas":4515," shoot":4516," wa":4517,"vin":4518," thous":4519,"ダメ":4520," beyond":4521,"　　":4522,"いない":4523," pulled":4524," characters":4525," tal":4526," medical":4527,"女子":4528," depart":4529," Fe":4530,"artment":4531," whose":4532,"External":4533,"olute":4534,"iforn":4535," strength":4536,"なぁ":4537," wants":4538," lik":4539," lat":4540,"マル":4541,"icate":4542," command":4543,"istory":4544," La":4545,"魔術":4546,"ffff":4547,"ero":4548," customers":4549," states":4550,"スキル":4551," Let":4552,"のため":4553,"おい":4554," starting":4555,"スー":4556," park":4557," Center":4558," police":4559,"をして":4560," subs":4561,"オレ":4562,"pha":4563," north":4564,"あら":4565,"スカ":4566,"ogle":4567," international":4568," learning":4569,"すら":4570," response":4571,"にする":4572," fell":4573,"pm":4574,"突き":4575,"het":4576,"ube":4577,"ガー":4578," Kn":4579," ge":4580,"board":4581,"アルバム":4582,"料理":4583,"ってくる":4584," code":4585,"試合":4586," har":4587," recently":4588," stopped":4589,"gar":4590,"ipping":4591," destroy":4592,"作曲":4593," daughter":4594," approach":4595,",'":4596," IS":4597,"enge":4598," drink":4599," guy":4600,"絶対":4601,"キー":4602,"ワー":4603,"II":4604," conditions":4605,"New":4606," tour":4607," financial":4608," truth":4609,"事件":4610,"label":4611,"uments":4612,"行動":4613," chest":4614," prec":4615,"大阪":4616," summer":4617," surround":4618,"かん":4619," French":4620,"que":4621,"ッと":4622," stage":4623,"omen":4624," ran":4625,"itter":4626,"んでいた":4627," quiet":4628,"mitted":4629," interesting":4630," plant":4631,"pre":4632,"意識":4633," waiting":4634," William":4635," purpose":4636,"OW":4637," hour":4638,"that":4639,"込み":4640,"ifornia":4641,"ees":4642,"la":4643," bag":4644,"真っ":4645,"始めた":4646," Tra":4647,"入り":4648,"uke":4649," bank":4650,"再び":4651," message":4652,"isions":4653,"っちゃ":4654,"レベル":4655,"pecial":4656,"高等":4657,"aper":4658,"alysis":4659," die":4660," physical":4661,"と呼ば":4662," finished":4663,"ounds":4664,"明治":4665,"入れ":4666," insp":4667,"IM":4668,"クリ":4669,"と思った":4670,"ocks":4671," modern":4672," movie":4673,"eq":4674,"わない":4675,"えず":4676," Sch":4677," Please":4678,"物を":4679," nodded":4680,"idth":4681,"主人":4682,"sub":4683,"odes":4684," raised":4685,"box":4686,"ka":4687,"based":4688,"erved":4689," bow":4690,"おお":4691,"ずっと":4692,"duce":4693,"トラ":4694," average":4695,"Sc":4696," Tom":4697,"iation":4698," population":4699,"oper":4700,"はり":4701," king":4702,"aith":4703," accom":4704," teac":4705,"でもない":4706,"移動":4707,"asc":4708," extend":4709,"やっぱり":4710," application":4711,"ville":4712,"inary":4713,"なのだ":4714," established":4715,"逃げ":4716," described":4717," heavy":4718,"きっと":4719,"Me":4720,"まるで":4721,"！？":4722,"担当":4723,"ールド":4724,"ネット":4725," earn":4726,"なのに":4727," suit":4728,"開発":4729,"ores":4730,"息を":4731,"orrow":4732,"所属":4733," Cr":4734,"ij":4735,"down":4736," ign":4737," oil":4738," software":4739,"ミー":4740,"FC":4741,"実際":4742," roll":4743,"がる":4744,"の手":4745," region":4746,"。……":4747," mer":4748,"可能性":4749," treatment":4750," options":4751,"fficient":4752,"フト":4753," walked":4754," Court":4755,"bar":4756," hus":4757,"部の":4758," Int":4759,"にした":4760," Republic":4761,"hem":4762,"iance":4763," student":4764,"何度":4765,"igned":4766,"ibrary":4767," International":4768,"タン":4769,"ares":4770," levels":4771," Super":4772," opin":4773,"App":4774," century":4775," consist":4776,"せん":4777," stories":4778,",\\":4779,"itude":4780," Are":4781," celebr":4782,"ハイ":4783," College":4784,"ora":4785," wel":4786,"らし":4787," standing":4788,"$.":4789," Associ":4790," mist":4791," knows":4792,"iences":4793," credit":4794,"込んだ":4795,"位置":4796,"時は":4797," notice":4798,"ともに":4799,"imately":4800," respond":4801,"ipe":4802,"asion":4803,"unn":4804,"onent":4805,"$,":4806," meaning":4807,"テン":4808," mission":4809," independ":4810,"ちょう":4811," copy":4812," whatever":4813," earlier":4814,"ura":4815,"PS":4816," emot":4817,"istry":4818,"ゆっく":4819,"Why":4820," fully":4821,"OV":4822," wrote":4823," perhaps":4824," caught":4825,"オリ":4826," slowly":4827," Char":4828,"lands":4829," plans":4830," spread":4831,"反応":4832," inform":4833,"umber":4834," seeing":4835," Oh":4836,"itte":4837," master":4838,"ろん":4839,"地域":4840," charge":4841,"Our":4842," surface":4843," impress":4844,"を持つ":4845,"みんな":4846,"つつ":4847," south":4848,"込ま":4849,"see":4850,"illing":4851," legal":4852,"を取":4853," Off":4854,"当然":4855," acqu":4856," guard":4857,"近く":4858,"あって":4859," condition":4860," manufact":4861,"デル":4862," aware":4863,"発表":4864,"周囲":4865,"白い":4866,"vey":4867,"バル":4868,"gl":4869,"ダイ":4870,"ayer":4871,"ulated":4872,"arrow":4873,"っぽ":4874," relig":4875,"どんな":4876," ensure":4877,"および":4878,"oted":4879," histor":4880,"ospital":4881," countries":4882,"ico":4883," obvious":4884," multiple":4885," placed":4886," frequ":4887," Sen":4888,"change":4889,"」「":4890,"rie":4891,"house":4892,"sych":4893," Law":4894,"小さな":4895," qual":4896," direction":4897,"アニメ":4898," subst":4899," peace":4900," activities":4901,"戦争":4902," agree":4903," appears":4904," document":4905," James":4906," Here":4907," League":4908,"edd":4909," saf":4910,"iable":4911,"gen":4912," Pal":4913,"merc":4914," Dis":4915,"国際":4916," dru":4917,"技術":4918,"arden":4919," occur":4920,"としても":4921," Acc":4922,"icip":4923," complex":4924," dise":4925,"僕の":4926,"やはり":4927,"上げる":4928," Up":4929," picture":4930," neigh":4931,"oming":4932,"からな":4933," earth":4934,"体の":4935,"hy":4936," tree":4937," lines":4938," correct":4939,"さっき":4940," species":4941," California":4942,"owing":4943,"arp":4944,"ipment":4945,"に乗":4946,"inner":4947," users":4948," allows":4949,"かなり":4950,"emic":4951,"仕事":4952,"一般":4953," cookies":4954," beg":4955," East":4956," Any":4957,"ida":4958,"Qu":4959," certainly":4960,"社会":4961,"known":4962," htt":4963,"=-=-":4964,"ガン":4965," slightly":4966,"ancy":4967,"プレ":4968,"すご":4969," fresh":4970," window":4971," developed":4972," president":4973," pen":4974,"後は":4975," Inc":4976,"体が":4977,"how":4978,"を向":4979," Ir":4980," bottom":4981,"this":4982,"ところで":4983," Most":4984,"EL":4985,"ほどの":4986," Ob":4987,"nes":4988,"ナは":4989,"アの":4990,"予定":4991," avoid":4992," limited":4993,"ごめ":4994,"olic":4995," wild":4996," Well":4997,"先輩":4998,"中央":4999,"ements":5000," favorite":5001,"Ne":5002," evidence":5003,"私も":5004,"全員":5005," hous":5006,"',":5007," reported":5008," repe":5009," hadn":5010," effort":5011," encour":5012,"間の":5013,"ユー":5014," attract":5015," ir":5016," campaign":5017,"ram":5018,"ちゃんと":5019,"ッシュ":5020,"ルフ":5021,"今日は":5022," Paul":5023,"ほと":5024," detail":5025," integr":5026," holding":5027," thr":5028," church":5029," David":5030,"知らない":5031,"rely":5032,"ipp":5033,"Name":5034,"ties":5035," device":5036,"ivity":5037," train":5038," Why":5039,"リング":5040," novel":5041,"vis":5042,"委員":5043," growth":5044," join":5045," poor":5046," collection":5047," Also":5048," variety":5049,"くて":5050,"riate":5051,"~~~~":5052," managed":5053,"申し":5054," length":5055," Earth":5056,"人に":5057,"Sp":5058,"Ad":5059," China":5060," covered":5061,"。「":5062,"顔で":5063,"大な":5064,"度は":5065,"itchen":5066,"icks":5067," comments":5068," que":5069,"resp":5070,"中の":5071,"分からない":5072,"ampionship":5073,"Res":5074," progress":5075," ideas":5076,"arc":5077," General":5078," strugg":5079," sell":5080,"聞き":5081,"以降":5082," pal":5083," Street":5084," Ant":5085,"izes":5086,"てて":5087,"ラス":5088,"uman":5089," emb":5090," soul":5091,"のこと":5092," watching":5093,"常に":5094," catch":5095,"aked":5096," liter":5097," behav":5098," types":5099,"さんに":5100,"までは":5101,"ences":5102,"asy":5103,"小学校":5104,"Then":5105,"収録":5106,"かも":5107," offered":5108," produc":5109,"欲しい":5110,"武器":5111," distance":5112," guys":5113,"ilies":5114," weak":5115,"ading":5116," announced":5117," Out":5118," husband":5119," vac":5120,"よし":5121,"ulations":5122,"したい":5123," village":5124," satis":5125," highly":5126,"istrict":5127," enemy":5128,"止め":5129," Jes":5130,"OD":5131,"変更":5132," throw":5133," Church":5134,"idden":5135,"hest":5136," heat":5137,"ped":5138,"のある":5139," eventually":5140,"んだろう":5141," Indian":5142,"En":5143,"ッカー":5144," positive":5145," fle":5146,"させて":5147,"あぁ":5148," neck":5149,"ago":5150,"ims":5151,"報告":5152," growing":5153," male":5154," White":5155,"株式":5156,"世紀":5157,"記録":5158," district":5159," Department":5160,"なし":5161," helped":5162," Miss":5163," stone":5164," award":5165,"なに":5166,"under":5167,"ancing":5168,"Let":5169," remain":5170,"ception":5171,"ザー":5172,"imb":5173," effective":5174," temper":5175," amazing":5176," episode":5177,"準備":5178,"rab":5179," pattern":5180,"しており":5181,"上げた":5182," baby":5183,"来て":5184,"しました":5185,"return":5186,"ios":5187,"よろ":5188," aren":5189,"における":5190," pet":5191," refer":5192,"方の":5193," hall":5194,"使い":5195," civil":5196,"事業":5197,"目的":5198,"CH":5199," demand":5200," leader":5201,"の中に":5202,"ula":5203,"かと":5204,"alse":5205," corner":5206," firm":5207,"type":5208,"設置":5209,"ications":5210,"気づ":5211," feature":5212," interested":5213," Govern":5214," programs":5215,"つまり":5216," difference":5217,"cellent":5218,"内容":5219,"こっち":5220,"ラの":5221," sched":5222,"what":5223," dog":5224,"iverse":5225," Council":5226," sales":5227,"っていく":5228,"中で":5229," IN":5230," Ev":5231," particularly":5232,"za":5233,"すること":5234,"ソン":5235,"瞬間":5236," paid":5237,"oves":5238,"can":5239,"優勝":5240,"ye":5241,"})":5242,"useum":5243,"あげ":5244,"子は":5245,"ループ":5246,".~":5247,"inct":5248,"itar":5249," advant":5250,"音が":5251,"leg":5252,"特別":5253,"ほとんど":5254,"agement":5255,"usion":5256," Bel":5257," luck":5258," purchase":5259," effects":5260,"IP":5261,"mark":5262," sister":5263," thank":5264,"anned":5265," challeng":5266," safety":5267," spl":5268,"じて":5269," significant":5270," Add":5271," Net":5272,"EM":5273,"mercial":5274,"inated":5275,"rian":5276,"を得":5277," appl":5278,"能力":5279," Hall":5280," administr":5281,"aze":5282,"awa":5283,"ドラマ":5284,"reak":5285,"もちろん":5286,"iro":5287,"できた":5288,"っていない":5289,"アナ":5290,"第一":5291," ded":5292,"utive":5293," Que":5294,"ぞれ":5295,"開始":5296,"全く":5297," learned":5298," India":5299," Once":5300," haven":5301," max":5302," lic":5303," Company":5304," older":5305,"呼び":5306,"ashington":5307," steps":5308," dry":5309," Gold":5310,"ケット":5311,"影響":5312," absolute":5313,"わり":5314,"それぞれ":5315,"pen":5316,"acks":5317," machine":5318,"男性":5319,"メンバー":5320," edge":5321," Wind":5322,"iders":5323,"AG":5324,"vant":5325," shut":5326," loved":5327,"fo":5328," princ":5329,"ports":5330,"施設":5331,"生徒":5332," truly":5333," tight":5334," definitely":5335,"シャル":5336,"高校":5337," seven":5338," opening":5339,"させた":5340,"OP":5341," walking":5342,"ジー":5343,"んじゃない":5344,"ーション":5345," girls":5346,"ado":5347,"リーグ":5348," Star":5349," fighting":5350," id":5351," cas":5352," laugh":5353,"BN":5354,"アク":5355,"rowd":5356," Cons":5357," weapons":5358," forces":5359,"どうして":5360," Alex":5361,"めている":5362," beat":5363," trade":5364," mut":5365," load":5366," ble":5367,"rael":5368,"としての":5369," suff":5370," bright":5371,"vention":5372," trip":5373,"を見つ":5374,"どうやら":5375,"たる":5376,"idents":5377," names":5378,"Fr":5379,"やく":5380," Sk":5381,"先に":5382,"itiz":5383,"omas":5384,"erry":5385,"do":5386,"をか":5387," organization":5388," rob":5389,"IL":5390," counter":5391,"iate":5392,"Americ":5393," sites":5394," bound":5395," Japanese":5396,"oto":5397," Green":5398," drop":5399,"ym":5400," thus":5401," German":5402," sea":5403,"いたい":5404,"ビュー":5405,"adow":5406," anc":5407,"計画":5408,"rive":5409,"効果":5410," produced":5411," altern":5412," appoint":5413," latest":5414," UK":5415,"考えて":5416,"浮かべ":5417,"タル":5418," Port":5419,"手で":5420," god":5421," Book":5422,"自動":5423," scene":5424," spend":5425," worry":5426," shoulder":5427,"思った":5428,"合い":5429,"annel":5430," fuck":5431," numbers":5432,"バン":5433," thoughts":5434,"https":5435,"まさか":5436,"は一":5437," prefer":5438,"自分が":5439," scient":5440," unf":5441,"をも":5442,"unction":5443," Rich":5444," ap":5445," hun":5446," Other":5447,"ロッ":5448," rules":5449," college":5450,"ENT":5451," pair":5452," joined":5453,"コミ":5454,"イス":5455,"子が":5456," Rob":5457," brief":5458,"UR":5459,"シル":5460,"inese":5461," metal":5462," download":5463,"Cont":5464,"思わず":5465," unc":5466,"つく":5467," films":5468,"semb":5469,"Col":5470,"少年":5471,"さない":5472,"],":5473,"帝国":5474,"さすが":5475,"ハー":5476,"unday":5477,"家族":5478,"ナの":5479," River":5480,"arant":5481," filled":5482,"SP":5483,"isl":5484," chair":5485," nation":5486," Ben":5487,"合う":5488," hang":5489," sweet":5490,"これで":5491,"はその":5492,"}.":5493," customer":5494,"ittee":5495," England":5496," supposed":5497,"物の":5498," establish":5499,"自由":5500,"ボール":5501,"ものを":5502,"ここで":5503," double":5504,"TV":5505,"ivery":5506," successful":5507,"riving":5508," Commun":5509," larger":5510," whom":5511," …":5512," active":5513,"esh":5514," attacks":5515,"Just":5516," street":5517," suddenly":5518," solution":5519," serve":5520,"->":5521," adult":5522,"だけの":5523," memory":5524," bes":5525," movement":5526," Mart":5527,"いった":5528," weapon":5529,"簡単":5530," Good":5531," concept":5532," continu":5533," structure":5534," stock":5535,"すと":5536,"ston":5537," resist":5538," resources":5539,"riage":5540,"王国":5541,"emies":5542," ended":5543," capital":5544,"微笑":5545," bare":5546," Div":5547,"which":5548,"を見る":5549,"別に":5550," nor":5551," Mal":5552,"amm":5553,"プレイ":5554," drag":5555,"らう":5556,"わざ":5557,"Your":5558," degree":5559," Their":5560,"参考":5561,"ita":5562,"いき":5563," sitting":5564,"anted":5565," {\\":5566," teams":5567,"なぜ":5568,"々に":5569,"ラは":5570," global":5571,"目に":5572," ice":5573,"何故":5574,"ドイツ":5575,"OC":5576,"プリ":5577," grab":5578," sen":5579,"みたいな":5580,"ruit":5581," Service":5582,"トリ":5583," equipment":5584,"してお":5585," projects":5586," sword":5587," European":5588," tro":5589,"ヤー":5590," meas":5591," Health":5592," useful":5593," despite":5594,"ushing":5595,"繰り":5596," married":5597," Mary":5598," female":5599,"friend":5600," contain":5601,"下に":5602,"ジャー":5603,"を出":5604," remind":5605," fingers":5606,"ドル":5607,"卒業":5608,"掛け":5609,"ashion":5610," implement":5611,"近づ":5612,"ustr":5613," apprec":5614," daily":5615,"illy":5616," rank":5617,"itect":5618,"だろうか":5619," Trans":5620,"usiness":5621,"uh":5622," unit":5623,"はぁ":5624,"だったが":5625,"UT":5626,"IR":5627," legs":5628,"eah":5629," responsible":5630," ST":5631," finish":5632," der":5633," understanding":5634,"ena":5635,"なさい":5636,"ってしまった":5637," Lou":5638,"内に":5639,"rd":5640,"Please":5641," letter":5642," providing":5643,"ムの":5644,"atively":5645," interview":5646," forced":5647,"ocal":5648," forest":5649," harm":5650," Del":5651,"グループ":5652,"立つ":5653,"\\\\":5654,"評価":5655," kick":5656," Mac":5657," generally":5658," television":5659," connect":5660,"つき":5661,"株式会社":5662,"自然":5663," caused":5664,"Su":5665,"くなった":5666,"ashed":5667," District":5668," pressure":5669," expression":5670,"ulf":5671,"野球":5672,"のよ":5673," culture":5674,"数の":5675,"センター":5676,"しまい":5677,"気付":5678," kid":5679," forg":5680,"目が":5681,"記憶":5682," advert":5683," Canada":5684," map":5685,"ダンジョン":5686,"デン":5687," construction":5688," )":5689," materials":5690,"からね":5691,"学園":5692," lose":5693," select":5694," Angel":5695,"His":5696,"tained":5697,"aped":5698,"div":5699,"aming":5700," kiss":5701,"ih":5702,"危険":5703,"シーズ":5704,"のない":5705," prem":5706," clearly":5707," Direct":5708," stick":5709,"知ら":5710," tow":5711," Cong":5712," patients":5713,"ジン":5714," Over":5715,"met":5716,"iliar":5717," >":5718," sem":5719," smiled":5720," Washington":5721," measure":5722," Att":5723,"しの":5724," pun":5725,"足を":5726,"カン":5727,"From":5728,"笑い":5729," associated":5730,"class":5731," costs":5732," ）":5733,"ros":5734,"host":5735,"amily":5736," bra":5737,"place":5738,"List":5739," See":5740," showed":5741," families":5742,"となっている":5743,"AB":5744,"もしか":5745,"最高":5746,"........":5747," Prof":5748,"agn":5749,"概要":5750,"igence":5751," crowd":5752," Since":5753,"miss":5754,"ca":5755,"をしている":5756,"zen":5757," brain":5758,"cher":5759,"point":5760," hurt":5761," sight":5762," Vol":5763,"開催":5764,"ものが":5765,"?'":5766,"AK":5767,"coming":5768," achieve":5769,"面に":5770," OF":5771," doubt":5772,"長い":5773,"oving":5774,"部隊":5775,"AY":5776," watched":5777,"設立":5778,"公式":5779,"これが":5780,"ifying":5781,"vest":5782,"かう":5783,"icious":5784,"上の":5785," traditional":5786," Sil":5787,"onents":5788,"分か":5789,"equation":5790," approp":5791,"istics":5792," images":5793,"aturday":5794,"$\\":5795,"ウォ":5796," analysis":5797," farm":5798," tells":5799,"というか":5800,"俺も":5801,"outhern":5802,"太郎":5803,"続け":5804,"制作":5805,"td":5806," closer":5807," Christian":5808,"ゴン":5809," hero":5810,"imal":5811," mine":5812," apply":5813," advice":5814,"bon":5815,"内の":5816,"リスト":5817," 役":5818," increased":5819,"))":5820," analy":5821,"チャン":5822," Rober":5823," faith":5824,"メント":5825," science":5826,"mail":5827,"最終":5828,"調査":5829,"くなる":5830," spoke":5831,"フレ":5832,"りが":5833,"Pe":5834," fif":5835,"antic":5836,"wide":5837," frame":5838," shop":5839,"uate":5840," lips":5841," thick":5842," status":5843," mentioned":5844," individuals":5845," mostly":5846,"elta":5847," schools":5848," fat":5849," Group":5850,"いだ":5851,"機関":5852,"キング":5853,"めていた":5854," transfer":5855,"年代":5856," hur":5857,"ii":5858," easier":5859,"ona":5860,"Can":5861,"みる":5862,"そこに":5863," greater":5864," 第":5865," basic":5866," accur":5867,"'',":5868,"}(":5869,"精霊":5870,"さを":5871," bul":5872,"from":5873," otherwise":5874,"ategory":5875," Face":5876," appearance":5877,"経験":5878," becomes":5879," completed":5880,"契約":5881," conv":5882,"俺に":5883,"itz":5884,"ato":5885,"わからない":5886,"のだろうか":5887,"________________":5888,"管理":5889," ult":5890,"ulate":5891," oppos":5892,"ooth":5893,"van":5894,"しかも":5895,"Im":5896,"!?":5897," exerc":5898," er":5899,"ourney":5900,"ベッド":5901,"そこで":5902,"ということ":5903," Jew":5904," kitchen":5905,"どれ":5906," presence":5907,"oday":5908,"orage":5909," transport":5910,"もなく":5911," therefore":5912,"次の":5913,"Mar":5914,"cm":5915," stream":5916," thanks":5917,"基本":5918," extremely":5919," planning":5920," digital":5921," actual":5922,"anish":5923,"高等学校":5924," gar":5925," strange":5926,"cious":5927,"落ち着":5928," assum":5929," lab":5930," setting":5931,"May":5932," seat":5933,"onday":5934,"Ke":5935," dut":5936," Like":5937," creating":5938,"orthern":5939,"While":5940,"edy":5941," arrived":5942,"あえず":5943," Sol":5944,"rast":5945," bird":5946,"force":5947,"FA":5948,"用意":5949,"ボー":5950,"馬車":5951," pieces":5952," transl":5953,"経済":5954," activity":5955,"文献":5956,"シングル":5957," reasons":5958,"NA":5959,"一方":5960," George":5961," System":5962,"を見た":5963," Australia":5964,"cribe":5965,"見て":5966,"つか":5967,"としている":5968," impl":5969," ring":5970," Christmas":5971," tools":5972," mechan":5973," Met":5974,"合衆":5975," shape":5976,"ノー":5977,"ooking":5978,"軍の":5979,"クリス":5980," economic":5981,"しかない":5982,"PR":5983," @":5984," Mil":5985,"行き":5986,"私に":5987," keeping":5988," Arch":5989," experi":5990,"ファン":5991,"りは":5992,"良かった":5993,"pan":5994," largest":5995,"Ste":5996,"rier":5997," Get":5998," director":5999," tick":6000," wear":6001," trees":6002,"。]":6003,"ette":6004,"してきた":6005,"wo":6006," cra":6007,"剣を":6008,"っこ":6009,"パイ":6010,"Some":6011,"あたし":6012,"終了":6013," Rem":6014," excellent":6015,"eds":6016," lived":6017," spell":6018," Fin":6019,"事実":6020," guide":6021,"学生":6022,"ここに":6023," leaves":6024,"uy":6025," Time":6026,"gn":6027,"リと":6028," unless":6029,"飛ば":6030,"サイト":6031,"opt":6032,"既に":6033," hell":6034,"onic":6035,"ech":6036," advent":6037," finding":6038,"date":6039," cloud":6040," Tex":6041,"システ":6042," kne":6043,"ighter":6044,"rial":6045," Party":6046,"の姿":6047,"cing":6048," Michael":6049," society":6050,"多くの":6051," cup":6052,"atus":6053," helps":6054,"var":6055,"しばらく":6056,"html":6057,"ocation":6058,"降り":6059,"je":6060,"lo":6061,"会議":6062,"駆け":6063,"すべて":6064,"ましょう":6065,"Get":6066,"Go":6067," Army":6068," sky":6069," Although":6070,"この世界":6071," increasing":6072," broken":6073,"%%%%%%%%":6074,"が一":6075," candid":6076,"ようになった":6077,"そうか":6078," Phil":6079,"アリ":6080,"連れて":6081,"iy":6082," Fire":6083,"そう言って":6084," rub":6085," Israel":6086,"ーー":6087,"中心":6088,"ategy":6089," prison":6090,"About":6091,"ごと":6092," fish":6093,"もん":6094,"encies":6095,"izations":6096,"sm":6097,"クレ":6098," trouble":6099,"一覧":6100,"section":6101,"アは":6102," seconds":6103,"craft":6104,"ho":6105," tom":6106," Mat":6107,"CC":6108,"odies":6109," Big":6110,"ナイ":6111,"ste":6112,"ini":6113,"irty":6114," benefits":6115," Def":6116,"前で":6117," Jesus":6118,"now":6119," restaur":6120," becoming":6121,"American":6122,"enses":6123,"top":6124,"かつて":6125," disease":6126,"口を":6127," none":6128,"合わせ":6129,"テル":6130,"kend":6131," basis":6132,"ッツ":6133,"MS":6134," sand":6135," forget":6136,"ocket":6137,"私を":6138,"教えて":6139,"lim":6140,"――――":6141," marketing":6142," Sum":6143," Association":6144,"とりあえず":6145," Pet":6146,"Ind":6147,"デザ":6148,"ぐらい":6149,"小説":6150,"bert":6151," noticed":6152," Island":6153," realized":6154,"がい":6155," Spe":6156," tim":6157,"ronic":6158," replied":6159,"からだ":6160," promot":6161,"ias":6162," Life":6163,"lear":6164,"Of":6165,"osen":6166,"用の":6167,"kin":6168,"VD":6169,"同年":6170," Grand":6171,"どうか":6172," missing":6173,"udget":6174,"alpha":6175," insurance":6176," background":6177,"えていた":6178,"政治":6179,"aug":6180," hom":6181,"キュ":6182,"oms":6183,"勇者":6184," deliver":6185," lean":6186,"char":6187,"けば":6188,"に手を":6189," Sun":6190,"飲み":6191,"とし":6192,"pty":6193," snow":6194,"撫で":6195,"ortunately":6196," mix":6197,"}{\\":6198," Mad":6199,"ota":6200,"企業":6201," army":6202,"lder":6203,"モンスター":6204," shook":6205," willing":6206,"上げて":6207,"アメリカ合衆":6208," runs":6209,"rad":6210,"reek":6211,"roud":6212,"azine":6213," tend":6214,"良く":6215," aim":6216,"sey":6217,"間違い":6218,"gal":6219," turns":6220,"カップ":6221," sounds":6222," mo":6223,"ava":6224," numer":6225," Chinese":6226,"わね":6227,"手の":6228,"といった":6229," Cam":6230," flo":6231," sorry":6232,"出版":6233,"イギ":6234,"しん":6235," Ry":6236,"amic":6237," doll":6238," button":6239," Because":6240," partners":6241," remains":6242," limit":6243,"下ろ":6244,"Man":6245," scr":6246,"出来ない":6247,"aded":6248,"Int":6249," honest":6250,"美味":6251,"Here":6252," rule":6253," tall":6254," vehicle":6255,"あれば":6256,"^{\\":6257," wonderful":6258,"女の子":6259,"女の":6260," Mod":6261,"腕を":6262,"じる":6263," expert":6264,"頑張":6265,"依頼":6266,"らが":6267," hotel":6268," Da":6269,"発生":6270,"ems":6271,"場に":6272,"していない":6273,"を与":6274,"includ":6275,"上に":6276,"第二":6277,"体は":6278," walls":6279," entered":6280,"十分":6281,"TR":6282," fort":6283,"cles":6284,"road":6285,"作詞":6286," symb":6287," challenge":6288,"文字":6289,"ってお":6290,"_\\":6291,"ano":6292," starts":6293,"らしく":6294," Sal":6295,"adv":6296,"オル":6297,"olly":6298," element":6299," Bra":6300,"引っ":6301," miles":6302," advantage":6303,"これから":6304,"hand":6305,"UN":6306," Ann":6307,"リュ":6308," doctor":6309," Maybe":6310,"lla":6311,"んですか":6312,"知り":6313," overall":6314," sho":6315," Google":6316,"ker":6317,"ロック":6318,"eps":6319,"ことができる":6320," proceed":6321,"ishes":6322," clients":6323,"ウル":6324,"estival":6325,"sum":6326," Mount":6327," connection":6328," brows":6329,"今まで":6330," investig":6331," helping":6332," Ber":6333,"学者":6334,"及び":6335," France":6336,"に対する":6337," calc":6338,"ぶん":6339,"答え":6340," radio":6341," News":6342," bath":6343,"スコ":6344,"可愛い":6345,"ジア":6346,"はは":6347," demonstr":6348,"交通":6349,"fra":6350,"セル":6351,"目で":6352,"チン":6353,"iger":6354," smaller":6355,"子を":6356," apparent":6357," rain":6358,"強く":6359," Master":6360," minute":6361," compared":6362," solid":6363,"aki":6364," expand":6365,"が行":6366," Techn":6367," Mem":6368,"war":6369," Two":6370," sports":6371,"紹介":6372,"while":6373,"向け":6374," Many":6375,"uzz":6376,"と同":6377," turning":6378,"完全に":6379,"illa":6380," During":6381," Hel":6382,"不安":6383," aspect":6384," disp":6385,"でした":6386,"uct":6387," Love":6388,"イギリス":6389,"Are":6390," whis":6391,"知っている":6392,"巻き":6393,"らす":6394," reality":6395," central":6396," rap":6397," sequ":6398," gain":6399,"ディー":6400," commercial":6401," virt":6402," ton":6403," statement":6404," psych":6405,"リアの":6406," sale":6407,"恥ず":6408,"ライン":6409," scen":6410,"ジャン":6411,"ピー":6412,"声で":6413,"verse":6414,"なるほど":6415,"hens":6416," forms":6417," evil":6418,"isted":6419,"ache":6420," stress":6421,"EX":6422," Best":6423," Union":6424,"ression":6425,"教授":6426,"hered":6427," Vir":6428,"さて":6429," Mo":6430,"視線を":6431,"いろ":6432,"見つ":6433,"atically":6434,"続ける":6435,"馬鹿":6436,"せない":6437," opinion":6438," gift":6439,"ervation":6440," handle":6441,"われている":6442,"動か":6443,"していく":6444,")\\":6445," Peter":6446," values":6447,"ミュー":6448,"仲間":6449," cert":6450," Friday":6451,"des":6452,"誰も":6453," Its":6454,"々の":6455," river":6456,"わる":6457," Str":6458,"装備":6459," evening":6460,"トン":6461," elements":6462," calls":6463,"porary":6464,"男の":6465,"ラジオ":6466,"berg":6467,"ってた":6468,"過去":6469," produce":6470," Sub":6471,"acity":6472,"These":6473,"orial":6474," Fore":6475," conversation":6476," primary":6477,"当たり":6478," surprise":6479,"km":6480," carried":6481,"々な":6482," mobile":6483," belong":6484,"中学校":6485," Franc":6486,"anda":6487,"Pr":6488,"市立":6489,"HK":6490,"年には":6491," incred":6492,"amma":6493,"></":6494," mir":6495," weather":6496," goals":6497," dra":6498," orders":6499," Light":6500," telling":6501," remained":6502," actions":6503," protection":6504,"地方":6505,"lymp":6506," dropped":6507," tool":6508,"家に":6509," spect":6510," intell":6511," humans":6512," citiz":6513,"どうした":6514," Tor":6515," happens":6516," _":6517,"ls":6518," People":6519,"sters":6520,"チュ":6521," studies":6522," wit":6523,"gers":6524,"思議":6525,"edom":6526," van":6527," fab":6528," Inter":6529," controll":6530,"ria":6531," smart":6532,"みた":6533," stated":6534," crew":6535,"TS":6536,"gment":6537,"ocol":6538," showing":6539,"それから":6540," highest":6541,"apers":6542," fan":6543,"ありがとうございます":6544," efforts":6545,"olved":6546," animals":6547,"組織":6548," task":6549,"ossible":6550," enemies":6551,"起き":6552," formed":6553," owners":6554," Who":6555,"一瞬":6556," adjust":6557,"uit":6558,"綺麗":6559," sch":6560,"中国":6561,"state":6562," Sur":6563,"uts":6564," Hen":6565," songs":6566,"漫画":6567," corpor":6568,"oji":6569,"のために":6570," fant":6571,"方法":6572," brown":6573,"aka":6574,"成功":6575,"については":6576," Pre":6577,"長の":6578," Sunday":6579,"かれ":6580,"isher":6581,"acter":6582,"決定":6583,"lor":6584,"公開":6585," thro":6586,"んの":6587," Club":6588," models":6589," surprised":6590,"システム":6591,"んじゃ":6592," owner":6593,"uated":6594,"rant":6595," tit":6596,"win":6597,"PC":6598," rat":6599," enh":6600,"ボク":6601," agreed":6602," bill":6603,"uration":6604,"に関する":6605,"word":6606,"ってしまう":6607,"しに":6608," Class":6609,"られていた":6610,"感情":6611," parties":6612," wearing":6613,"近い":6614," electric":6615,"たま":6616," Texas":6617,"こいつ":6618," consult":6619," gro":6620,"igma":6621,"きます":6622," Press":6623,"respond":6624,"ベント":6625,"EO":6626,"物語":6627,"ician":6628," election":6629," Power":6630,"claim":6631,"組み":6632," failed":6633,"ラクター":6634,"振る":6635,"を務":6636,"ima":6637," contains":6638," familiar":6639," pages":6640,"asts":6641," cab":6642," Cup":6643,"記念":6644," fol":6645," clothes":6646," intended":6647,"会の":6648," asking":6649," Each":6650," spring":6651," stret":6652," vot":6653," shared":6654,"不思議":6655," Ze":6656," worse":6657," Post":6658,"va":6659," rent":6660," reports":6661,"asp":6662,"ogue":6663," knowing":6664,"edding":6665," Read":6666,"venue":6667," partner":6668," scream":6669," TH":6670," foreign":6671," journey":6672,"ファー":6673,"別の":6674,"がいる":6675,"！？　":6676," reb":6677," Acad":6678,"回復":6679," prepared":6680," benefit":6681," quarter":6682,"っており":6683,"エリ":6684,"やが":6685,"sl":6686," Hot":6687," pictures":6688,"width":6689,"言うと":6690,"BA":6691," patient":6692," escape":6693,"rip":6694,"pected":6695," independent":6696," approx":6697," Bay":6698," entertain":6699,"den":6700," grew":6701," Road":6702,"王都":6703,"ami":6704,"aptain":6705,"手が":6706,"SS":6707,"最近":6708," flat":6709,"なくても":6710,"のだった":6711," horse":6712,"変化":6713," flow":6714,"新しい":6715,"わかった":6716," teeth":6717,"rid":6718,"Dr":6719," initial":6720,"poses":6721," Nor":6722," picked":6723,"OK":6724," dim":6725,"カード":6726,"cks":6727,"立ち上が":6728," detect":6729," ur":6730," Jer":6731," occup":6732,"製作":6733,"それも":6734,"廃止":6735,"そもそも":6736,"rance":6737,"黒い":6738,"出典":6739," Under":6740,"Ge":6741,"我が":6742,"いち":6743,"判断":6744," island":6745," Home":6746,"年度":6747," relax":6748," chem":6749,"mod":6750," feels":6751,"兵士":6752,"地の":6753," delivery":6754," Found":6755,"話し":6756,"ものは":6757," presented":6758,"rior":6759," Dark":6760,"ッグ":6761,"のだから":6762,"販売":6763," coffe":6764," proced":6765," Mex":6766," planet":6767," false":6768," Frank":6769," explain":6770,"興味":6771,"屋敷":6772," prices":6773,"ピン":6774,"しっかり":6775,"=\\":6776,"urrent":6777," Spr":6778," fellow":6779," odd":6780,"はある":6781," bought":6782,"inger":6783,"overy":6784,"mary":6785,"二人の":6786," anti":6787,"?”":6788," fly":6789,"サッカー":6790," alive":6791,"を発":6792,"ao":6793," skill":6794," hospital":6795,"を通":6796," camera":6797," soldiers":6798," graph":6799," egg":6800," fans":6801," tail":6802,"anta":6803,"クス":6804,"ums":6805," Const":6806,"突然":6807,"First":6808,"われて":6809,"さと":6810," fro":6811," methods":6812,"ipl":6813," regarding":6814," employees":6815,"つい":6816," ||":6817," guarant":6818,"何度も":6819,"adian":6820,"ライブ":6821,"rix":6822," score":6823," photos":6824,"考える":6825,"男は":6826,"エルフ":6827," rich":6828,"inte":6829," federal":6830," http":6831,"に移":6832," putting":6833," journal":6834," supply":6835,"わかる":6836,"ゴー":6837,"とはいえ":6838,"ses":6839," applications":6840,"さんと":6841,"王子":6842,"uled":6843," comfortable":6844,"参考文献":6845,"りゃ":6846," appropriate":6847," manner":6848," listed":6849,"MA":6850,"]{":6851," sac":6852,"メート":6853," strateg":6854,"ニング":6855,"何が":6856," vision":6857,"日は":6858,"mu":6859,"者を":6860," removed":6861,"swe":6862," Er":6863," requirements":6864," discovered":6865," arrang":6866,"ゆっくりと":6867,"市の":6868,"ユニ":6869," smell":6870," theory":6871," dragon":6872," performed":6873," Emp":6874,"を行う":6875," rail":6876,"道路":6877,"icted":6878,"aws":6879,"年から":6880," Rock":6881," Board":6882,"ルが":6883,"追い":6884," separate":6885,"シーズン":6886," assess":6887," west":6888," yellow":6889,"arts":6890," une":6891,"乗り":6892,"ictor":6893," amb":6894," Luc":6895," lots":6896,"仕方":6897,"ちな":6898,"ワン":6899,"きたい":6900,"CT":6901," units":6902,"ポン":6903,"ambda":6904,"oma":6905," photo":6906,"pack":6907,"uries":6908,"\",\"":6909,"キャラクター":6910,"主義":6911,"standing":6912,"がり":6913,"実は":6914," Thomas":6915,"というのは":6916," minor":6917,"舞台":6918," sad":6919,"幸せ":6920,"でしょ":6921,"ira":6922," powers":6923,"じょう":6924,"このまま":6925," glad":6926," coffee":6927," Program":6928,"重要":6929,"部に":6930,"roid":6931,"olar":6932," fix":6933," Yes":6934,"更に":6935," Saturday":6936,"メイ":6937,"century":6938,"”.":6939,"現在の":6940," Championship":6941,"分かる":6942," exhib":6943," empty":6944,"機能":6945," Play":6946,"為に":6947,"時点":6948," fashion":6949,"行った":6950," previously":6951,"omin":6952,"ポーツ":6953,"hab":6954,"ほか":6955," anyway":6956,"ていて":6957,"ednes":6958,"ズの":6959,"oles":6960,"ursday":6961," je":6962," Blue":6963,"works":6964,"ダム":6965," dangerous":6966,"すぎる":6967," shout":6968,"作戦":6969," acad":6970,"やつ":6971," healthy":6972,"../":6973,"ための":6974,"フリー":6975,"海道":6976," circum":6977," Congress":6978,"出場":6979," Bill":6980," princip":6981," Commission":6982,"笑う":6983,"最も":6984," Internet":6985,"最大":6986," dat":6987," sides":6988," silver":6989," Ham":6990," remaining":6991," weekend":6992,"ching":6993,"流れ":6994,"uesday":6995," Institute":6996,"ケー":6997," satisf":6998,"を引き":6999,"張り":7000,"ags":7001,"cean":7002," mort":7003,"AV":7004,"総合":7005,"oses":7006," mill":7007,"吹き":7008,"ランク":7009," officer":7010," offering":7011," critical":7012,"あんな":7013,"アップ":7014," essential":7015,"otic":7016," Free":7017," stars":7018,"みの":7019,"殿下":7020,"iques":7021,"伸ば":7022," Thanks":7023,"ala":7024,"んっ":7025," Roman":7026,"東京都":7027,"地区":7028,"ようで":7029,"しかった":7030," defend":7031,"だい":7032," driving":7033,"MP":7034,"は大":7035," majority":7036,"協力":7037," signed":7038,"わか":7039,"ript":7040," Hy":7041,"きゃ":7042," Use":7043,"彼が":7044," east":7045," artist":7046,"phone":7047,"Am":7048,"見える":7049,"に行く":7050,"不明":7051,"抜け":7052,"ソー":7053," core":7054," push":7055,"rible":7056,"軽く":7057," Africa":7058,"にしても":7059,"構成":7060,"プラ":7061," entirely":7062,"予想":7063," continues":7064," requires":7065," Facebook":7066,"いま":7067," transform":7068," Music":7069," Germany":7070," budget":7071,"Every":7072,"イー":7073,"っか":7074,"oken":7075,"編曲":7076,"わよ":7077,"魔力を":7078," error":7079,"cel":7080,"これを":7081,"ールの":7082," buildings":7083," income":7084,"事務":7085,"TH":7086,"どちら":7087,"…。":7088," confl":7089," innov":7090," laws":7091,"onna":7092," listen":7093," architect":7094,"っていう":7095,"始める":7096,"気の":7097,"dis":7098," AND":7099," cards":7100,"ことがある":7101,"ads":7102,"けん":7103,"いな":7104," decide":7105,"istered":7106," wine":7107," pointed":7108,"なくなった":7109," operations":7110,"指定":7111,"ただし":7112,"を受けた":7113," accident":7114," ing":7115,"確か":7116," internet":7117,"ようやく":7118," fill":7119," rates":7120,"ket":7121,"Her":7122,"orpor":7123,"そこまで":7124,"ども":7125,"と呼ばれる":7126,"itors":7127,"設定":7128,"alled":7129,"レオ":7130," Squ":7131,"場で":7132,"eless":7133,"eper":7134," combat":7135,"level":7136," laun":7137," files":7138," calling":7139," nav":7140," Smith":7141,"Ed":7142,"マジ":7143," lie":7144," Scott":7145," href":7146," estim":7147," Only":7148,"ブリ":7149,"地に":7150,"azon":7151," concent":7152," craft":7153," animal":7154," existing":7155," du":7156," interact":7157,"フィー":7158,"px":7159,"公園":7160,"alian":7161,"ednesday":7162,"フランス":7163,"結局":7164," compos":7165," introduced":7166," Award":7167,"どういう":7168,"かが":7169,"普段":7170,"スポーツ":7171," Flor":7172,"John":7173," Louis":7174," reflect":7175,"とともに":7176,"''.":7177,"助け":7178,"を抱":7179,"今度は":7180,"icine":7181,"身体を":7182,"ホーム":7183," winter":7184,"Up":7185,"ua":7186," quant":7187," agreement":7188," motion":7189,".....":7190,"族の":7191," follows":7192," manage":7193," connected":7194,"ATA":7195," possibly":7196,"モノ":7197,"代わ":7198," rot":7199," focused":7200,"分かった":7201,"pport":7202,"学部":7203,"航空":7204,"でに":7205," usual":7206,"ニコ":7207," selected":7208,"限り":7209,"全部":7210," pros":7211,"安心":7212," Services":7213,"当初":7214,"になっていた":7215,"icing":7216," famous":7217," dinner":7218," notes":7219,"リリー":7220," solutions":7221," audience":7222,"ふふ":7223," Camp":7224,"soft":7225," Rev":7226,"写真":7227," Aut":7228," devices":7229," explained":7230,"性格":7231," Somet":7232," Democr":7233," Tre":7234,"人で":7235," strategy":7236," operation":7237,"らった":7238," smooth":7239,"pi":7240," gather":7241,"ついた":7242,"俺を":7243,"過ご":7244," okay":7245," excited":7246," Whe":7247,"vere":7248,"eder":7249," Mel":7250," twenty":7251,"新た":7252," remove":7253,"読み":7254," desk":7255," ride":7256,"(\"":7257," sust":7258," PR":7259," Royal":7260,"せず":7261," profession":7262,"クラス":7263,"はじ":7264," Sing":7265,"teen":7266,"CE":7267,"展開":7268,"的には":7269," Tur":7270,"FL":7271,"京都":7272,"よかった":7273,"Thank":7274,"……？」":7275,"じた":7276,"どこか":7277," neighbor":7278,"政府":7279,"iously":7280,"イベント":7281," teacher":7282," reference":7283," absolutely":7284," Wil":7285," }":7286,"pective":7287,"ほぼ":7288,"ixt":7289,"IA":7290," mountain":7291,"ented":7292,"を守":7293,"ori":7294," eating":7295," TO":7296," behavior":7297,"精神":7298,"げて":7299,"\")":7300,"eline":7301," indic":7302," posts":7303,"の名":7304,"SE":7305," experienced":7306,"atures":7307," mode":7308," Tem":7309,"orter":7310," switch":7311,"bered":7312,"ちゃんは":7313,"Fl":7314,"ologies":7315," proud":7316,"感覚":7317," annual":7318," afford":7319," loud":7320," influence":7321," allowing":7322,"を感じ":7323,"~\\":7324,"ingly":7325,"嬉しい":7326," ordered":7327,"気がする":7328," noted":7329,"かけて":7330,"に向かって":7331,"を含":7332,"スティ":7333," competition":7334,"ev":7335," Cap":7336," row":7337,"ーん":7338," rand":7339," nearby":7340,"sk":7341," rid":7342,"書き":7343,"獲得":7344," micro":7345," eval":7346," exchange":7347,"ついて":7348,"requ":7349,"ながらも":7350," busy":7351,"返す":7352," rise":7353,"opy":7354," Year":7355,"はや":7356," believed":7357,"west":7358,"月の":7359," taste":7360," plus":7361,"力で":7362,"警察":7363," sharp":7364,"ギー":7365,"clusion":7366,"子に":7367," forth":7368,"eed":7369," Web":7370," bodies":7371,"och":7372,"].":7373,"はずだ":7374,"ordin":7375,"選挙":7376," broke":7377,"果た":7378," weren":7379,"ラが":7380," claims":7381," Robert":7382," react":7383,"never":7384," businesses":7385,"デュー":7386,"時間が":7387," balance":7388," cash":7389,"奴隷":7390,"press":7391," paint":7392,"婚約":7393,"正直":7394," possess":7395," fourth":7396," twice":7397,"運動":7398," investment":7399," begins":7400," Office":7401," 大":7402," Carol":7403," ren":7404," construct":7405,"を探":7406," reduce":7407," Cast":7408," narrow":7409," massive":7410,"water":7411," speaking":7412,"Add":7413," births":7414," obl":7415," lit":7416," cart":7417," Fil":7418,"Us":7419," Cath":7420,"なさ":7421," occasion":7422,"フル":7423,"fit":7424," purposes":7425," Central":7426,"建設":7427,"想像":7428,"fast":7429," Public":7430," advance":7431,"までも":7432," decor":7433,"atin":7434,"レット":7435," hearing":7436,"ぶり":7437,"まれた":7438," storage":7439,"ナが":7440," cancer":7441,"ここまで":7442," Gal":7443,"リアは":7444," sources":7445," Western":7446," classes":7447,"デザイン":7448," numerous":7449,"Yeah":7450," revealed":7451,"ソフト":7452," Hill":7453,"んだから":7454," restrict":7455,"ちゃんの":7456,"night":7457,"勝利":7458,"のである":7459," client":7460," Max":7461,"Any":7462,"ola":7463," upper":7464,"icago":7465," writer":7466," sick":7467,"だと思":7468,"フラ":7469,"Acc":7470,"お兄":7471," adapt":7472,"クラブ":7473," Water":7474," determined":7475," correspond":7476," pool":7477," selection":7478,"対象":7479,"ギャ":7480," square":7481,"ducation":7482," desire":7483," instr":7484," unable":7485," pushed":7486," records":7487,"entially":7488,"死に":7489,"know":7490," Research":7491,"Good":7492,"apping":7493," ancient":7494," Kingdom":7495," Jim":7496,"aine":7497," bridge":7498," context":7499,"！』":7500,"そんなに":7501,"大変":7502," dyn":7503,"結構":7504,"しき":7505,"朝日":7506," rose":7507," realize":7508," jobs":7509,"直接":7510,"ことから":7511,"期待":7512,"ギュ":7513," Town":7514,"破壊":7515,"lock":7516,"？』":7517,"最後の":7518," Jo":7519," Olymp":7520," Business":7521," coach":7522,"iller":7523,"unning":7524," Lake":7525," random":7526,"akers":7527,"ここは":7528," thousands":7529," rough":7530," killing":7531," Old":7532,"トー":7533,"められた":7534," creature":7535,"以前":7536,"acle":7537,"が入":7538," Land":7539," vs":7540,"「…":7541," Team":7542," entry":7543," storm":7544," discover":7545," views":7546,"科学":7547," Society":7548,"ったり":7549," roof":7550,"inding":7551," billion":7552,"路線":7553," asks":7554,"通常":7555,"unte":7556," Rel":7557," workers":7558,"の間":7559,"-\\":7560,"。『":7561,"でもある":7562,"腰を":7563," cars":7564,"real":7565," ends":7566," \\\\":7567,"igan":7568,"ader":7569," Bur":7570,"当て":7571," traffic":7572,"彼女が":7573," collabor":7574,"ario":7575,"かれる":7576,"新聞":7577,"しゅ":7578," opportunities":7579," faster":7580,"捨て":7581," compar":7582,"ほら":7583,"azz":7584,"una":7585," defense":7586,"口に":7587,"訓練":7588," lock":7589,"自身の":7590," bond":7591,"チョ":7592," bon":7593,"マスター":7594," `":7595," Ve":7596," legisl":7597,"ildren":7598,"urther":7599,"command":7600," secure":7601," vote":7602," Det":7603,"bour":7604,"uki":7605,"好きな":7606,"護衛":7607,"らせ":7608," marriage":7609,"面倒":7610,"Per":7611," payment":7612," rare":7613," Secret":7614," Game":7615,"信じ":7616,"anna":7617," Kh":7618,"idering":7619,"カイ":7620," Jud":7621,"事も":7622," maintain":7623,"完成":7624,"場の":7625," Night":7626," reviews":7627," determine":7628," Rad":7629," Kore":7630," Monday":7631,"やかな":7632," trail":7633,"ja":7634," Ret":7635,"作業":7636,"）」":7637,"term":7638,"NHK":7639," stepped":7640," welcome":7641,"sembly":7642,"ライト":7643," economy":7644," plants":7645,"無く":7646," doors":7647,"bell":7648," clin":7649," pure":7650," dance":7651,"続き":7652,"音を":7653,"はこの":7654,"istor":7655,"olt":7656,"に入る":7657," Government":7658," shel":7659," crack":7660," carefully":7661," Thank":7662,"選手権":7663,"。　":7664,"burg":7665,"時代の":7666,"条件":7667,"本来":7668," Work":7669,"エレ":7670,"明ら":7671,"ファイ":7672,"alls":7673," hide":7674," cities":7675," garden":7676,"phi":7677," plays":7678," sets":7679,"だけだ":7680,"よろしく":7681," Sar":7682," estate":7683,"エイ":7684,"あいつ":7685,"すでに":7686,"まと":7687,"あー":7688,"申し訳":7689," !":7690," %":7691,"顔が":7692,"Who":7693,"たちに":7694," homes":7695," trial":7696," cock":7697," rapid":7698,"まい":7699," hidden":7700," sig":7701," passion":7702," Mont":7703,"hi":7704," drug":7705,"isters":7706,"ivered":7707,"公爵":7708," ru":7709," adm":7710,"aser":7711,"Lv":7712,"県の":7713," manager":7714,"やった":7715," Mer":7716,"gend":7717," wra":7718,"TER":7719,"待ち":7720," teaching":7721,"以上の":7722," Dec":7723," Cat":7724,"rees":7725," Wood":7726,"約束":7727," Ma":7728," Plan":7729,"際に":7730,"イント":7731," creatures":7732," Mass":7733," conduct":7734,"ensity":7735," winning":7736,"ワイ":7737," friendly":7738," boss":7739," leads":7740,"entle":7741,"連絡":7742,"upid":7743," territ":7744,"ゆる":7745," Bank":7746," valid":7747," waste":7748,"上手":7749,"道具":7750," sexual":7751,"pret":7752,"まって":7753,"ティア":7754,"当時":7755,"バラ":7756,"lem":7757,"free":7758,"iated":7759,"難しい":7760,"あんた":7761," conflict":7762," mental":7763," CD":7764,"bur":7765," IT":7766," barely":7767," advanced":7768,"clusive":7769,"RA":7770," ban":7771,"acement":7772,"全国":7773,"お姉":7774,"姿を":7775," recorded":7776,"ounded":7777,"にあ":7778,"まん":7779," thin":7780,"fraid":7781,"icians":7782," organizations":7783,"の下":7784,"見る":7785,"男が":7786," articles":7787,"ゆう":7788," somewhere":7789,"なか":7790,"………":7791," Ol":7792," hate":7793," ]":7794," chief":7795," plenty":7796,"北海道":7797," beauty":7798,"list":7799,"inet":7800,"日から":7801," bear":7802," indeed":7803,"ko":7804,"のかな":7805,"向こう":7806," Second":7807,"協会":7808," biggest":7809," directed":7810,"場合は":7811," param":7812,"などを":7813,"してくれた":7814,"方は":7815,"スに":7816,"pet":7817,"様な":7818,"SC":7819,"毎日":7820," fixed":7821," applied":7822,"力は":7823,"iana":7824,"議員":7825," hat":7826," African":7827," Special":7828," changing":7829," impossible":7830,"However":7831,"arks":7832,"terday":7833,"の一部":7834,"People":7835,"まえ":7836,"リエ":7837,"velopment":7838," scale":7839," artists":7840," launch":7841,"下さい":7842," shif":7843,"～～":7844,"ちゃんが":7845," emp":7846,"少ない":7847," Virgin":7848,"おそ":7849," posted":7850," discussion":7851,"irmed":7852," boys":7853," Ver":7854," commit":7855," wave":7856," afraid":7857,"ナン":7858,"踏み":7859,"考えた":7860," originally":7861,"地下":7862," arrest":7863,"を放":7864,"存命":7865," honor":7866,"を着":7867," Russian":7868," communication":7869," giant":7870," flight":7871,"試験":7872,"よい":7873," Francis":7874," tor":7875,"周辺":7876,"マーク":7877," cells":7878," tong":7879,"指揮":7880,"yer":7881," properly":7882,"Over":7883," pil":7884,"流石":7885,"More":7886,"の世界":7887," Brown":7888,"こうして":7889,"主人公":7890,"の間に":7891,"背中":7892," eth":7893," hole":7894," Profess":7895," circumst":7896," batter":7897,"がいい":7898," meat":7899," Queen":7900," moments":7901," teach":7902,"ビル":7903,"oned":7904," phil":7905," vir":7906,"mathcal":7907,"実に":7908," department":7909,"osure":7910,"さに":7911,"になると":7912," ment":7913,"聞く":7914," youth":7915," suppl":7916,"生産":7917," stared":7918,"ideo":7919,"のかもしれない":7920,"データ":7921," Jul":7922," Bet":7923," Harry":7924," equal":7925,"going":7926,"自動車":7927,"環境":7928," manufacture":7929,"gency":7930,"ギリ":7931," library":7932,"case":7933," Florida":7934,"質問":7935,"時期":7936,"宇宙":7937,"雰囲":7938,"そうい":7939,"したり":7940,"igg":7941," senior":7942,"「――":7943,"グリ":7944," Po":7945,"cd":7946,"jo":7947," communities":7948," Tim":7949," imagine":7950," swim":7951,"笑みを":7952," Force":7953,"クル":7954," properties":7955," Information":7956,"非常に":7957,"irk":7958,"納得":7959," util":7960," defined":7961,"少なく":7962,"騎士団":7963,"ansion":7964,"安全":7965,"swered":7966,"ことはない":7967,"arry":7968," Sa":7969," furn":7970,"君は":7971,"Where":7972," hung":7973,"生まれ":7974,"![":7975,"esome":7976,"イタ":7977," finger":7978," bene":7979,"気配":7980,"飛行":7981,"投げ":7982," temperature":7983,"「「":7984,"建築":7985," stom":7986,"楽曲":7987,"心を":7988,"eries":7989," Both":7990," conven":7991," calm":7992,"stood":7993,"isation":7994,"小さく":7995," flying":7996,"場を":7997,"丁目":7998," PC":7999," NOT":8000,"名の":8001," driver":8002," rom":8003,"アリス":8004," rooms":8005,"amber":8006,"かね":8007,"ctors":8008,"気分":8009," boat":8010," dedicated":8011,"話は":8012,"強化":8013,"してくれる":8014,"最後":8015,"—\"":8016,"以外の":8017," heav":8018,"const":8019," speech":8020,"EST":8021," concerned":8022," Cy":8023,"angle":8024,"っきり":8025,"であろう":8026,"print":8027," Bob":8028,"国王":8029,"だけは":8030,"care":8031," functions":8032,"の方が":8033," 「":8034," capable":8035," YOU":8036," chosen":8037,"ドラゴン":8038," gate":8039,"alle":8040," Sir":8041,"どころ":8042," Ill":8043,"long":8044,"isa":8045,"ビス":8046,"alog":8047," Science":8048,"iki":8049," obtain":8050,"言えば":8051," Academy":8052," heads":8053,"の外":8054,"color":8055,"pered":8056,"ほしい":8057,"Comm":8058,"そろそろ":8059,"覚え":8060," replaced":8061,"アウ":8062,"——":8063,"font":8064,"体に":8065,"amples":8066,"俺と":8067,"一応":8068," string":8069," Long":8070," accepted":8071,"ンが":8072,"むしろ":8073," Head":8074," accompl":8075,"大人":8076," responsibility":8077," Atl":8078,"タイプ":8079,"主に":8080," standards":8081,"obe":8082,"wing":8083," wedding":8084," Division":8085,"が開":8086," answered":8087,"戦い":8088," conference":8089,"icon":8090,"教会":8091,"uls":8092," Gra":8093," iron":8094,"存命人物":8095,"post":8096," guid":8097,"話が":8098,"ミュージ":8099,"edia":8100," seek":8101,"やま":8102,"ロシア":8103,"連続":8104," Jose":8105,"CL":8106," religious":8107,"History":8108," adding":8109," bat":8110,"ホール":8111,"はっ":8112," diss":8113,"病院":8114,"始め":8115," witness":8116,"ニャ":8117,"力の":8118,"aniel":8119,"トロ":8120," fields":8121," nerv":8122,"こういう":8123," Boy":8124," height":8125,"aughed":8126,"かしい":8127," destroyed":8128," steel":8129,"ことになる":8130,"ビア":8131,"uan":8132,"神社":8133,"noon":8134,"iminal":8135,"そうだな":8136,"劇場":8137,"事で":8138,"物が":8139,"しては":8140,"専門":8141,"life":8142,"肩を":8143,"Once":8144," labor":8145,"達に":8146,"振り返":8147,"ディング":8148," shield":8149," capacity":8150," sharing":8151,"Val":8152,"モー":8153,"stal":8154," chapter":8155,"英語":8156," throat":8157," enjoyed":8158,"}^{":8159,"美術":8160,"iform":8161," technical":8162," younger":8163," joy":8164,"arly":8165,"クション":8166," editor":8167,"一体":8168," laughed":8169," combination":8170,"モデル":8171," tone":8172,"Rec":8173,"様々な":8174," dating":8175," Mur":8176,"incess":8177," propos":8178," ships":8179,"特徴":8180,"amin":8181," susp":8182,"cr":8183,"ulous":8184,"してしまう":8185," liber":8186," exercise":8187,"終わった":8188,"code":8189,"ずれ":8190,"メル":8191," aside":8192,"po":8193,"対応":8194,"伯爵":8195,"earing":8196,"企画":8197,"ヨー":8198," experiences":8199," Where":8200," tea":8201," Director":8202," negative":8203,"アド":8204," authority":8205,"共和":8206,"ないと":8207,"owed":8208,"!!!":8209,"だね":8210,"シャー":8211," tiny":8212,"するが":8213," Lady":8214," Haw":8215,"……！」":8216,"oured":8217,"istan":8218," nose":8219," USA":8220," liked":8221,"の一つ":8222,"ベン":8223,"お願いします":8224,"…]":8225,"writ":8226,"メートル":8227,"しが":8228,"合わせて":8229," According":8230,"El":8231,"替え":8232,"ちなみに":8233,"ignment":8234,"呼ば":8235," Ro":8236," instance":8237," ?":8238," supported":8239," update":8240,"だったら":8241," bringing":8242,"Other":8243,"abled":8244,"に入った":8245,"trans":8246,"を目":8247," Chicago":8248," Back":8249,"選択":8250," label":8251,"ba":8252," rang":8253,"置いて":8254,"二人は":8255,"ingu":8256,"HP":8257," Empire":8258," monster":8259,"規模":8260,"泣き":8261,"lyn":8262,"を一":8263," Gen":8264," Victor":8265," holds":8266,"営業":8267," Captain":8268," monitor":8269,"ournament":8270," coast":8271,"leep":8272,"icked":8273," Dragon":8274," Real":8275,"父親":8276,"方に":8277," citizens":8278,"さすがに":8279," pray":8280,"上がる":8281,"Set":8282," lad":8283," */":8284,"絶対に":8285,"文庫":8286,"男子":8287," shock":8288,"Will":8289,"=+":8290," terror":8291,"してしまった":8292," agent":8293," raise":8294," colors":8295," anymore":8296,"ATION":8297,"つける":8298,"オリン":8299,"Id":8300,"居る":8301," silence":8302," cru":8303,"なくなる":8304," planned":8305,"トゥ":8306,"空間":8307," anywhere":8308,"eters":8309," remem":8310,"えっ":8311,"をお":8312,"ormal":8313," mail":8314,"僕が":8315,"叩き":8316," liqu":8317,"方向":8318," spin":8319,"foot":8320,"ラム":8321," session":8322,"itable":8323," relevant":8324,"EP":8325," motor":8326,"現れた":8327,"bibitem":8328,"キャン":8329," spending":8330,"グレ":8331,"dr":8332," generation":8333,"aks":8334,"スーパー":8335,"支配":8336," distribution":8337," flu":8338,"ごめん":8339,"挨拶":8340," ideal":8341,"チャー":8342," thousand":8343,"メイド":8344," Ins":8345," Prov":8346," dial":8347,"っしゃ":8348,"ブリン":8349,"１０":8350," nine":8351,"みが":8352,"####":8353,"ミング":8354,"unge":8355,"xy":8356,"どうする":8357,"失敗":8358," Dam":8359," totally":8360," route":8361,"あります":8362," unknown":8363," AM":8364," suc":8365," officers":8366," critic":8367,"車両":8368," aid":8369,"さんも":8370," lights":8371," causing":8372,"フジ":8373," obtained":8374," Enter":8375," Sand":8376,"rog":8377," Committee":8378," Paris":8379,">>":8380," channel":8381," consequ":8382," hes":8383," entrance":8384," Times":8385," theme":8386," Before":8387," Instead":8388,"指導":8389,"bel":8390," AP":8391,"名を":8392,"Gu":8393," somewhat":8394,"を開始":8395,"outs":8396," internal":8397,"さが":8398,"¯¯¯¯¯¯¯¯":8399,"デビュー":8400," contem":8401,"んだが":8402," Dou":8403,"していたが":8404,"Since":8405," mel":8406," polic":8407,"eting":8408," falling":8409,"かは":8410,"aning":8411,"多分":8412,"使う":8413," Den":8414,"abilities":8415,"あげる":8416," uns":8417,"osis":8418,"心の":8419,"allery":8420," Museum":8421," serving":8422,"ねる":8423,"arian":8424,"スケ":8425,"地球":8426,"Sec":8427," taught":8428,"撮影":8429,"reets":8430," cris":8431,"CM":8432," deaths":8433,"と一緒に":8434,"いくら":8435," victory":8436," vo":8437," cro":8438," Joe":8439,"に着":8440,"lets":8441,"ヘル":8442,"astern":8443,"未来":8444,"からも":8445," Obama":8446,"映像":8447,"インター":8448,"uster":8449," Charles":8450,"たちを":8451,"落と":8452," Take":8453," crime":8454," resc":8455,"estic":8456," factors":8457," finds":8458,"いと":8459," suggested":8460,"ようと":8461," column":8462,"nel":8463," tired":8464," testing":8465," featured":8466,"セイ":8467,"DS":8468," err":8469,"よな":8470,"いわ":8471,"無かった":8472,"プロデュー":8473," Minister":8474,"rehens":8475,"とは思":8476,"らを":8477," creative":8478,"競技":8479," beside":8480,"委員会":8481,"することが":8482,"ことだ":8483,"abase":8484,"わかり":8485,"優しく":8486,"ねー":8487," Arm":8488,"サラ":8489," Ak":8490,"ですから":8491," forgot":8492,"acc":8493,"stone":8494,"までに":8495,"icit":8496,"umbled":8497,"当た":8498," Games":8499,"ヒー":8500," config":8501," decisions":8502,"指示":8503,"inity":8504," Henry":8505,"命令":8506,"神の":8507,"ヴォ":8508,"まく":8509,"rical":8510,"くれて":8511," armor":8512,"ructions":8513,"iko":8514," Men":8515,"君の":8516,"iency":8517," Charl":8518,"悪魔":8519,"支援":8520,"awn":8521," combined":8522,"反対":8523,"++++":8524,"内で":8525," batt":8526,"待って":8527,"被害":8528,"しそうに":8529," £":8530,"enny":8531,"aa":8532," Battle":8533,"長は":8534,"製造":8535," neither":8536," succeed":8537," volume":8538,"じゃないか":8539,"ucky":8540," 『":8541," freedom":8542," feelings":8543,"Mr":8544,"聞か":8545,"pes":8546," joint":8547,"atre":8548," shoulders":8549," proposed":8550,"なかったが":8551,",,":8552," losing":8553,"Thanks":8554,"目は":8555," missed":8556,"慌てて":8557," brings":8558,"または":8559,"者に":8560," vent":8561,"感謝":8562," promise":8563," Dev":8564,"口を開":8565,"まったく":8566,"IF":8567," Series":8568,"っていて":8569,"Em":8570," invent":8571," Fort":8572,"就任":8573," trib":8574,"を経":8575," noise":8576," extended":8577," description":8578,"レム":8579," Canadian":8580," server":8581," Los":8582," diet":8583," info":8584," upgr":8585,"持つ":8586,"側に":8587,"なった":8588,"avor":8589," Top":8590,"umer":8591," beneath":8592," maximum":8593,"しら":8594," gaze":8595,"non":8596,"ML":8597,"oking":8598,"cons":8599,"のなら":8600,"arters":8601," defeat":8602,"ピック":8603," Review":8604," Windows":8605,"にゃ":8606," latter":8607," specifically":8608,"orse":8609,"構造":8610,"quest":8611," portion":8612," Bas":8613,"コード":8614,"責任":8615," newsp":8616," format":8617,"上で":8618,"Sub":8619,"を手":8620,"提供":8621,"}_{":8622," grown":8623,"入れる":8624," Did":8625,"終わり":8626,"bles":8627," moves":8628,"kes":8629," shopping":8630," beach":8631," Down":8632," Order":8633," input":8634,"}_":8635,"カナ":8636," Open":8637,"運転":8638,"名は":8639,"olit":8640,"ffffffff":8641,"余裕":8642,"連れ":8643," videos":8644," aband":8645,"原因":8646," ID":8647,"asty":8648," stupid":8649,"道を":8650," Though":8651,"igr":8652,"}^":8653," murder":8654,"ひとつ":8655," tips":8656,"カリ":8657," Australian":8658,"iner":8659,"異世界":8660,"ガル":8661," greatest":8662,"わたく":8663," wet":8664," adventure":8665,"深く":8666," unlike":8667," constant":8668," mad":8669,"テム":8670," operating":8671,"ifications":8672,"年間":8673,"inking":8674,"info":8675," opposite":8676," explore":8677,"ちん":8678,"ashi":8679," owned":8680,"rick":8681,"ケン":8682,"死ぬ":8683," ears":8684,"chi":8685," Project":8686," visual":8687," saved":8688,"怖い":8689," plate":8690,"aren":8691,"ポート":8692," tomorrow":8693," Guard":8694," happening":8695,"疑問":8696,"の後":8697,"SU":8698," sport":8699," subsequ":8700,"orough":8701,"uilding":8702,"url":8703,"Ob":8704,"CDATA":8705,"うちに":8706,"……、":8707," existence":8708," founded":8709," fruit":8710,"気で":8711,"hetic":8712," profile":8713," somehow":8714,"achel":8715," Richard":8716,"icken":8717," perfectly":8718," sty":8719,"iration":8720," commission":8721,"DA":8722,"いました":8723," flex":8724,"orney":8725,"なんと":8726," sav":8727,"gas":8728," tongue":8729,"成長":8730,"public":8731," funds":8732," causes":8733," nuc":8734," launched":8735,"Fe":8736,"登録":8737," script":8738,"人と":8739,"行為":8740," Jon":8741,"yes":8742," signal":8743," grass":8744,"aph":8745," houses":8746," typically":8747,"マス":8748," Wal":8749,"inder":8750,"icrosoft":8751," prove":8752," efficient":8753,"coh":8754,"おそらく":8755,"uable":8756," Stand":8757,"ounter":8758," History":8759," […]":8760," ho":8761," matters":8762,"osoph":8763," objects":8764," afternoon":8765,"lambda":8766," techniques":8767," Education":8768,"人も":8769," repeated":8770,"she":8771,"――」":8772,"母親":8773,"ことにした":8774,"etic":8775," Mas":8776," ourselves":8777," recognized":8778,"ではないか":8779,"元に":8780," facilities":8781,"iament":8782,"after":8783,"何の":8784,"焼き":8785," Those":8786,"iser":8787," basket":8788,"図書":8789,"買い":8790," challenges":8791,"uce":8792," climb":8793,"スマ":8794,"mo":8795," league":8796," leadership":8797,"bow":8798,"ograp":8799," shipping":8800,"Hey":8801,"速度":8802," medium":8803,"えると":8804," worst":8805,"newcommand":8806,"連合":8807," fuel":8808,"lly":8809,"・・・」":8810,"umin":8811," failure":8812," readers":8813," chain":8814," passing":8815," Italian":8816,"イメ":8817,"Post":8818,"優しい":8819,"なければならない":8820," fought":8821," Engine":8822,"を求":8823,"ドア":8824," signs":8825,"ダル":8826," circumstances":8827," tears":8828,"江戸":8829,"ructure":8830," residents":8831," Wall":8832,"こともある":8833,"風呂":8834," developing":8835," expensive":8836," Hol":8837," Mot":8838," dust":8839," Valley":8840," laid":8841,"een":8842,"明日":8843," bless":8844,"kins":8845,"じゅ":8846," considering":8847," Av":8848," Lee":8849," Offic":8850,"chang":8851," Di":8852,"agger":8853,"分かり":8854," warn":8855,"スタン":8856,"obs":8857,"柔ら":8858," apparently":8859,"cho":8860,"物は":8861,"ucks":8862," Ash":8863,"ものである":8864,"広島":8865,"邪魔":8866,"ボン":8867,"rer":8868," agency":8869,"会った":8870,"の上に":8871,"のですが":8872,"ではある":8873,"を結":8874,"最初の":8875,"phas":8876,"ran":8877," gentle":8878," duty":8879,"案内":8880,"uations":8881,"かけた":8882," topic":8883," therap":8884,"ilde":8885,"自分で":8886," wealth":8887," Pan":8888," trick":8889," pill":8890," nut":8891," п":8892," Form":8893,"みな":8894,"注意":8895," Ken":8896," returns":8897,"おく":8898," strike":8899," stuck":8900," creation":8901,"aved":8902,"was":8903,"lled":8904," officials":8905,"ずつ":8906,"せいで":8907,"お前は":8908,"通信":8909," identify":8910,"ミル":8911," windows":8912,"県道":8913," guitar":8914,"SA":8915," jack":8916," shouldn":8917," restaurant":8918," Social":8919,"size":8920,"陛下":8921,"緊張":8922," buying":8923," committed":8924,"EW":8925,"utch":8926,"essel":8927,"ensions":8928,"Chapter":8929,"gor":8930," household":8931," alternative":8932," approximately":8933," relief":8934,"列車":8935," confident":8936,"赤い":8937,"iel":8938,"所に":8939,")(":8940,"時には":8941," diagn":8942,"お父":8943,"を決":8944," Design":8945,"ハッ":8946,"ban":8947," (\\":8948," veget":8949," injury":8950," gotten":8951," selling":8952," Show":8953," tough":8954,"の主":8955," Gar":8956," Human":8957,"author":8958,"iture":8959," pleasure":8960," affili":8961,"彼らは":8962," crazy":8963,"の実":8964,"version":8965,"Che":8966,"Back":8967,"と言った":8968,"歩き":8969,"ラル":8970," Way":8971,"召喚":8972," conver":8973,"log":8974," goods":8975," reduced":8976," recip":8977,"align":8978," Another":8979," bigger":8980,"古屋":8981," Leg":8982,"ポイント":8983," silent":8984,"FFFF":8985,"ピア":8986,"appy":8987," worried":8988,"asant":8989," border":8990,"door":8991,"それだけ":8992," package":8993,"伸び":8994," Spanish":8995,"』『":8996,"驚いた":8997,"そういえば":8998,"タイトル":8999,"お嬢":9000,"警戒":9001," shr":9002," delivered":9003," Americans":9004," assistance":9005,"imp":9006," stands":9007," tent":9008,"イメージ":9009,"もしれ":9010,"付ける":9011," sym":9012," belief":9013," bedroom":9014," disappoint":9015,"rete":9016," assume":9017," Card":9018," split":9019," End":9020," ON":9021," proof":9022," elev":9023," →":9024,"クター":9025,"っくり":9026,"UL":9027," Steve":9028,"を追":9029," blank":9030," retail":9031,"nect":9032,"現実":9033," Apple":9034,"現代":9035,"upp":9036," Hun":9037," alle":9038,"以下の":9039," condu":9040," sighed":9041,"イズ":9042,"ゴブリン":9043," Mike":9044," hoping":9045," perman":9046,"uten":9047," Fre":9048,"Description":9049,"しな":9050,"のですか":9051,"During":9052,"オープ":9053," output":9054," charged":9055," administration":9056,"出された":9057,"まずは":9058,"perial":9059,"unicip":9060," violence":9061,"then":9062," origin":9063," Little":9064,"突っ":9065," moon":9066,"続く":9067," magazine":9068,"LC":9069," prompt":9070,"'.":9071,"と言って":9072," volunte":9073,"かのように":9074," darkness":9075,"残念":9076,"コレ":9077,"anny":9078," helpful":9079," Chief":9080,"star":9081," Foundation":9082," Women":9083,"okes":9084,"範囲":9085,"存在する":9086,"を受けて":9087," pow":9088,"一の":9089,"その他":9090," Make":9091,"方を":9092," Oper":9093,"=-=-=-=-":9094,"ぶつ":9095," Dan":9096,"地を":9097," surrounding":9098,"りで":9099,"ています":9100," panel":9101," Girl":9102,"足り":9103,"Att":9104,"asks":9105,"iest":9106,"hus":9107," angry":9108," blow":9109," schedule":9110,"が必要":9111," understood":9112,"MC":9113,"Rel":9114,"と考え":9115," facility":9116,"peror":9117,"iments":9118,"array":9119," plane":9120,"かす":9121," thread":9122,"を解":9123,"誕生":9124," Thursday":9125," interests":9126,"PA":9127," AN":9128," Phys":9129," lady":9130," guests":9131,"っぱい":9132,"出来た":9133," RE":9134," Jones":9135," Care":9136,"まれ":9137,"ハル":9138," stronger":9139," nom":9140," Bell":9141," charges":9142,"あるいは":9143," Policy":9144,"レース":9145,"工業":9146,"のまま":9147,"world":9148,"属性":9149," yesterday":9150,"oty":9151,"リーン":9152,"発見":9153,"そうです":9154," university":9155," Russia":9156,"知識":9157,"string":9158," plot":9159," Martin":9160," advertising":9161,"コロ":9162,"候補":9163," importance":9164,"ールは":9165,"を持って":9166,"会長":9167,"フォー":9168," documents":9169,"態度":9170,"dro":9171,"ui":9172," sole":9173,"oster":9174,"etry":9175,"ゼル":9176," Contin":9177,"Like":9178,"入れて":9179," guards":9180," magical":9181,"Even":9182," cheap":9183," careful":9184,"ressed":9185," Catholic":9186,"であるが":9187," Tri":9188,"oration":9189," hits":9190,"zer":9191,"数は":9192," classic":9193,"命を":9194," stomach":9195,"インド":9196,"apes":9197,"吐き":9198,"恐怖":9199,"js":9200,"運営":9201," holiday":9202," Tuesday":9203," debut":9204,"衝撃":9205,"事情":9206," tries":9207,"vy":9208,"代わりに":9209," Sn":9210," Ire":9211," shirt":9212,"ります":9213,"バンド":9214,"person":9215," memories":9216,"Notes":9217," vari":9218,"するのは":9219," fold":9220,"メー":9221,"名古屋":9222," loan":9223,"成績":9224," wire":9225,"beta":9226,"HT":9227," Lo":9228,"ウンド":9229," stro":9230," acknow":9231,"urd":9232," register":9233," confirm":9234,"間違":9235," debt":9236,"ika":9237,"すごい":9238,"ッサ":9239," symbol":9240," multi":9241,"採用":9242," fee":9243,"本の":9244,"”,":9245,"事故":9246," identity":9247,"をしていた":9248,"gery":9249,"美しい":9250," Sup":9251,"なんだか":9252," guest":9253,"Ass":9254,"髪の":9255," acting":9256,"olve":9257,"izard":9258,"ッタ":9259," remark":9260," gonna":9261," faces":9262," repair":9263,"Co":9264,"tes":9265,"出る":9266,"();":9267,"Dis":9268," browser":9269," argument":9270,"tle":9271,"iano":9272,"勝ち":9273," troops":9274,"ミア":9275," treated":9276,"あれは":9277,"活躍":9278,"べる":9279," teen":9280,"related":9281," sending":9282," Mid":9283,"型の":9284,"unc":9285," layer":9286,"ommod":9287," Call":9288," factor":9289,"まっている":9290," Virginia":9291,"ned":9292,"もしかして":9293," shooting":9294,"福岡":9295,"eping":9296,"アイテム":9297," rac":9298,"やすい":9299,"ollowing":9300," elected":9301,"カラ":9302," county":9303," Pac":9304,"線の":9305,"戦う":9306," illustr":9307,"ストラ":9308,"運行":9309," decre":9310,"をと":9311,"rig":9312,"期間":9313,"law":9314,"ベース":9315,"勝手に":9316," claimed":9317,"Reg":9318,"個人":9319,"防御":9320," PM":9321,"スピ":9322,"わけではない":9323," wal":9324," concerns":9325,"lete":9326,"簡単に":9327," fault":9328,"TBS":9329," headed":9330,"表示":9331,"oked":9332," studio":9333,"eding":9334," abilities":9335," Ep":9336,"笑った":9337," anx":9338," Mexico":9339," obviously":9340,"tenance":9341," lunch":9342,"魔法の":9343,"もので":9344," optim":9345," carrying":9346,"満足":9347," hundreds":9348,"達を":9349,"plate":9350,"独立":9351,"マリア":9352,"国民":9353," distinct":9354," reaction":9355," practices":9356," Four":9357," centre":9358," facing":9359," Father":9360,"保護":9361," SP":9362,"大きい":9363,"取った":9364,"両親":9365,"面の":9366," attrib":9367,"Def":9368,"向き":9369," flash":9370," opponent":9371," univers":9372,"なあ":9373,"urban":9374,"必ず":9375,"style":9376," wings":9377," Prince":9378,"weight":9379,"oston":9380,"ペン":9381," defeated":9382," frown":9383,"ooks":9384,"position":9385,"令嬢":9386,"draw":9387,"を示":9388,"優秀":9389,"elcome":9390," relatively":9391," apartment":9392,"ロード":9393," policies":9394,"pat":9395," Angeles":9396," MP":9397,"zed":9398," AT":9399," pink":9400,"仕事を":9401," Have":9402," Chris":9403," incorpor":9404,"に加":9405,"であれば":9406,"付けて":9407,"prise":9408," vehicles":9409," intent":9410," pra":9411,"労働":9412,"path":9413,"-)":9414,"inned":9415," appointed":9416,"fol":9417," mixed":9418,"bing":9419," poly":9420,"種類":9421,"ただの":9422,"osa":9423,"iot":9424," keeps":9425,"感じる":9426,"^{-":9427," fabric":9428," pregn":9429,"特殊":9430,"ニック":9431,"yo":9432,"だろうが":9433," pin":9434,"の人間":9435,"巨大な":9436," stead":9437,"半分":9438," dogs":9439," depending":9440," thinks":9441,"限定":9442,"作り":9443,"金を":9444,"続けた":9445," sees":9446," UN":9447,"ALL":9448," Ren":9449,"知る":9450,"相当":9451," cultural":9452," Today":9453,"相手に":9454," blind":9455,"それと":9456,"~~~~~~~~":9457,"されており":9458,"かける":9459," referred":9460,"に座":9461," relationships":9462," Elect":9463,"Art":9464," н":9465,"のことを":9466," =:":9467," flowers":9468,"scape":9469,"ethod":9470," pit":9471,"ヴァン":9472," Nov":9473,"DF":9474," answers":9475," judge":9476,"きょう":9477," movies":9478,"しなかった":9479,"期の":9480,"mosp":9481," truck":9482," struck":9483,"せば":9484," minimum":9485," merc":9486," Station":9487," wheel":9488,"ていった":9489,"意見":9490,"国家":9491," frequently":9492,"data":9493,"ensus":9494," Mrs":9495,"fall":9496," fool":9497,"MM":9498," OR":9499,"セット":9500,"を指":9501,"plete":9502," phase":9503,"有名":9504," Walk":9505," draft":9506,"したのは":9507,"形で":9508,"nergy":9509,"グル":9510,"ila":9511,"高速":9512,"大量":9513," Jun":9514," confidence":9515," Cross":9516," cream":9517,"できなかった":9518,"当時の":9519," letting":9520," trig":9521,"学院":9522,"タイム":9523," Management":9524," appreciate":9525," ath":9526," locations":9527," anger":9528,"rum":9529,"プル":9530,"mond":9531,"ampion":9532,"import":9533,"いっ":9534," desper":9535,"かしら":9536,"uz":9537,"走り":9538," ast":9539," seriously":9540,"実施":9541," Chapter":9542," Wednesday":9543," musical":9544,"Mon":9545,"プレイヤー":9546," с":9547," Amazon":9548,"してくる":9549,"fortunately":9550,"番号":9551,"パート":9552," Right":9553,"と思います":9554,"Pre":9555,"転移":9556," ax":9557," forever":9558," stairs":9559," Point":9560,"若い":9561,"Eng":9562,"今回の":9563," Young":9564,"深い":9565,"以上に":9566," edition":9567,"いかない":9568,"%\\":9569,"すみ":9570,"がった":9571," Far":9572," absor":9573,"sigma":9574,"omy":9575,"グラン":9576," Family":9577," III":9578,"側の":9579," ingred":9580,"ican":9581," issued":9582," elimin":9583," circle":9584,"iamond":9585," climate":9586," adop":9587,"ベルト":9588,"Most":9589,"CR":9590," hyp":9591,"ested":9592,"taining":9593,"abs":9594,"Did":9595,"erk":9596,"勉強":9597,"経営":9598," depth":9599," trained":9600,"spe":9601," native":9602," conclud":9603,"そこには":9604," tunn":9605," seeking":9606," streets":9607,"はどう":9608,"バカ":9609,"マリ":9610,"link":9611,"数が":9612,"ワールド":9613,"逆に":9614," chose":9615," confirmed":9616," purchased":9617,"るように":9618," components":9619,"ERS":9620,"少しだけ":9621,"いつもの":9622," annoy":9623," favour":9624,"usted":9625," resident":9626,"umi":9627,"無駄":9628,"JR":9629,"ちゅ":9630,"gent":9631,"inst":9632,"enger":9633,"へ向":9634," receiving":9635,"提案":9636," terr":9637," historical":9638,"ことになった":9639,"本作":9640,"bec":9641,"変わらず":9642,"さっ":9643," Development":9644," grabbed":9645," talked":9646," menu":9647," vast":9648,"一人で":9649,"と思っていた":9650," ()":9651," Death":9652,"くら":9653," positions":9654,"Out":9655,"zil":9656,"ミュ":9657," measures":9658," prepare":9659,"頭に":9660,"大陸":9661," drawn":9662,"ns":9663,"otes":9664,"uma":9665," Arts":9666,"アラ":9667,"視界":9668,"ンと":9669,"Sm":9670,"離れた":9671," explos":9672,"ミニ":9673,"テーマ":9674,"到着":9675," syn":9676,"決勝":9677," lies":9678,"を使って":9679,"抵抗":9680," automatically":9681," constantly":9682,"えられた":9683,"失礼":9684,"なかな":9685," letters":9686," tonight":9687,"itate":9688," visitors":9689,"pass":9690,"+\\":9691,"??":9692," san":9693,"同士":9694,"太陽":9695,"化した":9696,"集中":9697," sector":9698," messages":9699," weird":9700," paying":9701," processing":9702," glanced":9703,"配信":9704," teachers":9705,"aland":9706," meal":9707,"発言":9708," Last":9709,"切れ":9710," coverage":9711,"ups":9712,"まして":9713,"はお":9714," listening":9715,"そっと":9716,"分から":9717,"iveness":9718,"athan":9719,"Inst":9720," contained":9721,"ロット":9722,"Trans":9723,"ishop":9724,"zing":9725,"Par":9726,"Ah":9727," bomb":9728,"話す":9729,"っています":9730,"最後に":9731,"リル":9732," blade":9733," stayed":9734," ==":9735,"Part":9736,"教師":9737,"県立":9738,"キラ":9739,"ali":9740," ending":9741,")}":9742,"stream":9743," Security":9744,"ッジ":9745," Sher":9746," detailed":9747," writers":9748,"utral":9749," vessel":9750," attached":9751,"thur":9752,"そうして":9753,"らせる":9754,"lee":9755," delay":9756," shoes":9757,"でしょうか":9758,"!)":9759," の":9760," Bre":9761," affected":9762,"aturally":9763,"…………":9764,"魔導":9765,"共同":9766," Arab":9767,"GB":9768," category":9769," figures":9770,"横浜":9771,"に参加":9772,"gypt":9773,"を使用":9774," Color":9775," fairly":9776,"以来":9777," interpret":9778," decades":9779,"oral":9780,"どの":9781,"wr":9782,"クの":9783," Summer":9784,"アメリカ合衆国の":9785," scientific":9786,"umps":9787,"Another":9788," survey":9789," identified":9790,"bal":9791," Jeff":9792,"doc":9793," criminal":9794," division":9795,"我慢":9796,"SH":9797,"相談":9798," observed":9799," Three":9800,"決して":9801,"皇帝":9802," Ter":9803,"生まれた":9804," Community":9805,"パーティー":9806,"作った":9807," earned":9808,"€™":9809,"駄目":9810," inspired":9811," attacked":9812,"ilon":9813," flag":9814,"ancer":9815,"fin":9816," auth":9817," sin":9818," resistance":9819,"ersion":9820,"アカ":9821," Ray":9822," chemical":9823,"まじ":9824," breaking":9825,"月号":9826,"面を":9827,"ducing":9828," drawing":9829," studied":9830,"合併":9831,"bre":9832," Level":9833," instit":9834," merch":9835,"Hi":9836,"いきなり":9837,"日発売":9838,"arge":9839,"ロキ":9840,"わせ":9841,"orem":9842,"そのため":9843,"lessly":9844,"否定":9845," lovely":9846," wid":9847,"いずれ":9848," ven":9849,"erman":9850," grant":9851," cutting":9852," Hon":9853,"女優":9854," Ari":9855,"分の":9856,"フジテレビ":9857," sugar":9858,"編集":9859,"してた":9860,"onym":9861,"年齢":9862,"uing":9863," accommod":9864,"shire":9865,"の前":9866," rolled":9867,"頭を下":9868," shadow":9869,"utation":9870," simpl":9871,"run":9872," Pot":9873,"年は":9874,"怪我":9875," Es":9876," stores":9877," broadcast":9878,"っけ":9879," Hell":9880," colour":9881," loves":9882," Rom":9883,")、":9884,"バレ":9885,"練習":9886,",-":9887," Federal":9888,"認め":9889," academic":9890,"エー":9891,"♡　":9892,"agram":9893," frag":9894,"itionally":9895,"そりゃ":9896,"According":9897," awesome":9898," Wild":9899," normally":9900,"file":9901," Georg":9902,"TA":9903,"fection":9904," ww":9905," Fred":9906,"が出て":9907," remote":9908," shit":9909,"ifts":9910," gest":9911,"身の":9912," Test":9913,"らに":9914,"^\\":9915,"初の":9916,"元の":9917,"を持ち":9918," registered":9919," motiv":9920," settled":9921,"キス":9922,"EF":9923,"sim":9924,"reate":9925,"一郎":9926," Note":9927," merely":9928,"メイン":9929," justice":9930,"Because":9931," protected":9932,"急に":9933," habit":9934," reward":9935,"こんなに":9936,"文学":9937,"上がった":9938," smoke":9939,"付いた":9940," acts":9941," Still":9942,"仕方ない":9943,"レーション":9944,"リック":9945," Ly":9946," Mir":9947," spr":9948,"くり":9949,"しげ":9950,"異なる":9951,"エスト":9952,"驚き":9953,"を変":9954,"くれない":9955," emergency":9956," tank":9957," Ha":9958," Twitter":9959,"とお":9960," ju":9961,"オリンピック":9962," Despite":9963," sustain":9964,"ione":9965," default":9966," loose":9967,"nam":9968," funny":9969,"Last":9970,"を起こ":9971,"凄い":9972,"見えない":9973,"頬を":9974," clothing":9975,"に対し":9976," Spirit":9977,"繰り返":9978," bread":9979," ~":9980,"なんとか":9981," negot":9982,"表現":9983," Van":9984,"ロス":9985," vary":9986," Lear":9987," Sky":9988," Magic":9989,"みたいに":9990,"IVE":9991,"置き":9992," bathroom":9993," mask":9994," sufficient":9995,"ちゃう":9996,"原作":9997,"inem":9998,"リィ":9999," Data":10000," www":10001,"しくて":10002,"光景":10003,"に伴":10004,"istration":10005,"妙な":10006,"ッカ":10007," approved":10008,"そんなことを":10009," aircraft":10010,"々は":10011,"athered":10012,"そうだった":10013,"そんなこと":10014,"言われて":10015,"やがて":10016,"世の":10017,"編成":10018,"取る":10019,"Living":10020," Scot":10021,"rich":10022,"相手の":10023,"何だ":10024," waited":10025,"-+":10026," bottle":10027," ;":10028," McC":10029,"fire":10030,"を失":10031," leather":10032,"ulture":10033," bull":10034," fees":10035," plastic":10036,"治療":10037," pulling":10038,"Sy":10039,"銀行":10040,"千葉":10041,"認識":10042," tests":10043,"ヒロ":10044," suppose":10045," sacr":10046,"ロボ":10047," knock":10048," announce":10049," compr":10050," Sea":10051," Ell":10052," Media":10053,"uous":10054," golden":10055,"海軍":10056,"through":10057,"大臣":10058,"Before":10059,"ひろ":10060,"は無い":10061,"キン":10062,"ブレ":10063," Italy":10064,"素直":10065,"戦士":10066," Rose":10067," processes":10068,"ouch":10069,"お前の":10070," likes":10071," Johnson":10072,"エド":10073,"!”":10074,"たと":10075,"無視":10076," pursu":10077," harder":10078,"っぽい":10079," chat":10080,"参照":10081," Isl":10082,"を送":10083,"にかく":10084," confused":10085,"！！　":10086,"ugg":10087," HP":10088," covers":10089,"サービス":10090,"資料":10091," emphas":10092," flesh":10093,"HS":10094," alongside":10095,"の奥":10096,"アス":10097,"曜日":10098," rum":10099,"時間を":10100,"aga":10101," Festival":10102,"迷宮":10103," overl":10104," uniform":10105,"たび":10106," rear":10107,"女が":10108,"cohol":10109,"迎え":10110,"程度の":10111," intelligence":10112,"ページ":10113," tracks":10114,"髪を":10115,"ないで":10116," List":10117,"バック":10118," Trump":10119,"ねた":10120,"指を":10121,"戦で":10122,"Er":10123," council":10124," observ":10125," burst":10126," incident":10127,"コース":10128," Mic":10129," Holy":10130," mainly":10131,"ベスト":10132,"君が":10133,"ifer":10134," spons":10135," privacy":10136,"研究所":10137," returning":10138,"izz":10139," supporting":10140,"離れ":10141," butter":10142,"社長":10143," Ireland":10144,"IB":10145,"週間":10146," flood":10147,"部屋に":10148,"メラ":10149,"国道":10150," Carolina":10151,"であったが":10152," conscious":10153," dollars":10154," Priv":10155," era":10156," recommended":10157," marked":10158," atmosp":10159,"away":10160,"全然":10161,"女は":10162," spiritual":10163," inner":10164,"明る":10165,"を食べ":10166," Jac":10167," Penn":10168,"ESS":10169," funding":10170,"EE":10171," shift":10172," kinds":10173,"うっ":10174," aspects":10175,"eling":10176,"主な":10177,"とにかく":10178,"will":10179,"test":10180,"то":10181,"stein":10182," Bow":10183,"設計":10184," ISBN":10185,"っていった":10186," reaching":10187,"くっ":10188," staring":10189,"意外":10190," contrast":10191,"横に":10192," exciting":10193,"aron":10194,"将軍":10195," Kat":10196," Corpor":10197,"Note":10198," examples":10199,"）（":10200," drew":10201,"\"><":10202," в":10203,"PL":10204,"aval":10205,"大事":10206,"の選手":10207,"rate":10208," replace":10209," improved":10210," threw":10211," license":10212,"wa":10213,"ウム":10214," environmental":10215," markets":10216,"title":10217,"ester":10218," Li":10219,"abeth":10220," index":10221," monsters":10222,"Time":10223,"を受ける":10224," Asia":10225,"かせ":10226,"worth":10227," pocket":10228,"Fil":10229,"eck":10230,"目の前に":10231," survive":10232," collected":10233,"elines":10234,"っては":10235," accurate":10236,"許可":10237," spir":10238,"にとっては":10239,"Bi":10240,"止める":10241,"ockey":10242,"urse":10243,"ログ":10244,"value":10245," fulf":10246," lying":10247," sympt":10248," remembered":10249," Online":10250," neighborhood":10251,"マリー":10252,"の話":10253,"その時":10254," Thus":10255,"vo":10256,"ensed":10257," valuable":10258," reform":10259,"にならない":10260," occas":10261," pump":10262,"りする":10263,"フォン":10264,"度の":10265," websites":10266," capture":10267,"を使う":10268," settings":10269,"page":10270," yours":10271,"ごめんな":10272,"に入り":10273," Perhaps":10274,"観光":10275,"法人":10276," knife":10277,"attered":10278," Hand":10279," predict":10280,"otal":10281," whenever":10282,"バート":10283,"ulty":10284,"べく":10285,"早い":10286," resource":10287," Foot":10288,"動く":10289,"直ぐ":10290,"帰って":10291," closely":10292," Tour":10293," Term":10294," ris":10295,"討伐":10296,"あき":10297,"機嫌":10298," lucky":10299,"テーブル":10300,"機会":10301," housing":10302,"ッフ":10303,"big":10304," Journal":10305,"bro":10306,"身に":10307," delight":10308," Check":10309,"議会":10310,"お母":10311,"の魔法":10312," tournament":10313,"大正":10314,"オブ":10315,"いません":10316,"笑顔":10317," Mom":10318," resulting":10319,"自己":10320," gained":10321," Dig":10322,"uri":10323,"言われた":10324,"時点で":10325,"うわ":10326,"CA":10327,"風に":10328,"事態":10329,"cend":10330," Step":10331,"angers":10332,"昨日":10333,"greg":10334," Bon":10335,"搭載":10336,"nu":10337," Fair":10338,"るとは":10339,"ennis":10340," experts":10341,"感が":10342," Son":10343,"ello":10344," till":10345," initi":10346,"手紙":10347,"地面に":10348,"比較":10349,"痛い":10350," versions":10351," occurred":10352," Vis":10353,"Two":10354,"car":10355," Library":10356,"ulating":10357," consent":10358,"ぐる":10359,"ッション":10360," instant":10361,"stract":10362," substant":10363,"してくれ":10364," arrive":10365,"aire":10366,"大切":10367," depos":10368,"ocolate":10369," colon":10370," pleased":10371,"rences":10372,"けい":10373,"おっ":10374,"ネス":10375," photograph":10376," Jackson":10377,"Mod":10378," permission":10379,"Gl":10380,"obby":10381,"めに":10382," wake":10383," Liber":10384," typical":10385," wooden":10386,"えん":10387," plain":10388,"後で":10389," Turn":10390,"だという":10391,"セント":10392,"raq":10393," tip":10394,"なんだろう":10395,"aku":10396," Id":10397,"らした":10398,"phy":10399,"温泉":10400,"かれている":10401,"times":10402," investigation":10403,"rets":10404,"秘密":10405,"進む":10406,"fty":10407," liquid":10408,"久し":10409,"reens":10410," attempts":10411," attended":10412,"動物":10413,".''":10414," visible":10415,"などが":10416,"＊＊":10417,"Rem":10418," possibility":10419," updated":10420," painting":10421," experiment":10422,"イラ":10423,"BO":10424," expressed":10425,"icial":10426,"私と":10427," Ok":10428,"EV":10429," Pri":10430," AR":10431,"九州":10432," tur":10433," actor":10434,"essage":10435,"Although":10436," Was":10437,"ults":10438,"eared":10439,"握り":10440," Jewish":10441,"変な":10442," domin":10443," birthday":10444,"比べ":10445," perspective":10446,"議院":10447,"ストー":10448," represented":10449,"自分を":10450,"聞こえて":10451,"教室":10452," Doctor":10453,"gamma":10454,"付いて":10455,"mes":10456,"stra":10457,"inent":10458,"hop":10459," breakfast":10460,"Rep":10461," rul":10462,"に従":10463,"もと":10464," designs":10465," heaven":10466,"装置":10467," dad":10468," wondered":10469,"次第":10470,"集団":10471,"igent":10472,"ほうが":10473,"苦笑":10474,"スライ":10475,"尽く":10476,"ught":10477," captain":10478,"と思って":10479,"一部":10480,"魔族":10481,"だと思う":10482,"持って":10483,"orses":10484," Dar":10485,"師匠":10486," magn":10487,"人口":10488," sche":10489,"似た":10490," captured":10491,"やか":10492," arts":10493,"ISBN":10494,"rim":10495," salt":10496,"ibilities":10497,"ミス":10498," branch":10499," Wars":10500,"分け":10501,"等の":10502,"mat":10503,"uf":10504," admit":10505," promote":10506,"を中心":10507," whispered":10508,"ますか":10509,"かかる":10510,"を見せ":10511," distract":10512," vul":10513," awarded":10514,"THE":10515," executive":10516,"オリジ":10517,"あく":10518," exha":10519," Middle":10520,"さは":10521," adults":10522," dram":10523," Cas":10524,"発行":10525," involve":10526," (\"":10527," accounts":10528,"oviet":10529," Boston":10530,"ishment":10531,"甘い":10532," Rail":10533," Joseph":10534,"以下":10535,"電話":10536," victim":10537,"伝え":10538," Log":10539," politics":10540,"改めて":10541,"Char":10542,"心が":10543,"で行":10544,"のち":10545," Network":10546," sample":10547," technique":10548,"blog":10549,"elly":10550," suck":10551," nod":10552,"帰る":10553," Beach":10554,"まない":10555,"パラ":10556," successfully":10557,"でもいい":10558,"whel":10559,"今回は":10560,"まれる":10561,"アフ":10562," pod":10563," medicine":10564," Hard":10565,"産業":10566," ec":10567,"uting":10568,"isodes":10569," boost":10570,"vol":10571," ske":10572," instruct":10573,"some":10574," universe":10575," Justice":10576," forum":10577,"umni":10578,"掛けて":10579,"公演":10580,"nic":10581,"ikes":10582,"ront":10583," burning":10584,"付けた":10585,"ぁぁ":10586,"他に":10587,"hent":10588,"人間の":10589,"elve":10590," Stat":10591,"figure":10592,"使える":10593,"くなり":10594,"全ての":10595,"たない":10596,"odge":10597," Ca":10598,"orted":10599," explan":10600,".[":10601,"覚悟":10602," FOR":10603,"EG":10604," Fig":10605," instructions":10606,"rho":10607,"table":10608," SH":10609,"ではなかった":10610," km":10611,"たちも":10612," southern":10613,"てた":10614,"ansas":10615,"ようだった":10616," publish":10617,"かれて":10618," professionals":10619,"オーク":10620,"王の":10621,"思い出":10622,"AND":10623,"もら":10624,"Act":10625," scar":10626," territory":10627,"ART":10628,"爆発":10629," discount":10630," =>":10631," practical":10632,"の先":10633,"追加":10634,"表情を":10635," ille":10636," candidate":10637," heavily":10638," effic":10639," warning":10640,"リリース":10641," terrible":10642,"しくない":10643,"BI":10644," reasonable":10645,"にあった":10646," 〜":10647," choices":10648," recognize":10649,"ぼう":10650,"break":10651," installed":10652,"ネー":10653,"アレク":10654," rising":10655,"～」":10656," tact":10657," Bat":10658," surprising":10659," electronic":10660,"なんだよ":10661," religion":10662,"声に":10663," Tal":10664,"格好":10665,"izer":10666," ham":10667,"aya":10668,"ねて":10669,"heast":10670,"にいた":10671,"aping":10672," voc":10673," Yet":10674," milk":10675,"who":10676," Pass":10677,"芸術":10678,"受賞":10679," sne":10680,"][":10681," Iran":10682,"思考":10683," Egypt":10684," corporate":10685,"きました":10686," Set":10687," topics":10688,"」。":10689," drugs":10690,"ませんで":10691," enhance":10692," categ":10693," cleaning":10694," describe":10695," fucking":10696,"が始":10697," Ram":10698,"ige":10699," concert":10700," mana":10701," Zealand":10702,"iece":10703," Prime":10704,"OG":10705," Pay":10706,"ras":10707," persons":10708,"の地":10709," personally":10710," Lim":10711,"osc":10712," refused":10713,"電気":10714," Person":10715," Never":10716," Records":10717,"Sum":10718,"$-":10719,"胸を":10720," searching":10721," por":10722,"していると":10723,"lements":10724,"寄せ":10725," stations":10726," Disc":10727," pressed":10728,"erg":10729,"トップ":10730,"ugs":10731,"天使":10732,"bridge":10733," beer":10734," Southern":10735,"ロウ":10736," lifted":10737," fallen":10738,"だけが":10739," northern":10740," gently":10741," locked":10742,"ステージ":10743,"アンド":10744,"プライ":10745," granted":10746,"stery":10747,"there":10748," Vill":10749,"）-":10750,"ownt":10751,"pg":10752," leaned":10753," industrial":10754," tower":10755,"acon":10756," stored":10757,"言え":10758,"しょうか":10759,"口から":10760,"they":10761," veter":10762,"処理":10763,"ムは":10764,"してから":10765," researc":10766,"小さい":10767," chuck":10768,"普通の":10769," loyal":10770,"tra":10771,"UM":10772,"ケル":10773," dreams":10774,"parent":10775," equival":10776," ghost":10777,"Also":10778," mistake":10779," educational":10780,"するように":10781,"裁判":10782," recording":10783," effectively":10784,"日本語":10785,"操作":10786,"食い":10787,"bat":10788," roy":10789,"umes":10790,"普通に":10791,"あい":10792," visiting":10793,"CP":10794," castle":10795," instrument":10796," clim":10797,"名前を":10798,"aints":10799,"anguages":10800," repro":10801," encourage":10802," poll":10803," suitable":10804," About":10805,"負け":10806,"頷いた":10807,"rome":10808,"防衛":10809," informed":10810,"と思い":10811," initially":10812,"商品":10813,"二つ":10814,"sect":10815," suspect":10816,"encing":10817," cycle":10818,"感じた":10819," Space":10820,"お互":10821,"えき":10822,"整備":10823," CH":10824," Kim":10825," hanging":10826," Again":10827,"兄弟":10828,"アリー":10829,"明らかに":10830," Ox":10831," assault":10832," Secretary":10833,"結界":10834,"リュー":10835," domain":10836,"いけない":10837," ped":10838," sir":10839,"gorith":10840," facts":10841," dealing":10842,"抜き":10843,"ela":10844," trading":10845,"そうですね":10846,"igration":10847," yell":10848,"ffered":10849," gear":10850,"function":10851,"とされる":10852," serves":10853,"詰め":10854," maintenance":10855,"わたしは":10856,"サル":10857," extent":10858,"女神":10859,"ador":10860," Columb":10861," heading":10862,"出身の":10863,"onder":10864," respectively":10865," Him":10866,"おかしい":10867," agents":10868," butt":10869,"手伝":10870," unus":10871,"すぎて":10872," wondering":10873,"価値":10874,"gun":10875,"ito":10876,"もう少し":10877,"ashes":10878,"達も":10879,"Sim":10880,"頭が":10881,"うる":10882,"低い":10883,"resents":10884," Carl":10885,"頼む":10886,"aud":10887,"wan":10888," Az":10889," brothers":10890," courses":10891," containing":10892," cooking":10893," Moon":10894," Ice":10895,"inations":10896,"自信":10897,"arted":10898,"tense":10899," excess":10900,"CS":10901,"essions":10902,"XX":10903," degrees":10904," winner":10905,"デオ":10906,"じゃん":10907," は":10908,"静かに":10909,"登場する":10910,"何で":10911," visited":10912,"ati":10913,"bi":10914,"がわ":10915,"回り":10916,"boy":10917,"トレ":10918," crisis":10919,"delta":10920,"るのは":10921,"erves":10922," scored":10923,"etime":10924,"asting":10925,"レンジ":10926," Word":10927,"ロイ":10928,".\\":10929,"歳の":10930,"素材":10931," emoji":10932,"大学の":10933,"色々":10934," precise":10935,"出た":10936,"bra":10937,"esp":10938,"celer":10939," consists":10940," significantly":10941," hasn":10942,"興奮":10943," discussed":10944,"mega":10945," enable":10946," Exper":10947," poison":10948,"の前に":10949,"ってこと":10950,"ervice":10951,"ちゃった":10952," comprehens":10953," Ap":10954," tag":10955,"range":10956," conducted":10957," authors":10958,"ints":10959,"Class":10960,"すごく":10961,"Have":10962," lux":10963,"apped":10964," acid":10965,"don":10966,"種族":10967,"first":10968,"とその":10969," exception":10970," deck":10971," Custom":10972,"現在は":10973," Adam":10974,"dev":10975,"してみ":10976," 小":10977,"つけた":10978,"オス":10979,"高く":10980," talent":10981,"自治":10982," wanting":10983,"呼吸":10984," basically":10985,"得意":10986," reject":10987," Ah":10988,"はまだ":10989," structures":10990,"流石に":10991,"oen":10992,"lers":10993," recover":10994,"adows":10995,"なのは":10996," enthus":10997," falls":10998," papers":10999," bonus":11000,"それとも":11001," Bal":11002," spells":11003,"power":11004,"パス":11005,"コーナー":11006,"uine":11007," emotional":11008," Circ":11009," fantastic":11010,"ワーク":11011,"スタッフ":11012,"けどね":11013,"脚本":11014," faced":11015,"くらいの":11016,"edge":11017," zero":11018,"入れた":11019," Organ":11020," participate":11021,"息子":11022," Senate":11023,"抱きし":11024,"の顔":11025,"希望":11026,"nce":11027," engineering":11028," arc":11029,"シャン":11030,"アが":11031,"erring":11032," Lu":11033," Therefore":11034,"napped":11035," Dream":11036,"首を傾":11037," Navy":11038," prepar":11039," mountains":11040,"を倒":11041,"を果た":11042," Live":11043," Die":11044,"唇を":11045," Administr":11046," Cook":11047,"どうしよう":11048," Hope":11049," purs":11050,"先程":11051," Prote":11052," extract":11053,"jection":11054,"に触":11055," birds":11056,"Star":11057," Stone":11058,"上がり":11059,"han":11060," contest":11061,"殺す":11062," coat":11063," supplies":11064," ultimately":11065,"らん":11066,"行政":11067,"alo":11068,"魔獣":11069,"UE":11070," philosoph":11071," Aff":11072,"ゴール":11073,"を超":11074," Bi":11075," Police":11076," external":11077," Mother":11078,"授業":11079,"上手く":11080," Histor":11081," spark":11082,"けている":11083,"階段":11084," riv":11085,"隊長":11086,"―――":11087," Fox":11088,"やっと":11089," Ohio":11090," lip":11091,"らっしゃ":11092,"攻撃を":11093," Field":11094," Ky":11095,"Mus":11096,"utter":11097,"asted":11098,"）：":11099,"空港":11100," mood":11101," Iraq":11102," deeply":11103,"*}":11104,"を見ると":11105," nuclear":11106,"答える":11107," Bad":11108," recon":11109,"っていたが":11110,"医療":11111,"Spe":11112," hill":11113," None":11114," gathered":11115,"igen":11116," Greek":11117," Technology":11118,"fa":11119,"演奏":11120," Pacific":11121,"たん":11122,"会話":11123," assigned":11124,"事の":11125,"tau":11126," Name":11127,"ylvan":11128,"iginal":11129,"朝鮮":11130,"comfort":11131,"しも":11132,"oker":11133," Ron":11134," Cle":11135," chap":11136," NY":11137,"わせる":11138,"げん":11139,"言語":11140,"アタ":11141,"Tube":11142," primarily":11143,"はいない":11144,"何とか":11145,"enth":11146," ease":11147,"iability":11148," struggle":11149,"遊び":11150," zone":11151,"チー":11152,"飛んで":11153,"けると":11154,"kg":11155,"めの":11156,"ワード":11157," bunch":11158,"するため":11159,"ellect":11160," Williams":11161,"father":11162,"igible":11163," organized":11164,"合った":11165,"PG":11166," retire":11167,"estyle":11168,"adel":11169," seasons":11170," patterns":11171,"述べ":11172," continuing":11173," sleeping":11174,"イング":11175,"aret":11176," Northern":11177," overwhel":11178," Nob":11179,"言っている":11180,"セス":11181,"行って":11182,"La":11183,"定の":11184," Lin":11185," lands":11186,"げで":11187," quietly":11188," covering":11189," wore":11190," Professor":11191,"Ag":11192,"arring":11193," Food":11194," incredible":11195,"しくは":11196,"今日の":11197,"見えた":11198," squad":11199," conce":11200," guarantee":11201," dish":11202,"center":11203," gang":11204," drinking":11205,"宣言":11206,"ていなかった":11207,"系の":11208,"息をつ":11209,"BL":11210,"に改":11211,"立った":11212," advoc":11213,"Special":11214,"♡」":11215," audio":11216," AD":11217," union":11218,"ほん":11219,"ごめんなさい":11220,"機械":11221,"ロッパ":11222," everywhere":11223,"位の":11224," yards":11225," folks":11226," healing":11227," mal":11228,"悲鳴":11229," deploy":11230,"earance":11231,"領主":11232," reply":11233," surf":11234,"ムー":11235,"rous":11236," bike":11237,"アジア":11238,"active":11239,"レッド":11240," narr":11241,"df":11242," newly":11243,"じゃなくて":11244,"athy":11245,".}":11246,"解放":11247,"rt":11248," formal":11249," grin":11250,"あたり":11251," Civil":11252,"を持っている":11253,"セー":11254," commonly":11255," entertainment":11256," Rod":11257," cooper":11258,"___":11259,"主張":11260,"さんを":11261," copyright":11262,"ilipp":11263," admitted":11264,"AF":11265,"Ep":11266," recipe":11267,"が無い":11268,"スキー":11269,"orders":11270,"icking":11271,"Big":11272,"生物":11273," Brother":11274," Tok":11275," embr":11276,"uto":11277,"adium":11278,"新たな":11279," strict":11280," featuring":11281," museum":11282," temple":11283," fasc":11284," Conference":11285," bab":11286," recovery":11287," regularly":11288,"oshi":11289,"ヨーロッパ":11290,"aylor":11291," Daniel":11292," flower":11293,"esides":11294,"お前が":11295,"aos":11296," Ball":11297," Blood":11298,"iat":11299,"経歴":11300,"ガイ":11301," institutions":11302,"acking":11303,"様を":11304,"theta":11305,"するために":11306," regions":11307,"ートの":11308," relative":11309,"bsite":11310,"ごう":11311,"エリア":11312,"第三":11313,"ダメージ":11314," avo":11315,"ようになる":11316,"連邦":11317,"トラン":11318,"include":11319," parking":11320,"美味しい":11321,"侯爵":11322," provider":11323,"言葉が":11324," wing":11325,"itled":11326,"perty":11327,"oz":11328,"Many":11329," declared":11330," hardly":11331," ocean":11332," Francisco":11333,"図書館":11334," knees":11335,"左右":11336,"のう":11337," database":11338," suffering":11339,"ナイト":11340,"「……」":11341,"夜の":11342,"ón":11343," blocks":11344," tied":11345," differences":11346,"rugged":11347,"共和国":11348,"締め":11349," races":11350,"ゆっくり":11351," tables":11352,"先ほど":11353,"itutional":11354,"笑って":11355,"ご主人":11356," Base":11357," Budd":11358,"付近":11359,"Person":11360," personality":11361,"んでも":11362,"組合":11363,"村の":11364,"ドロ":11365," newspaper":11366," cow":11367,"年没":11368,"izabeth":11369," Stan":11370,"少なくとも":11371," mand":11372,"ッキー":11373,"発動":11374,"sell":11375," Tony":11376," feedback":11377," grade":11378,"元気":11379,"帰り":11380,"に至":11381," interrupt":11382,"方がいい":11383,"正式":11384," Microsoft":11385,"param":11386,"ante":11387," appeal":11388,"Phone":11389,"%%%%%%%%%%%%%%%%":11390," pale":11391," cave":11392," unex":11393," western":11394,"ああああ":11395," gray":11396,"じん":11397,"表情で":11398,"yard":11399," inqu":11400," superior":11401," matches":11402,"扱い":11403,"hips":11404,"限界":11405," scholar":11406," authorities":11407," pul":11408,"彼に":11409," resolution":11410," extensive":11411,"alty":11412," immediate":11413,"連載":11414,"なかなか":11415,"only":11416,"ショー":11417,"せっ":11418," swing":11419," scenes":11420,"utor":11421,"iler":11422," exists":11423," Swed":11424," updates":11425,"遠く":11426,"ればいい":11427,"更新":11428," Rog":11429,"itage":11430," Heart":11431,"を生":11432," toss":11433," Kong":11434,"ユウ":11435,"ていい":11436," Irish":11437," Sat":11438,"String":11439,"Ac":11440,"isms":11441," bone":11442," gal":11443," nurs":11444,"ierce":11445," Andrew":11446," Britain":11447," engaged":11448,"リート":11449," confront":11450," warrant":11451,"フロ":11452,"だからこそ":11453," Aud":11454," Friend":11455," intense":11456,"なのだろう":11457,"死んだ":11458," wrapped":11459," regional":11460," touched":11461,"}[":11462,"話しか":11463,"情報を":11464,"thm":11465,"DR":11466,"ティング":11467," chart":11468," innoc":11469," Coll":11470,"アナウン":11471," amend":11472,"拠点":11473,"Form":11474,"回避":11475,"mble":11476,"導入":11477," accord":11478,"ふと":11479," surgery":11480," guns":11481,"wind":11482,"用い":11483," Michigan":11484," abuse":11485,"Sl":11486,"ifle":11487," Energy":11488,"oding":11489,"プロデューサー":11490,"金属":11491,"lisher":11492,"魔術師":11493," transition":11494,"歩く":11495,"デー":11496," symptoms":11497,"やめ":11498,"借り":11499," singer":11500,"istance":11501,"答えた":11502," Sometimes":11503," shots":11504,"aru":11505,"acked":11506,"つけて":11507,"クライ":11508,"系統":11509,"を確認":11510," situations":11511," Spring":11512," Pen":11513," crossed":11514," Brazil":11515,"iah":11516,"初代":11517,"を目指":11518," interior":11519," battery":11520," lake":11521," controlled":11522," alcohol":11523," definition":11524," Main":11525,"演出":11526," injured":11527,"部門":11528," renew":11529," Mach":11530," Silver":11531," Lab":11532," interface":11533,"主演":11534,"antry":11535," procedure":11536,"趣味":11537,"///":11538," stab":11539," cos":11540,"を行った":11541,"そこは":11542,"最初に":11543,"otion":11544," Which":11545,"学科":11546," dismiss":11547,"コンピ":11548," Through":11549," fifth":11550," explains":11551,"ノン":11552," anticip":11553,"れの":11554,"?!":11555," plug":11556," Ra":11557,"merce":11558,"を作る":11559," suffered":11560," rein":11561," Ts":11562,"実際に":11563," Coast":11564,"$$":11565,"見え":11566," compens":11567,"山の":11568,"」、":11569," Disney":11570,"風の":11571,"リーダー":11572," widely":11573," Kent":11574,"unes":11575," technologies":11576,"leq":11577,"家は":11578," Soviet":11579,"anche":11580,"Data":11581,"イク":11582," Song":11583," ingredients":11584," Supreme":11585,"Mag":11586,"fare":11587,"III":11588," swall":11589,"ando":11590,"ds":11591,"金の":11592,"多少":11593," increases":11594," checked":11595,"ニュース":11596," pace":11597," Ty":11598,"由来":11599," tort":11600," Line":11601," mini":11602," cute":11603,"まち":11604,"町の":11605,"organ":11606,"andy":11607,"相手を":11608," professor":11609,"能力を":11610," highlight":11611,"iffe":11612,"proof":11613,"博士":11614,"を除":11615,"eness":11616," Matt":11617," orange":11618,"刺激":11619,"統合":11620,"国立":11621,"Right":11622,"erest":11623," thorough":11624," passage":11625," represents":11626," gods":11627,"cor":11628,"space":11629," emotions":11630,"lines":11631," bother":11632," sigh":11633,"彼女に":11634,"Gr":11635,"えられる":11636," rig":11637," FA":11638," Look":11639,"arrass":11640," thirty":11641,"ことなく":11642," Further":11643,"んだな":11644,"選ば":11645,"Okay":11646,"ifies":11647,"やろう":11648,"ませんでした":11649,"Maybe":11650,"を獲得":11651," strategies":11652,"心臓":11653,"自ら":11654," hook":11655,"の本":11656,"相変わらず":11657,"なんです":11658,"Read":11659," Spain":11660," Nick":11661,"ールが":11662," Adv":11663," exceed":11664," employee":11665," adopted":11666," Major":11667,"ゼン":11668,"ylvania":11669," Medical":11670,"achi":11671," machines":11672,"に入って":11673,"会う":11674,"気味":11675," root":11676,"spec":11677," />":11678," desert":11679,"市民":11680,"ますよ":11681," Room":11682," eggs":11683," phr":11684,"Christ":11685," literally":11686,"ailed":11687,"riors":11688,"amps":11689," reputation":11690,"っぷ":11691," albums":11692," Brand":11693,"CO":11694,"名称":11695,"復活":11696,"を経て":11697," Kar":11698," Conf":11699,"agues":11700," largely":11701,"sq":11702,"。（":11703," component":11704,"お茶":11705," committee":11706,"意思":11707,"言えない":11708," surrounded":11709,"pers":11710," kingdom":11711," manip":11712,"orce":11713,"これ以上":11714,"ultural":11715,"えっと":11716," suggests":11717,"水を":11718,"ブルー":11719," spaces":11720,"次は":11721," sought":11722," genuine":11723," bowl":11724,"ships":11725," Saint":11726,"立場":11727," exposed":11728,"つぶ":11729," hoped":11730,"彼らの":11731,"伝説":11732,"remony":11733,"omething":11734," invited":11735,"一気に":11736,"エネル":11737,"日には":11738," greet":11739,"に任":11740,"へと向":11741," sequence":11742,"性を":11743," closing":11744," estimated":11745," Cro":11746,"DVD":11747,"旦那":11748,"asm":11749,"orph":11750,"anwhile":11751,"including":11752," Hor":11753," shares":11754," Republican":11755,"xi":11756," victims":11757," brill":11758," summon":11759,"に向けて":11760,"俳優":11761,"愛知":11762," array":11763," isol":11764,"知った":11765," necessarily":11766," dying":11767,"してもら":11768,"所で":11769," entering":11770,"uer":11771,"vity":11772,"場所に":11773," athlet":11774," Film":11775,"ものだった":11776," grace":11777," Control":11778,"変わらない":11779," buck":11780," Win":11781,"式の":11782," deeper":11783,"ATE":11784," SU":11785,"途中":11786," pushing":11787,"netic":11788,"ilty":11789," Section":11790,"ジル":11791," proved":11792,"count":11793,"隊の":11794,"elle":11795,"ふむ":11796," legend":11797,"ニヤ":11798,"ILL":11799,"恐らく":11800,"SD":11801,"たった":11802,"hist":11803," Lic":11804,"道の":11805," encounter":11806,"消え":11807,"ゲン":11808," horiz":11809," pride":11810," staying":11811,"Play":11812,"inked":11813," worldwide":11814,"大戦":11815," Plus":11816," Indust":11817,"quad":11818,"者も":11819,"吸い":11820,"ローズ":11821,"友達":11822," sounded":11823," basketball":11824,"ilst":11825," heal":11826,"生の":11827,"端に":11828,"oga":11829,"っす":11830," waves":11831," atmosphere":11832,"ateful":11833,"口調":11834," Story":11835," vibr":11836," impressive":11837,"epend":11838," candidates":11839,"いても":11840,"ixture":11841,"comes":11842,"頷く":11843,"azed":11844," beast":11845,"Red":11846," linked":11847,"クー":11848,"テスト":11849,"erning":11850,"intend":11851," adopt":11852,"所の":11853," CEO":11854,"core":11855," Bible":11856,"イタリア":11857,"彼女を":11858," Code":11859," nervous":11860,"tion":11861," domestic":11862,"疲れ":11863,"people":11864,"民主":11865,"真っ赤":11866," drama":11867," dear":11868,"光の":11869,"わった":11870,"すべき":11871," Keep":11872,"uction":11873,"nie":11874," Ven":11875,"頭の":11876,"混乱":11877,"SM":11878,"エロ":11879," Key":11880," Nic":11881," horn":11882,"oup":11883,"変わった":11884," approached":11885," literature":11886,"rated":11887,"graph":11888,"によると":11889," yield":11890," Cost":11891,"いつの間に":11892,"ビン":11893," rarely":11894,"}$,":11895," pilot":11896,"苦し":11897," CON":11898,"rot":11899,"恥ずかしい":11900," attempted":11901,"こく":11902," Jersey":11903,"どころか":11904," Edward":11905,"iors":11906,"それな":11907," phen":11908," Bru":11909," curious":11910,"を流":11911,"りながら":11912," horses":11913,"iac":11914,"もう一度":11915," enforce":11916,"block":11917,"bury":11918,"Je":11919,"購入":11920,"eria":11921,"game":11922," Hotel":11923,"人形":11924,"は無":11925," Run":11926," sentence":11927,"isdom":11928,"笑みを浮かべ":11929,"を描":11930," myster":11931," titles":11932,"asters":11933,"ヨーク":11934," exclusive":11935," dressed":11936," Such":11937,"ologist":11938,"アメリカ合衆国":11939,"ホテル":11940," deals":11941,"平和":11942," Equ":11943,"攻略":11944,"開業":11945,"叫び":11946,"sen":11947,"英雄":11948,"実験":11949," Ext":11950," https":11951,"ふわ":11952," EX":11953," Cry":11954," void":11955,"ていると":11956,"にし":11957,"るの":11958,"inois":11959,"そうで":11960," Next":11961," Inf":11962," DVD":11963,"ographic":11964," Sus":11965," performing":11966,"が生":11967,"きながら":11968,"front":11969,"ヘン":11970,"鈴木":11971,"スペシャル":11972," Holly":11973,"随分":11974,"世界の":11975,"ヶ月":11976," Centre":11977," believes":11978," Awards":11979,"フィル":11980,"たか":11981,"Come":11982,"らなかった":11983," lift":11984," acquired":11985,"を下":11986," Han":11987,"icide":11988,"魔法を":11989,"状態で":11990," delicious":11991,"エネルギー":11992,"郵便":11993,"一人の":11994,"hemat":11995,"司令":11996," debate":11997," achieved":11998,"======":11999," Week":12000," intention":12001,"性の":12002," IP":12003,"そこから":12004,"引退":12005," Op":12006," saving":12007,"それなら":12008," Dean":12009,"こん":12010,"arity":12011,"スイ":12012," shrugged":12013," dragons":12014,"町村":12015," taxes":12016,"助けて":12017,"デジ":12018," uncle":12019," episodes":12020,"Take":12021,"解説":12022,"恐ろ":12023,"詳細":12024,"どうぞ":12025,"かもしれ":12026," shower":12027,"印象":12028,"様と":12029," cake":12030,"iversary":12031,"uris":12032," Ye":12033,"ごく":12034," scheme":12035," ---":12036,"回転":12037," aggress":12038,"統領":12039,"田中":12040,"uality":12041," reveal":12042,"ecutive":12043,"Br":12044,"iped":12045," driven":12046," dozen":12047," exit":12048,"制御":12049," uncertain":12050,"anth":12051,"grad":12052,"ifier":12053,"に就任":12054," reliable":12055," rapidly":12056,"ureau":12057,"二十":12058," manif":12059,"住民":12060,"はあ":12061,"感想":12062,"まれて":12063," jew":12064,"回る":12065,"ichi":12066," fired":12067,"新潟":12068,"TC":12069," Cond":12070,"ドン":12071,"残る":12072,"注釈":12073,"居た":12074,"例えば":12075," commitment":12076,"思って":12077," sevent":12078," consumer":12079," apolog":12080,"噛み":12081," permanent":12082,"rovers":12083," consistent":12084," marks":12085," promised":12086," soldier":12087,"Dav":12088," participants":12089," agencies":12090,"everal":12091,"endar":12092,"を終":12093,"「…………":12094,"ローマ":12095,"掛ける":12096,"天皇":12097,"anes":12098,"に向かう":12099,"onto":12100," clock":12101,"オリジナル":12102," vert":12103,"々が":12104," Pub":12105," wise":12106,"キリ":12107,"ときに":12108,"光が":12109,"UD":12110," dump":12111," Does":12112,"struct":12113,"調べ":12114," sweat":12115,"サンド":12116,"uj":12117,"維持":12118,"っていると":12119,"だめ":12120,"手段":12121," routine":12122,"|\\":12123," rice":12124," operate":12125," 中":12126,"冷静":12127,"ビデオ":12128,"ACK":12129,"being":12130,"acles":12131," Rest":12132," Asian":12133,"has":12134," belt":12135," Sab":12136," Forest":12137,"NS":12138," arrival":12139," breast":12140," Eastern":12141," breathing":12142,"ials":12143," formation":12144," judgment":12145," Pak":12146," fra":12147,"部屋の":12148,"エンジン":12149,"wen":12150,"ちょうど":12151," limits":12152,"ぼく":12153,"二度":12154,"オール":12155," consumers":12156," coordin":12157,"広い":12158," millions":12159,"らと":12160,"sha":12161,"berry":12162,"Next":12163," q":12164," roles":12165,"面白":12166," inches":12167," campus":12168,"omega":12169," profit":12170," mirror":12171," reader":12172,"ilton":12173," priest":12174,"業務":12175," decade":12176," null":12177,"atell":12178,"国内":12179,"iley":12180,"代の":12181,"てん":12182,"なって":12183,"それでは":12184,"high":12185,"　　　　":12186," tradition":12187,"何かを":12188,"そう言うと":12189," approval":12190," constit":12191," hunting":12192,"必要な":12193,"さあ":12194,"寄り":12195,"omed":12196,"が大":12197,"自らの":12198,"ットの":12199,"が多い":12200," assumed":12201,"信頼":12202,"恋愛":12203," therapy":12204," greatly":12205,"RI":12206,"ogen":12207," jumped":12208," opinions":12209," furniture":12210," moder":12211,"ソード":12212,"itched":12213,"馴染":12214,"cha":12215," Georgia":12216," Lind":12217,"になります":12218," instantly":12219,"rary":12220," essay":12221,"Super":12222,"々しい":12223," evolution":12224,"orters":12225," competitive":12226,"rency":12227," lets":12228," joining":12229," personnel":12230,"佐藤":12231," pitch":12232," foundation":12233," seats":12234," squee":12235,"ungeon":12236," Jr":12237," displayed":12238,"フェル":12239,"ということは":12240," scheduled":12241," advis":12242," tasks":12243," discl":12244,"Comp":12245," Tam":12246," naturally":12247," engage":12248,"表記":12249,"誰か":12250," producer":12251," hiding":12252,"ヒト":12253," sections":12254,"妖精":12255," Gener":12256," vulner":12257," Santa":12258,"国に":12259," damn":12260,"掲載":12261," virtual":12262,"rat":12263,"していて":12264," tunnel":12265,"eks":12266," embarrass":12267,"取って":12268," Kam":12269,"axy":12270,"時間は":12271,"デス":12272,"cling":12273,"何処":12274," Ba":12275,"sylvania":12276," shouted":12277,"雑誌":12278," Golden":12279," destruction":12280,"あとは":12281," municip":12282,"acher":12283,"タイミング":12284,"売り":12285," decent":12286,"inth":12287,"arg":12288,"rection":12289," Sav":12290,"いただ":12291,"partial":12292,"フォル":12293,"issue":12294,"ighters":12295," ages":12296,"だけでなく":12297,"えー":12298,"しつつ":12299," purple":12300,"walk":12301,"リーの":12302,"面白い":12303,"神奈":12304,"成立":12305," languages":12306,"フィア":12307,"おは":12308,"ましい":12309," severe":12310,"を含む":12311,"made":12312,"聞こえた":12313," Nothing":12314," equivalent":12315,"Inter":12316,"have":12317," Uk":12318,"未だ":12319," democr":12320," stir":12321," trave":12322,"ゆき":12323,"ゲスト":12324,"心に":12325," scan":12326,"本部":12327," tack":12328," Econom":12329," Guide":12330,"勝負":12331,"切った":12332,"orne":12333,"pir":12334,"ulpt":12335," thrown":12336,"（）":12337," hopes":12338," expansion":12339,"cs":12340,"ANT":12341,"山口":12342," Watch":12343,"md":12344,"しないで":12345,"もあった":12346," Mountain":12347,"omic":12348,"デュ":12349,"ether":12350," infrast":12351," Brook":12352," Ult":12353," employment":12354,"に進":12355,"ステータ":12356," baseball":12357," counsel":12358,"Med":12359," Castle":12360," hug":12361," Fund":12362," Blog":12363," Ryan":12364," generated":12365,"OVID":12366,"olves":12367," ceiling":12368,"リティ":12369," comparison":12370,"しゅう":12371," landed":12372," dates":12373,"異常":12374,"種の":12375,"/*":12376,"ひど":12377,"Great":12378,"対戦":12379,"usal":12380," alt":12381,"こな":12382,"ドレス":12383,"輸送":12384,"アイドル":12385,"olec":12386," Band":12387,"ケイ":12388,"ection":12389,"代目":12390," handed":12391,"source":12392,"エス":12393,"されない":12394," convenient":12395,"................":12396,"閉じ":12397,"神戸":12398," carbon":12399,"作家":12400," Finally":12401," urban":12402,"lights":12403," Hospital":12404,"と言い":12405,"gage":12406,"コンピュー":12407," wand":12408,"セレ":12409,"連中":12410,"('":12411,"されていない":12412,"笑顔で":12413,"rc":12414," unw":12415,"電車":12416,"気になる":12417," Quest":12418," cried":12419,"止めて":12420,"ねば":12421,"ウォー":12422,"くい":12423,"性が":12424," Event":12425," Leon":12426,"ミン":12427,"やや":12428,"SL":12429,"自分に":12430," fishing":12431,"付く":12432," gap":12433,"``":12434," assistant":12435,"物理":12436,"に来た":12437," chicken":12438,"itated":12439,"エミ":12440," raw":12441,"まつ":12442,"uu":12443," buried":12444,"Jo":12445,"ervative":12446,"であると":12447,"うーん":12448,"冗談":12449,"対策":12450," indicate":12451,"珍しい":12452," soil":12453,"abet":12454,"逃げる":12455,"隣の":12456,"master":12457," architecture":12458,"きり":12459," Prem":12460,"utenant":12461,".</":12462,"なんだけど":12463,"OB":12464,"ようとした":12465,"がお":12466," Fall":12467," pretend":12468,"ギル":12469,"Vol":12470," Tele":12471,"木の":12472," destination":12473,"することを":12474,"ブン":12475,"WE":12476," cruc":12477,"起きた":12478," yeah":12479,"陸軍":12480,"外の":12481,"kind":12482,"それにしても":12483," ->":12484," puts":12485,"メディア":12486," Dead":12487," Inn":12488,"団体":12489," chocolate":12490,"段階":12491," revenue":12492," Mah":12493," retired":12494," incredibly":12495,"check":12496," divided":12497,"oop":12498," regulations":12499," displ":12500," platforms":12501,"えられ":12502," filed":12503,"your":12504,"元々":12505," discip":12506,"annels":12507," riding":12508," Come":12509," tested":12510," preferred":12511,"xx":12512,"息を吐":12513,"さり":12514,"quarters":12515," inhab":12516,"声は":12517," spoken":12518," Marc":12519,"Car":12520," Parl":12521," depends":12522," injuries":12523,"icity":12524," banks":12525," chamber":12526,"死亡":12527,"を用":12528,"チュー":12529,"aders":12530," Whether":12531,"パル":12532," •":12533," mob":12534,"襲撃":12535,"ocated":12536,"ドキ":12537,"Mark":12538,"thew":12539,"だぞ":12540,"言ってる":12541," horror":12542,"ruption":12543,"楽しみ":12544,"かどうか":12545,"められ":12546,"聖女":12547," Hay":12548," Arthur":12549,"がいた":12550,"Jan":12551,"しています":12552,"激しく":12553,"言葉は":12554," networks":12555,"切る":12556," suffer":12557," singing":12558,"忘れ":12559," Latin":12560," puzz":12561," casual":12562,"を担当":12563,"くれている":12564," wound":12565," Invest":12566,"これらの":12567,"icket":12568,"ルイ":12569,"書店":12570,"くなって":12571,"配置":12572,"体育":12573," regardless":12574,"ブック":12575," stable":12576," Radio":12577," Os":12578,"リアン":12579,"FM":12580,"おじ":12581,"込まれた":12582," ceremony":12583,"rend":12584," contemporary":12585," Full":12586," Area":12587,"知ってる":12588,"mother":12589," Football":12590,"長く":12591,"然と":12592,"長が":12593,"付き合":12594,"GE":12595,"度に":12596,"魔石":12597,"infty":12598,"Ser":12599," DC":12600,"スタジオ":12601,"Welcome":12602,"Delta":12603,"発展":12604," alert":12605," supports":12606," attitude":12607,"ptions":12608," enjoying":12609,"書房":12610,"すっかり":12611," accompan":12612,"敵の":12613,"の中の":12614," Very":12615,"日本テレビ":12616," Creat":12617,"がっている":12618,"base":12619,"らせた":12620,"やってきた":12621,"犯罪":12622,"rying":12623," seed":12624,"リアム":12625,"されると":12626,"り着":12627," smiling":12628," Eric":12629,"都合":12630," Knight":12631," armed":12632," sheet":12633," emotion":12634,"らせて":12635," Ten":12636,"ping":12637,"^*":12638,"etch":12639,"\\,":12640,"やれ":12641,"の言葉に":12642," Tak":12643,"苦労":12644," Click":12645," Children":12646,"全員が":12647," Iron":12648," buff":12649," childhood":12650,"よりは":12651," Later":12652,"%.":12653,"aver":12654," Ut":12655," mile":12656,"走る":12657,"iary":12658," bones":12659,"agan":12660,"盛り":12661,"inton":12662," grip":12663," satisfact":12664,"警備":12665,"しているが":12666,"リアル":12667,"を奪":12668,"名乗":12669," assets":12670," comprehensive":12671,"色々と":12672," ordinary":12673,"Sk":12674," muscle":12675," Common":12676,"公式サイト":12677," equipped":12678,"わん":12679,"ミュージック":12680,"actions":12681," abandoned":12682," filter":12683," Sports":12684,"ッセ":12685,"fish":12686,"真面":12687," submit":12688," opposed":12689," opens":12690," principles":12691," Korea":12692," waters":12693,"色が":12694,"変わり":12695,"となって":12696,"irms":12697," fiction":12698," concerning":12699,"パーティ":12700," grey":12701," convin":12702,"ズム":12703,"障害":12704,"タク":12705,"交換":12706,"われていた":12707," difficulty":12708,"次に":12709,"inson":12710,"Use":12711,"Top":12712," illness":12713,"inos":12714," clinical":12715,"地上":12716,"応援":12717,"がな":12718,"ぜん":12719,"lings":12720,"もまた":12721,"無し":12722,"rep":12723,"たくさん":12724," Rh":12725," Est":12726," Jane":12727," drivers":12728,"amental":12729,"確保":12730,"ded":12731,"RS":12732,"ボス":12733," desired":12734,"missions":12735," responded":12736,"殺し":12737," pm":12738," forgotten":12739," festival":12740,"不満":12741,"んですよ":12742,"余計":12743,"などで":12744,"ッコ":12745," casino":12746,"リの":12747,"NT":12748," meetings":12749,"気は":12750,"pled":12751," qualified":12752,"ホー":12753," solve":12754," coal":12755," tie":12756,"静岡":12757,"olds":12758,"県出身の人物":12759," burned":12760,"そちら":12761,"integr":12762," synt":12763," Without":12764," Bern":12765," satisfied":12766,"weet":12767,"mates":12768," width":12769,"に関しては":12770,"Mem":12771," bub":12772,"死去":12773," lap":12774,"弱い":12775,"Best":12776,"わざわざ":12777," programming":12778," figured":12779," intellect":12780," Tro":12781," conclusion":12782,"olis":12783," statements":12784," attorney":12785,"mathbf":12786,"ammed":12787,"神奈川":12788,"rug":12789," strongly":12790," functional":12791," Bul":12792," explanation":12793,"』、":12794,"形成":12795,"こない":12796," Low":12797," adj":12798,"Location":12799,"ラグ":12800,"oval":12801," monthly":12802,"休み":12803," awards":12804," Trust":12805," rating":12806,"リーは":12807,"Cons":12808," alien":12809," presents":12810," actress":12811,"まらない":12812,"通りに":12813,"ordan":12814," solar":12815," Advent":12816,"ってもら":12817,"埼玉":12818,"ipt":12819," Ent":12820,"交渉":12821,"生命":12822," glance":12823," unusual":12824,"キシ":12825,"そっち":12826," throwing":12827,"レオン":12828," damaged":12829,"Sw":12830,"ブラック":12831," cir":12832,"心地":12833,"スペイン":12834," adds":12835," lect":12836,"解決":12837," solo":12838,"mir":12839," efficiency":12840,"圧倒":12841,"Today":12842,"単純":12843," rescue":12844," association":12845," talks":12846,"ハルト":12847,"必要がある":12848,"seless":12849," relation":12850,"迷惑":12851,"ificate":12852,"*''":12853," treasure":12854," Pop":12855,"エア":12856,"運用":12857,"うむ":12858," Jean":12859," avail":12860," stim":12861,"}(\\":12862," Harr":12863,"を渡":12864,"oenix":12865,"にかけて":12866,"ロンド":12867," Rome":12868," auto":12869,"所有":12870,"ext":12871,"を押":12872," worn":12873," gifts":12874,"irts":12875,"LD":12876,"IO":12877,"正確":12878,"ニュ":12879,"クソ":12880,"ナイフ":12881,"彼を":12882," Illinois":12883,"orable":12884,"会い":12885," Jason":12886,"web":12887,"igate":12888,"sex":12889,"Black":12890,"making":12891," installation":12892," airport":12893," Ast":12894," gre":12895," Cur":12896," racing":12897,"ederation":12898," Expl":12899," Would":12900," shell":12901," revolution":12902,"だけでも":12903," infrastructure":12904," Gab":12905,"達成":12906,"aro":12907," traveling":12908,"だからな":12909," eyeb":12910," Mario":12911,"次郎":12912,"Care":12913," officially":12914,"HL":12915,"when":12916," protein":12917," extension":12918," cultiv":12919," algorith":12920," semi":12921," illegal":12922,"BD":12923," tickets":12924,"姉妹":12925,"父の":12926," scared":12927,"に分":12928," foods":12929,"ニス":12930," landing":12931,"制限":12932,"関西":12933,"真剣":12934,"inch":12935,"omer":12936," punch":12937,"幼い":12938,"いると":12939,"旅行":12940," myth":12941,"最低":12942," eager":12943,"モード":12944,"はじめ":12945,"あなたの":12946,"されたが":12947," Site":12948,"なきゃ":12949,"rives":12950," agric":12951,"GM":12952," awareness":12953," publication":12954,"長野":12955,"ルート":12956,"王国の":12957,"tilde":12958," Ur":12959," bass":12960,"ソング":12961,"のと":12962,"たぶん":12963,"待つ":12964," subjects":12965,"交差":12966,"指摘":12967,"ドゥ":12968,"最強":12969,"ジェクト":12970,"REE":12971,"消費":12972," controls":12973," consideration":12974,"これまで":12975," procedures":12976,"可能な":12977,"わから":12978,"山田":12979," providers":12980," manufacturing":12981," Pack":12982,"rett":12983,"製品":12984,"ospit":12985,"hard":12986,"青年":12987," Dog":12988,"mann":12989," crown":12990," briefly":12991," disappeared":12992," distributed":12993,"Ret":12994,"変わる":12995," Mill":12996,"あなたは":12997,"王妃":12998," alleged":12999,"Title":13000," Market":13001,"に近い":13002,"楽しい":13003,"Size":13004,"owntown":13005," nations":13006," Gro":13007,"IX":13008," distingu":13009,"ナス":13010,"女王":13011," everybody":13012,"派遣":13013,"!?」":13014,"ばかりに":13015,"見せ":13016," IV":13017,"max":13018," pants":13019," vit":13020," meets":13021,"ウェー":13022,"に変更":13023," raising":13024,"arest":13025," Unfortunately":13026,"に伴い":13027,"定期":13028,"を持った":13029,"家庭":13030,"イレ":13031," Emperor":13032," Gil":13033," о":13034,"に転":13035,"を残":13036,"achus":13037,"season":13038," Corporation":13039," Hu":13040,"than":13041,"lections":13042,"cup":13043,"gra":13044,"Tom":13045,"神殿":13046," Democratic":13047," dies":13048," Pennsylvania":13049,"オープン":13050,"きっ":13051," surely":13052," amounts":13053," unexpected":13054," elder":13055," championship":13056,"止めた":13057,"送り":13058,"勿論":13059,"スタイ":13060,"富士":13061,"oir":13062,"重要な":13063," involving":13064,"を思い":13065,"何故か":13066,"ールズ":13067,"わたくし":13068,"ほどに":13069,"��":13070,"Hello":13071," Box":13072," bite":13073," Ce":13074,"かず":13075,"嫌な":13076,"どうせ":13077," ticket":13078,"形の":13079," expertise":13080,"がん":13081," waist":13082,"停止":13083," replacement":13084," presentation":13085,"てもら":13086," brands":13087," nobody":13088,"abbr":13089," applicable":13090,"今度":13091,"about":13092," rocks":13093," gay":13094," flew":13095," secondary":13096,"LS":13097,"もしかしたら":13098,"heim":13099," guilty":13100,"his":13101," composed":13102," rolling":13103,"聞こえる":13104,"必死に":13105," cous":13106,"工場":13107,"プレー":13108,"may":13109,"……）":13110,"日が":13111,"burgh":13112,"open":13113," 新":13114," movements":13115," generate":13116," Philipp":13117," upset":13118," Soft":13119," trend":13120," occurs":13121," improvement":13122,"にこ":13123,"!'":13124,"umble":13125," occasionally":13126,"Cal":13127," operated":13128," everyday":13129,"kel":13130," WH":13131,"allel":13132," entitled":13133," arrested":13134,"oded":13135,"建物":13136," Ho":13137," Global":13138,"さっさと":13139,"iper":13140,"げに":13141,"コル":13142,"Key":13143," alarm":13144," boxes":13145," paused":13146,"事務所":13147,"ニューヨーク":13148,"友人":13149,"加減":13150," recall":13151,"続けて":13152," reven":13153," shaking":13154,"アウト":13155,"elligence":13156," complicated":13157," indicated":13158,"SF":13159," tub":13160," circuit":13161,"ガス":13162,"められる":13163,"imental":13164,"ova":13165," slee":13166," peak":13167,"aska":13168,"otton":13169,"大統領":13170," Bush":13171,"めると":13172,"島の":13173," studying":13174,"気付いた":13175,"うちの":13176,"入った":13177,"ばかりの":13178," researchers":13179," cheese":13180," increasingly":13181," angle":13182,"知れない":13183," prohib":13184," Had":13185," convent":13186," Support":13187," Parliament":13188," equally":13189," cuts":13190," density":13191,"Tw":13192,"iar":13193," photograp":13194,"etts":13195,"%)":13196,"rayed":13197,"待て":13198," Elizabeth":13199,"mathbb":13200,"map":13201,"したのか":13202,"anches":13203,"Value":13204," controvers":13205," Using":13206,"ドー":13207,"uka":13208," Greg":13209,"メリ":13210," registration":13211,"役割":13212," acknowled":13213,"やめて":13214," Brad":13215," communications":13216,"製の":13217," vacation":13218," drove":13219,"感触":13220," appointment":13221,"imm":13222,"reated":13223," cable":13224," blame":13225,"避け":13226,"リアが":13227," apps":13228," medal":13229," Find":13230,"pace":13231,"返事を":13232," dirt":13233," graduate":13234,"るか":13235,"ようにして":13236,"cap":13237,"王女":13238," boots":13239,"aza":13240,"「・・・":13241," creates":13242,"しそうな":13243,"が増":13244,"じっと":13245," Taylor":13246,"ラブ":13247,"わなかった":13248,"God":13249," mac":13250,"ey":13251,"Fig":13252," rush":13253," Ros":13254,"prene":13255," shortly":13256,"名誉":13257,"礼を":13258," recognition":13259,"後から":13260,"Men":13261," craw":13262," posting":13263,"/\\":13264,"年まで":13265,"bled":13266," hitting":13267," landscape":13268," Sign":13269,"文句":13270,"Japan":13271,"きゅう":13272,"iga":13273," reporting":13274," scientists":13275," walks":13276,"General":13277,"東北":13278,"禁止":13279," Duke":13280,"cat":13281,"教員":13282,"身体が":13283,"プログラ":13284,"もっとも":13285,"ってくれた":13286," dining":13287,"agraph":13288,"ではありません":13289,"olen":13290," crash":13291," voices":13292,"opher":13293,"においては":13294,"もはや":13295," Olympics":13296," Report":13297," Start":13298,"を進":13299,"uns":13300,"tw":13301,"を守る":13302," expectations":13303,"めない":13304,"カタ":13305,"orous":13306,"EA":13307,"話題":13308," gender":13309,"サイズ":13310,"ustration":13311,"Hel":13312," celebrate":13313," lord":13314," assass":13315,"兵器":13316," sake":13317," risks":13318," upcoming":13319,"区の":13320," ignore":13321,"cut":13322,"自分は":13323,"外国":13324,"仕方が":13325," sensitive":13326," faculty":13327," lawyer":13328,"りとした":13329,"emed":13330,"Tra":13331,"\"/":13332," Lew":13333," screw":13334," accuracy":13335," duties":13336,"浴び":13337," checking":13338,"もあり":13339,"掛けた":13340,"形式":13341,"rine":13342,"えに":13343," submitted":13344," knee":13345,"遠慮":13346,"植物":13347,"世話":13348,"package":13349," comedy":13350,"но":13351,"を選":13352,"Wind":13353,"reprene":13354," sed":13355," stops":13356," Sarah":13357,"ked":13358,"ifice":13359,"Under":13360," bench":13361,"を作り":13362," lessons":13363,"とん":13364,"交わ":13365," directions":13366,"所在":13367,"コミュ":13368," bars":13369,"NN":13370,"拡大":13371,"ECT":13372," inspiration":13373,"かか":13374,"pert":13375,"のだと":13376," challenging":13377," Everyone":13378," Ford":13379," legislation":13380,"職員":13381,"mi":13382," Lie":13383,"けに":13384," Wilson":13385,"当初は":13386,"group":13387," Mult":13388,"Only":13389," authent":13390,"戦の":13391," TR":13392," minds":13393,"二人が":13394,"店舗":13395," muscles":13396,"困った":13397," View":13398,"SR":13399,"Free":13400," Android":13401,"imens":13402," hardware":13403,"good":13404,"ボル":13405," steam":13406," Viet":13407,"りょう":13408,"めながら":13409," tab":13410,"ghan":13411,"テレビ朝日":13412," nic":13413,"ourse":13414," Defense":13415,"周年":13416," Product":13417,"名前は":13418," define":13419,"rolled":13420,"やかに":13421," loving":13422,"基づ":13423,"福島":13424,"あんまり":13425,"eqref":13426,"TE":13427,"要求":13428,"aned":13429," comic":13430," jun":13431,"なよ":13432," asleep":13433,"PM":13434," fate":13435," Bang":13436,"さず":13437,"適当":13438,"しようと":13439," restaurants":13440," Dub":13441,"eman":13442," relie":13443,"mn":13444," resemb":13445,"月には":13446,"現状":13447," vacc":13448,"ラと":13449," begun":13450," errors":13451,"ingle":13452," prospect":13453," frustr":13454,"困る":13455,"徐々に":13456,"gi":13457," Scotland":13458,"バッ":13459,"テレビドラマ":13460," wrest":13461," Assembly":13462,"取引":13463," utter":13464," historic":13465," softly":13466,"これも":13467," excit":13468," ignored":13469,"ついで":13470,"pse":13471," concrete":13472," constructed":13473,"アナウンサー":13474,"落ちた":13475," behalf":13476," Simon":13477,"ndash":13478,"残った":13479," spots":13480,"だろうな":13481,"ランダ":13482,"ella":13483,"線を":13484," Wales":13485,"万円":13486," crystal":13487," employed":13488," acceler":13489,"Gen":13490," Tan":13491,"ヒュー":13492," grateful":13493,"が悪":13494,"pton":13495," offices":13496,"した後":13497,"AI":13498,"ですよね":13499,"マシ":13500,"することは":13501," wash":13502," introduction":13503," boun":13504,"ないし":13505," Broad":13506," Minn":13507,"水の":13508,"pa":13509," gall":13510," hunt":13511,"bet":13512,"職業":13513,"INE":13514," Gi":13515,"きに":13516,"目の前の":13517,"Min":13518,"sed":13519," outdoor":13520,"をし":13521,"track":13522,"侵入":13523,"nell":13524," contents":13525," Rub":13526," ongoing":13527," Roll":13528,"一方で":13529," Chair":13530,"two":13531,"achusetts":13532,"思っていた":13533,"ところに":13534,"発売された":13535," communicate":13536,"信用":13537," Prom":13538,"商業":13539," targets":13540,"食べる":13541,".’":13542," neutral":13543,"嫌い":13544,"zona":13545," Eve":13546,"Level":13547,"gener":13548," clubs":13549,"nda":13550," Soul":13551,"National":13552,"どうしても":13553,"方面":13554,"デイ":13555,"bibinfo":13556,"ともかく":13557," reminded":13558," printed":13559,"はなかった":13560," priority":13561,"素晴":13562,"sole":13563," AI":13564,"王宮":13565," invention":13566,"OO":13567," rhy":13568," oblig":13569,"競馬":13570,"ですわ":13571," pounds":13572," laughing":13573,"rik":13574,"Pat":13575,"任せ":13576,"部下":13577,"ではあるが":13578," vamp":13579," Ka":13580,"har":13581," producing":13582," vital":13583," organic":13584,"cul":13585,"――。":13586,"ワシ":13587,"青い":13588,"View":13589,"omi":13590,"に変":13591,"感を":13592," implementation":13593,"stairs":13594," stretch":13595," minister":13596," Supp":13597," Governor":13598,"World":13599,"言っていた":13600," Imperial":13601,"危機":13602,"istant":13603," wins":13604," innovative":13605,"アント":13606,"pson":13607,"Date":13608,"きん":13609,"じゅう":13610,"define":13611,"xs":13612,"関東":13613,"彼ら":13614," facil":13615," parameters":13616,"が悪い":13617,"頃から":13618,"py":13619,"ソロ":13620," Shin":13621,"ambling":13622,"length":13623,"惑星":13624,"驚く":13625,"の内":13626,"Bar":13627,"っていい":13628," Non":13629," Hit":13630," Winter":13631,"rient":13632,"Ant":13633,"みて":13634,"途中で":13635," corresponding":13636,"PT":13637,"atching":13638,"大学出身の人物":13639,"部を":13640,"しっかりと":13641,"look":13642,"理由は":13643,"also":13644," copies":13645," centuries":13646," Princess":13647,"vard":13648,"シス":13649," assessment":13650," Colorado":13651," Season":13652,"Ps":13653,"が高い":13654,"はずの":13655,"事だ":13656,"男爵":13657,"QU":13658," 三":13659," yard":13660,"lication":13661,"のための":13662,"disc":13663,"BM":13664,"平均":13665,"atal":13666,"服を":13667,"owned":13668,"riers":13669," elections":13670," Dun":13671,"\";":13672,"が発":13673," sizes":13674," ought":13675,"しましょう":13676,"に出て":13677,"せずに":13678,"ushes":13679," exposure":13680,"手な":13681,"すり":13682,"brid":13683," bot":13684,"区間":13685,"ゾン":13686," chances":13687,"？）":13688," bags":13689,"theless":13690,"家を":13691," percentage":13692,"せっかく":13693," actors":13694,"後ろに":13695," insert":13696," logo":13697,"というわけ":13698," representative":13699,"でお":13700,"沖縄":13701,"rics":13702," confusion":13703,"fil":13704,"ツアー":13705,"アマ":13706,"前から":13707," drunk":13708," tech":13709," Cra":13710,"DC":13711,"優先":13712,"なにか":13713,"letter":13714,"aman":13715," alter":13716," temporary":13717," compare":13718," principal":13719,"社の":13720,"何と":13721,"ヴェル":13722,"役に":13723," respective":13724," diverse":13725,"月から":13726,"手は":13727," survived":13728,"政策":13729," sessions":13730," dipl":13731," Small":13732,"oln":13733," ultimate":13734,"AW":13735," Continue":13736," listing":13737,"looking":13738,"><![":13739,"start":13740,"dra":13741,"様も":13742,"istent":13743,"oft":13744,"リーム":13745,"れると":13746,"要素":13747," convinced":13748,"制度":13749,"Image":13750,"厳しい":13751," Has":13752," withdraw":13753,"kward":13754,"さわ":13755,"割り":13756," Age":13757," Jews":13758,"交流":13759,"strong":13760," cheek":13761,"ра":13762,"zo":13763,"node":13764,"Look":13765,"!!」":13766," guidance":13767,"ザン":13768," phenomen":13769,"クエスト":13770,"任務":13771,"アキ":13772,"bits":13773,"bey":13774,"んだよね":13775,"zes":13776,"Pop":13777,"中継":13778,"取締":13779,"ardens":13780,"udes":13781,"計算":13782,"High":13783,"idays":13784,"UC":13785," regret":13786,"地理":13787," frequency":13788,"index":13789,"ヴァル":13790,"ギュラー":13791," na":13792," dwar":13793," beings":13794,"関わ":13795," Ref":13796,"の一人":13797,"hou":13798," accessible":13799,"esty":13800,"力な":13801," meters":13802,"ようとする":13803," ratio":13804,"みると":13805,"DP":13806,"oki":13807," ridic":13808," Wolf":13809,"ITY":13810," transferred":13811,"を務めた":13812,"scale":13813,"aying":13814,"位を":13815,"osition":13816," prize":13817,"立てて":13818,"aters":13819,"profit":13820,"証拠":13821," breaks":13822,"シティ":13823,"wall":13824,"Net":13825," trap":13826," swimming":13827," holes":13828,"らして":13829," proposal":13830,"に通":13831,"そば":13832,"キャラ":13833," choosing":13834," Manager":13835,"韓国":13836," lighting":13837," Bu":13838,"うな":13839," Bridge":13840," Dor":13841," consequences":13842,"iry":13843,"がその":13844," champion":13845," maintained":13846,"古代":13847," Cub":13848,"のね":13849,"きょ":13850,"redit":13851,"かせる":13852,"合わせた":13853," resulted":13854,"いていく":13855," passes":13856," channels":13857,"はもう":13858,"メーカー":13859," designer":13860," grounds":13861," offensive":13862," Final":13863," requested":13864,"ツの":13865,"なんですか":13866,"ご飯":13867,"such":13868," CR":13869," settlement":13870," pointing":13871,"最初は":13872," retreat":13873,"lan":13874," proven":13875," manual":13876,"Max":13877,"トラック":13878,"ばん":13879,"mate":13880,"istrib":13881,"ceived":13882,"電子":13883,"Object":13884,"ifferent":13885,"スラ":13886," impressed":13887,"遺跡":13888," classroom":13889,"onel":13890," golf":13891,"が無":13892,"さき":13893,"そうと":13894,"Mich":13895,"claimed":13896," painted":13897," cheer":13898," involves":13899,"emon":13900,"後半":13901," hearts":13902,"綺麗な":13903,"David":13904," sons":13905," cabin":13906," quote":13907," Rain":13908,"射精":13909,"iva":13910," preparing":13911,"どれだけ":13912,"Pub":13913," singles":13914,"はん":13915," requests":13916," desp":13917,"一歩":13918," arrow":13919," Oxford":13920,"隠し":13921,"先の":13922,"};":13923,"披露":13924,"議院議員":13925,"bbing":13926,"ナに":13927,"tem":13928," sail":13929,"人生":13930," Shadow":13931,"さの":13932," tear":13933,"ほんの":13934," Should":13935," roads":13936," weekly":13937," contribute":13938,"ilation":13939,"このような":13940,"るが":13941,"agers":13942," prayer":13943,"の元":13944,"ppy":13945,"気づいた":13946," moral":13947," reduction":13948,"残り":13949,"チェン":13950,"健康":13951," HD":13952,"みは":13953,"の娘":13954,"unity":13955," lesson":13956,"顔は":13957,"ないから":13958,"guard":13959," kil":13960,"urisd":13961," objective":13962," Cab":13963," borrow":13964,"魔法で":13965," impression":13966,"IGHT":13967," pour":13968,"書いて":13969,"mind":13970," dur":13971,"eron":13972,"胸に":13973," nights":13974," fleet":13975," Jam":13976," protest":13977,"相手が":13978,"ーい":13979," Mu":13980,"携帯":13981," ol":13982," Brian":13983," shame":13984,"onde":13985,"誰が":13986,"pling":13987," eastern":13988,"pending":13989,"そう言った":13990,"冷たい":13991," snapped":13992,"正面":13993,"eqn":13994," Ga":13995," Norm":13996,"睨み":13997," Sure":13998," toler":13999,"}$.":14000," pig":14001," approaches":14002,"忘れて":14003,"調整":14004,"ouses":14005," Labor":14006,"ounding":14007,"系列":14008,"を見ていた":14009,"に応":14010," twelve":14011," outstanding":14012,"Disc":14013,"State":14014,"Intern":14015," Hou":14016,"守る":14017,"軍事":14018," opponents":14019,"Book":14020," Place":14021," :)":14022,"isting":14023," Writ":14024," noble":14025," brilliant":14026," ma":14027," royal":14028,"まさに":14029," expanded":14030," intelligent":14031,"全身":14032," demands":14033,"user":14034," Phot":14035," Alexander":14036,"どんど":14037,"相手は":14038," factory":14039,"呼ぶ":14040," gathering":14041," Hold":14042," connections":14043," flour":14044," Na":14045,"将来":14046," flav":14047,"ificial":14048," absence":14049,"陸上":14050," integrated":14051," payments":14052,"太子":14053," enorm":14054,"Off":14055,"再生":14056," Dutch":14057,"の中から":14058,"に行った":14059,"ieties":14060," rural":14061,"セックス":14062," vice":14063,"ブランド":14064," franch":14065," partnership":14066," lifestyle":14067," Rand":14068,"ガラ":14069,"フィリ":14070," mere":14071,"agged":14072," bands":14073," tut":14074," sculpt":14075,"di":14076," Fant":14077," Columbia":14078," Saf":14079,"iti":14080,"満た":14081," transportation":14082,"COM":14083,"だら":14084," pip":14085,"itty":14086,"教え":14087,"姿は":14088," Davis":14089,"俺たちは":14090," accordance":14091," Merc":14092," picking":14093," eleg":14094,"が広":14095," prime":14096,"テイ":14097,"ヒル":14098," alumni":14099," styles":14100,"oda":14101,"プト":14102,"を置":14103,"したこと":14104,"階層":14105,"二人で":14106,"何でも":14107," 東":14108,"コミュニ":14109,"enter":14110,"勢い":14111,"vas":14112,"返し":14113," hal":14114," Country":14115,"暗い":14116," upload":14117,"せよ":14118,"のではない":14119,"戻って":14120," opposition":14121,"川の":14122,"レント":14123," NC":14124,"ennes":14125," wears":14126," ash":14127," Marsh":14128," filling":14129," investors":14130,"こちらに":14131,"ベー":14132,"街の":14133," honey":14134,"ールを":14135," brow":14136," EV":14137,"pool":14138," mixture":14139,"fficial":14140,"オフ":14141,"戸惑":14142," wolf":14143," principle":14144,"フォード":14145," tape":14146,"ぶりに":14147,"天井":14148," lists":14149," barrel":14150,"apse":14151,"ヤマ":14152,"Spec":14153,"English":14154," premium":14155,"ふん":14156,"idae":14157," Anton":14158,"持っている":14159,"wart":14160,"呟いた":14161," ($":14162," Being":14163,"わけじゃない":14164," faint":14165," Sant":14166," essentially":14167," trigger":14168,"私には":14169,"数を":14170," stopping":14171,"viously":14172,"ARD":14173," inch":14174," ancest":14175," commander":14176,"ほんと":14177," subsequent":14178," Fun":14179,"複雑":14180,"ropical":14181,"apon":14182,"BR":14183," Roy":14184,"学会":14185," Six":14186,"いつの間にか":14187," specified":14188," Du":14189," mart":14190,"image":14191,"に基づ":14192,"尻尾":14193," sauce":14194,"レコード":14195,"ろうと":14196," retrie":14197,"uty":14198," pp":14199,"owa":14200," membership":14201,"観察":14202," Something":14203," virus":14204," Hong":14205," fundamental":14206,"udge":14207,"専用":14208,"最悪":14209,"られなかった":14210," clicking":14211,"hind":14212," cleared":14213,"プリン":14214,"ドリ":14215," Having":14216,"bsp":14217,"と言えば":14218,"スと":14219,"det":14220," Ban":14221,"onymous":14222,"に所属":14223," queen":14224,"ストン":14225,"三人":14226," vend":14227," shake":14228," DO":14229,"んだろ":14230,"００":14231," Kaz":14232,"復帰":14233,"自身が":14234,"ゴーレム":14235," struggling":14236,"oli":14237,"charge":14238,"素直に":14239,"aria":14240,"unted":14241," potentially":14242,"わた":14243," lung":14244,"他にも":14245,"Each":14246,"cdot":14247," Tit":14248,"ultane":14249,"すみません":14250," AS":14251," ads":14252," и":14253,"Early":14254,"riel":14255,"証明":14256,"子ども":14257,"phia":14258,"cribed":14259," doctors":14260,"クラウ":14261," representation":14262,"全体":14263,"終わる":14264,"の長":14265,"textbf":14266," happiness":14267,"ко":14268," battles":14269,"Category":14270," cloth":14271,"軍は":14272,"olid":14273,"キロ":14274," echo":14275,"大阪府":14276," Everything":14277,"岡山":14278,"まだまだ":14279,"本気で":14280," handling":14281,"puter":14282,"歩いて":14283," Temple":14284," excitement":14285,"shot":14286,"hu":14287,"dep":14288," jacket":14289,"探索":14290,"おまえ":14291,"even":14292," samples":14293,"ller":14294,"aco":14295,"TP":14296," references":14297," oh":14298,"iking":14299,"きち":14300," dancing":14301,"human":14302," Corn":14303," Rick":14304,"仮面":14305,"found":14306," electrical":14307," electricity":14308," awkward":14309," hip":14310," towns":14311," proport":14312,"….":14313," Creek":14314,"cond":14315,"リオン":14316,"Ben":14317,"きっかけ":14318,"嬉しそうに":14319,"ここから":14320,"ordon":14321," obst":14322," violent":14323,"eras":14324," steady":14325,"/-":14326," loop":14327," Tower":14328," defensive":14329," intr":14330,"神経":14331,"覗き":14332,"yers":14333,"開いた":14334," stages":14335,"おれ":14336,"宗教":14337," amongst":14338,"」」":14339,"農業":14340,"aware":14341,"をもって":14342," naked":14343,"初期":14344,"法律":14345,"暗殺":14346," outer":14347,"兵庫":14348,"mus":14349,"問いか":14350,"Count":14351," CO":14352,"死んで":14353,"ez":14354,"igo":14355,"周囲の":14356,"考えている":14357,"ゆく":14358,"領域":14359,"当たり前":14360,"力に":14361,"土地":14362,"元年":14363," preced":14364,"博物":14365,"不足":14366,"目標":14367," conj":14368,"一つの":14369," BE":14370,"ってから":14371,"することで":14372," introduce":14373," distant":14374,"様子で":14375,"グレイ":14376," Works":14377," Massachusetts":14378,"ミサ":14379,"caption":14380,"住宅":14381,"ista":14382," favourite":14383,"プロジェクト":14384,"主要":14385,"耳を":14386,"様子を":14387,"するという":14388," fright":14389," gorge":14390,"手に入":14391," shadows":14392,"騒ぎ":14393,"といけない":14394,"お腹":14395,"少女は":14396," hire":14397," shifted":14398," provision":14399,"艦隊":14400,"パリ":14401,"なこと":14402," attractive":14403,"too":14404," iPhone":14405,"rons":14406,"マグ":14407,"alous":14408,"dated":14409," Square":14410,"者として":14411," regul":14412,"パーク":14413,"と言っても":14414,"rivate":14415," slot":14416,"決めた":14417,"立てる":14418," privile":14419,"はいけない":14420," roughly":14421," prominent":14422,"FR":14423,"criptions":14424," roots":14425,"に戻る":14426,"writer":14427," expecting":14428," romantic":14429,"ジャック":14430," argue":14431," thy":14432,"どっち":14433," usage":14434," jewel":14435," impr":14436,"一言":14437,"カの":14438," somebody":14439,"ットは":14440,"目を見":14441," Nations":14442," Short":14443," Kenn":14444," philosophy":14445,"OVE":14446,"engers":14447,"モンド":14448,"olas":14449,"近づいて":14450," repeat":14451,"食堂":14452," elsewhere":14453," prosec":14454,"yan":14455," describes":14456,"カは":14457,"ちゅう":14458," correctly":14459,"Ev":14460," edges":14461," hired":14462,"理論":14463,"hire":14464," Fle":14465,"性能":14466,"mathrm":14467,"あた":14468," Bull":14469," torn":14470," Avenue":14471,"団の":14472,"omatic":14473,"間違いなく":14474,"しないと":14475,"Web":14476,"いいよ":14477,"raine":14478," rely":14479,"bound":14480,"opyright":14481,"ntil":14482,"触れ":14483," Anth":14484," categories":14485," eligible":14486," Access":14487," tum":14488,"少女の":14489," Executive":14490," CL":14491,"HA":14492," Table":14493," admin":14494,"学の":14495," twe":14496," worship":14497," preparation":14498," pir":14499,"Bo":14500,"響く":14501," underground":14502,"基本的に":14503,"ruits":14504,"ヴィクト":14505,"フェン":14506,"両手を":14507," crying":14508," undert":14509,"ovement":14510,"formance":14511,"wich":14512," operator":14513,"家が":14514,"点を":14515," folk":14516,"に乗り":14517,"を振り":14518,"！！！」":14519,"」、「":14520,"tery":14521,"入る":14522,"必死":14523," moist":14524," affordable":14525,"////":14526,"dy":14527,"身長":14528,"Sam":14529,"aba":14530,"魔力の":14531,"落ちる":14532,"otte":14533,"fs":14534,"本当は":14535,"Jack":14536,"ITH":14537,"名が":14538,"ogy":14539,"natural":14540,"かみ":14541," keys":14542," reaches":14543," Video":14544,"を行い":14545,"UK":14546," Storm":14547,".)/":14548,"ゼロ":14549,"視線を向":14550," hydro":14551,"強制":14552," founder":14553,"dney":14554,"投稿":14555," frowned":14556,"いいか":14557,"通りの":14558,"phe":14559,"herent":14560," courts":14561," Pa":14562,"urches":14563,"を飲":14564,"ントン":14565,"正しい":14566,"機の":14567," encouraged":14568,"男に":14569," courage":14570," Jay":14571,"called":14572,"激しい":14573," pupp":14574,"ダーク":14575," Corps":14576," attacking":14577,"書類":14578,"ethe":14579," rug":14580," vel":14581,"さく":14582,"が発生":14583,"デジタル":14584,"?)":14585,"itual":14586,"]]><![":14587," collaboration":14588,"酷い":14589," Imp":14590,"を迎":14591,"こちらの":14592," possession":14593," anxiety":14594,"atched":14595,"クは":14596,"IST":14597," Staff":14598,"ターン":14599," gri":14600,"細胞":14601," statistics":14602,"若干":14603,"aha":14604," hosted":14605,"なんでも":14606," whilst":14607,"パワー":14608,"flow":14609,"ブー":14610,"再開":14611," retirement":14612," NO":14613," wishes":14614,"がって":14615,"短い":14616," Hal":14617,"壁に":14618,"カウン":14619,"を見せる":14620," Fact":14621," insight":14622," separated":14623,"一日":14624,"会場":14625,"今から":14626,"aux":14627,"duces":14628," pharm":14629," hint":14630,"長崎":14631,"ão":14632,"周り":14633,"<![":14634,"End":14635,"動きを":14636,"コンピュータ":14637,"そう言う":14638,"さぁ":14639,"言ってた":14640," Airport":14641,"fly":14642," wisdom":14643,"UST":14644,"ざる":14645,"atar":14646," AL":14647,"ppers":14648,"同じく":14649," Officer":14650,"OUR":14651," managing":14652,"ブラン":14653,"何より":14654," gym":14655,"響き":14656,"Text":14657," mm":14658," pleasant":14659,"恥ずかし":14660," thrust":14661,"からか":14662," Victoria":14663," interaction":14664,"うう":14665," Kal":14666," Kevin":14667,"esota":14668," disag":14669,"に住":14670," MS":14671," bold":14672,"吉田":14673," EU":14674,"adelphia":14675,"共通":14676," precious":14677,"ウェイ":14678," promotion":14679,"かなりの":14680," Return":14681,"筋肉":14682,"材料":14683," shops":14684,"oret":14685,"NC":14686,"記載":14687,"）・":14688,"レギュラー":14689,"に目を":14690,"rek":14691,"理事":14692,"モニ":14693,"ヴァー":14694," weakness":14695,"高橋":14696,"namefont":14697," Administration":14698," jurisd":14699,"喜び":14700,"斬り":14701," Cho":14702,"きている":14703,"Step":14704,"before":14705,"僕も":14706," warrior":14707,"atoes":14708,"だよね":14709,"一杯":14710," Dave":14711,"iour":14712," loans":14713," jaw":14714,"Whe":14715,"Aust":14716,"そうね":14717,"なのだが":14718,"sur":14719,"umbling":14720,"ポジ":14721,"自覚":14722," $(":14723,"当たる":14724," Put":14725,"州の":14726," rival":14727,"貴方":14728,"実行":14729," leaf":14730," Pers":14731,"onia":14732," dirty":14733,"ユキ":14734,"魔物の":14735,"問題ない":14736,"ウィン":14737," writes":14738,"LY":14739,"コの":14740,"挑戦":14741,"~-":14742,"全てを":14743,"Det":14744," wished":14745,"が高":14746,"ギター":14747," humanity":14748," Miller":14749,"コンビ":14750,"どうやって":14751,"刑事":14752," maps":14753," Steven":14754,"移籍":14755,"を利用":14756,"台湾":14757,"neath":14758,"いっぱい":14759,"クロー":14760," politician":14761," Page":14762,"消滅":14763,"Oct":14764," dynamic":14765," engines":14766," Ministry":14767," boot":14768," Attack":14769," politicians":14770,"ミナ":14771," instinct":14772,"ortion":14773," reveals":14774,"みれば":14775," mild":14776," drum":14777,"agen":14778," slip":14779,"andra":14780,"apore":14781,"ストーリー":14782,"Ref":14783," outcome":14784,"覚えて":14785,"者である":14786,"城の":14787," joke":14788," upgrade":14789," sear":14790,"DE":14791," OK":14792," spo":14793,"incoln":14794,"regon":14795,"王族":14796," margin":14797,"監視":14798,"せいか":14799,"ズは":14800,"screen":14801,"中には":14802,"コール":14803," rend":14804,"恋人":14805,"orious":14806,"コント":14807," von":14808,"words":14809,"けられた":14810," Ess":14811,"動画":14812,"sized":14813," molec":14814,"把握":14815,"本社":14816," Garden":14817," collaps":14818,"がく":14819," COM":14820," ft":14821,"山本":14822," drops":14823,")。":14824,"ってくれる":14825,"acious":14826,"ía":14827,"いじ":14828," slipped":14829,"Make":14830,"ツィ":14831,"継承":14832,"を取る":14833,"immer":14834," Stephen":14835,"引っ張":14836,"ちゃんに":14837,"の中には":14838," accompanied":14839,"を訪":14840,"の上で":14841," cu":14842,"etary":14843,"殺人":14844,"ママ":14845," reserve":14846,"そのような":14847,"Finally":14848,"語り":14849,"わけには":14850," mystery":14851," tap":14852,"white":14853,"父は":14854," legit":14855,"umph":14856," Digital":14857," hyper":14858,"アフリカ":14859," healthcare":14860,"FI":14861,"agg":14862,"Call":14863,"考えていた":14864,"Mat":14865,"意に":14866,"部長":14867,"hesis":14868,"フリ":14869,"quis":14870," stones":14871,"sa":14872," Arizona":14873,"ifted":14874," explo":14875," attach":14876," segment":14877,"休憩":14878," Ltd":14879,"どうにか":14880,"oni":14881,"もしくは":14882,"Ang":14883,"ро":14884," Yu":14885,"Start":14886,"現れる":14887," Represent":14888," Dom":14889," lightning":14890," compat":14891,"psi":14892," Studies":14893,"黙って":14894,"魔女":14895," Lat":14896," seal":14897," railway":14898,"employ":14899," finishing":14900,"gian":14901,"GA":14902,"レア":14903,"から見":14904,"サイド":14905,"nab":14906,"reck":14907,"bu":14908,"店の":14909," refuge":14910," accomplish":14911," refers":14912,"chant":14913,"安定":14914," packed":14915,"TO":14916,"issions":14917," corrid":14918,"っちゃう":14919," transmission":14920,"の国":14921," shocked":14922,"立っていた":14923,"reement":14924,"asha":14925,"ovie":14926,"合流":14927," forehead":14928,"Check":14929,"王座":14930,"岐阜":14931,"?」":14932,"人気":14933," appearances":14934,"フィン":14935,"のかと":14936,"ジーク":14937,"挙げ":14938,"あげた":14939," Naz":14940," Theatre":14941,"不可能":14942,"ヤツ":14943,"ふぅ":14944," Cloud":14945," improving":14946," COVID":14947," YouTube":14948,"bably":14949,"まれている":14950,"続いて":14951," balls":14952," Barb":14953,"のうち":14954," brush":14955,"しと":14956,"ートを":14957,"James":14958,"language":14959,"真似":14960," Imm":14961,"おはよう":14962,"’.":14963,"（『":14964,"addy":14965," administrative":14966," framework":14967,"時計":14968," iP":14969," Ocean":14970," therm":14971,"になってしまった":14972,"間で":14973,"Life":14974,"まっていた":14975," refund":14976," exchang":14977,"tg":14978," strategic":14979,"取締役":14980," Building":14981,"')":14982," characteristics":14983," cheeks":14984,"本を":14985," tun":14986,"沿革":14987," guidelines":14988," scope":14989,"魔力が":14990," symp":14991," Amb":14992," Snow":14993,"したため":14994,"oning":14995," Yeah":14996,"少々":14997,"ucked":14998,"って言う":14999," trusted":15000,"esis":15001,"ホル":15002," steal":15003,"コス":15004," coc":15005," Burn":15006," telephone":15007," clouds":15008," seemingly":15009," SC":15010,"を狙":15011,")$.":15012,"Death":15013," blast":15014,"相応":15015,"さで":15016,"だけに":15017,"stic":15018," Mind":15019," DNA":15020," module":15021," Rus":15022,"quer":15023," Books":15024,"を構":15025,"同盟":15026," spare":15027," knocked":15028," contribution":15029," decides":15030," clan":15031," monitoring":15032,".]":15033," wounded":15034," tracking":15035,"ましたが":15036,"基準":15037," attempting":15038," lifetime":15039,"などと":15040," Five":15041,"ファンタ":15042,"そく":15043,"の日":15044,"あまりにも":15045," Toronto":15046,"基礎":15047,"の神":15048,"何かが":15049,"Search":15050,"によれば":15051," fantasy":15052," Command":15053," formula":15054,"以降は":15055,"ONE":15056," physically":15057,"pop":15058,"mult":15059," Fel":15060,"GP":15061," aimed":15062,"United":15063," branches":15064," Price":15065,"ダウン":15066,"後も":15067,"スピード":15068," Commander":15069," contributions":15070,"inating":15071," hungry":15072," cum":15073,"UP":15074,"ouri":15075,"過去の":15076,"Love":15077," engagement":15078,"effect":15079,"後ろから":15080," frozen":15081," grinned":15082,"形態":15083,"としたら":15084,"の意味":15085,"ヴァイ":15086,"ハウス":15087,"ordinary":15088,"さる":15089,"地面":15090," chin":15091," accused":15092,"過ぎる":15093," Region":15094,"最大の":15095,"ミラ":15096," Ay":15097," Hollywood":15098," password":15099,"「…………」":15100,"リウ":15101," speaker":15102,"Dam":15103,"ますが":15104," cig":15105,"フィールド":15106,"博物館":15107," bom":15108,"喧嘩":15109,"rivia":15110,"なもの":15111," Core":15112," beam":15113,"atern":15114,"ノル":15115," grim":15116,"コウ":15117," province":15118,"熱い":15119,"Met":15120,"site":15121,"消えた":15122," capabilities":15123,"agle":15124," Jess":15125,"さんだ":15126,"いてい":15127,"違いない":15128,"行われた":15129," manufacturer":15130," residence":15131,"室の":15132," sorts":15133," Charlie":15134,"AAAA":15135,"%,":15136,"記事":15137,"いつか":15138,"空を":15139," luxury":15140,"ictionary":15141," infect":15142," measured":15143," crucial":15144,":\"":15145," ic":15146," badly":15147," pregnant":15148,"ージュ":15149,"なぜか":15150,"わたしの":15151," Case":15152,"転生":15153,"circ":15154,"tics":15155," palm":15156,"三郎":15157," electron":15158," focusing":15159,"歌手":15160,"テク":15161,"剣の":15162,"ERE":15163,"才能":15164," Emer":15165,"捜査":15166,"mers":15167,"室に":15168," meals":15169,"reation":15170," CP":15171,"dam":15172,"位に":15173,"MO":15174," Stock":15175,"issa":15176,"盗賊":15177," flavor":15178,"背中に":15179," Training":15180,"容易":15181," Rights":15182,"Sorry":15183,"ニン":15184,"enly":15185,"もり":15186," fake":15187," Ta":15188," Maria":15189," uncomfort":15190,"ジョージ":15191,"ICE":15192,"間違いない":15193,"程の":15194," lapt":15195," Ele":15196," Hunter":15197,"iami":15198," derived":15199,"eland":15200,"Event":15201,"帝国の":15202," kicked":15203,"AGE":15204,"勘違い":15205," mysterious":15206," barrier":15207," Chall":15208," embed":15209,"uced":15210,"pub":15211,"dec":15212,"カメラ":15213," Pur":15214,"ountered":15215," soph":15216," ramp":15217,"いやいや":15218,"レスト":15219," instruction":15220,"残っている":15221," stiff":15222,"low":15223," Portug":15224,"立派":15225," programme":15226," Farm":15227," piano":15228," expenses":15229,"mic":15230,"舞い":15231," settle":15232,"len":15233,"人民":15234,"izza":15235,"時代に":15236,"固定":15237,"熊本":15238," Bry":15239,"Status":15240,"ORE":15241," drinks":15242,"Av":15243," Java":15244,"重い":15245," estimate":15246," flames":15247,"姿勢":15248,"批判":15249," nowhere":15250," indicates":15251," Alliance":15252," bid":15253,"ロール":15254,"がっ":15255,"ひら":15256,"玄関":15257,"えぇ":15258," Doc":15259,"いろいろ":15260," invis":15261,"首都":15262,"を殺":15263,"お金":15264," hospit":15265,"-\"":15266,"石川":15267,"返した":15268," woods":15269,"ст":15270," fraud":15271,"しまっている":15272," votes":15273,"ときは":15274," Besides":15275,"機構":15276,"urrently":15277,"asa":15278," survival":15279," speaks":15280,"するか":15281,"イケ":15282,"告白":15283," stake":15284,"ようです":15285," inher":15286,"こぼ":15287,"Sil":15288,"丁寧":15289,"ということで":15290,"夫婦":15291,"ピアノ":15292," layers":15293,"inging":15294," safely":15295,"++++++++":15296,"私たちは":15297,"arer":15298,"sqrt":15299,"伝える":15300,"よー":15301," surve":15302,"秋田":15303," Independ":15304,"満ち":15305,"Cor":15306," Gree":15307,"imon":15308,"言いながら":15309," Members":15310," enthusi":15311,"本人":15312,"の中でも":15313,"apy":15314,"最初から":15315," coup":15316," heroes":15317," modified":15318," Village":15319,"を買":15320,"angel":15321,"建て":15322,"地獄":15323,"ツェ":15324,"ベイ":15325," oldest":15326," suggestions":15327,"それほど":15328," spirits":15329," Korean":15330,"わせて":15331,"grade":15332,"後悔":15333,"\":\"":15334,"のでは":15335," performances":15336," Berlin":15337," Alice":15338," icon":15339," Revolution":15340," encountered":15341," Morgan":15342,"asses":15343,"連盟":15344," Ark":15345,"児島":15346,"口の":15347,"ムが":15348," Cru":15349," fifty":15350,"IE":15351," murm":15352," threatened":15353,"確実に":15354," fist":15355," powder":15356,"いていない":15357,"くそ":15358," tempt":15359," Gun":15360,"iffs":15361," ALL":15362,"Despite":15363," satisfaction":15364,"uffy":15365," supplement":15366,"hr":15367,"onsin":15368,"意図":15369,"ido":15370,"tainment":15371,"つかの":15372,"を重":15373,"hal":15374," mistakes":15375," Constitution":15376," bits":15377," Les":15378,"RL":15379,"キュー":15380,"tan":15381,"レイン":15382," robot":15383,"となると":15384,"しみ":15385," stolen":15386," simultane":15387,"菓子":15388,"rock":15389,"拘束":15390,"が多":15391,"MT":15392," prev":15393,"メモ":15394," twisted":15395,"合わせる":15396," ladies":15397,"nor":15398," irrit":15399," Pict":15400," muttered":15401,"大学院":15402,"車の":15403,"部は":15404," exclud":15405,"isconsin":15406,"atellite":15407,"ふう":15408,"lis":15409," viewing":15410,"だろうし":15411," Maj":15412," assert":15413," translation":15414," rib":15415," sam":15416," allies":15417," occupied":15418," murd":15419," floating":15420," innovation":15421," static":15422," Cass":15423,"飛ぶ":15424," insect":15425,"ゲル":15426,"に出場":15427,"どんどん":15428,"を見ている":15429,"メガ":15430," Ghost":15431,"恐る":15432,"っそ":15433," innocent":15434," beating":15435,"きの":15436,"\"...":15437,"気に入":15438,"競走":15439,"題材":15440,"atsu":15441,"妙に":15442,"books":15443,"吸収":15444,"rait":15445,"街道":15446,"を表":15447,"叫ぶ":15448,"ませんか":15449,"先を":15450," Dest":15451," mechanism":15452,"ぁっ":15453," visits":15454," skilled":15455,"ませんが":15456," Thor":15457," Hig":15458," managers":15459,"ッス":15460," Josh":15461,"さった":15462,"告げ":15463," по":15464,"読んで":15465,"Log":15466,"足りない":15467," Third":15468,"振った":15469," photography":15470,"!」":15471,"Stud":15472," requirement":15473,"床に":15474," Univers":15475,"Game":15476," surge":15477,")』":15478," Thom":15479,"ずる":15480," 日本":15481," tube":15482," minimal":15483," Kir":15484,"舌を":15485,"いいのか":15486,"ふた":15487," aer":15488,"hot":15489,"にでも":15490,"/**":15491,"精液":15492,"lar":15493,"上昇":15494,"を中心に":15495,"cca":15496,"ington":15497," bell":15498,"ocial":15499,"ヒロイン":15500,"mem":15501," patch":15502,"落とす":15503," Ross":15504," garage":15505," tradem":15506," sisters":15507," Tell":15508,"言える":15509,"などに":15510,"回収":15511,"overs":15512,"倒れ":15513,"yrics":15514,"統一":15515,"体験":15516,
[...]
