{"<unk>":0,"<s>":1,"</s>":2,"0x00":3,"0x01":4,"0x02":5,"0x03":6,"0x04":7,"0x05":8,"0x06":9,"0x07":10,"0x08":11,"0x09":12,"0x0a":13,"0x0b":14,"0x0c":15,"0x0d":16,"0x0e":17,"0x0f":18,"0x10":19,"0x11":20,"0x12":21,"0x13":22,"0x14":23,"0x15":24,"0x16":25,"0x17":26,"0x18":27,"0x19":28,"0x1a":29,"0x1b":30,"0x1c":31,"0x1d":32,"0x1e":33,"0x1f":34,"0x20":35,"0x21":36,"0x22":37,"0x23":38,"0x24":39,"0x25":40,"0x26":41,"0x27":42,"0x28":43,"0x29":44,"0x2a":45,"0x2b":46,"0x2c":47,"0x2d":48,"0x2e":49,"0x2f":50,"0x30":51,"0x31":52,"0x32":53,"0x33":54,"0x34":55,"0x35":56,"0x36":57,"0x37":58,"0x38":59,"0x39":60,"0x3a":61,"0x3b":62,"0x3c":63,"0x3d":64,"0x3e":65,"0x3f":66,"0x40":67,"0x41":68,"0x42":69,"0x43":70,"0x44":71,"0x45":72,"0x46":73,"0x47":74,"0x48":75,"0x49":76,"0x4a":77,"0x4b":78,"0x4c":79,"0x4d":80,"0x4e":81,"0x4f":82,"0x50":83,"0x51":84,"0x52":85,"0x53":86,"0x54":87,"0x55":88,"0x56":89,"0x57":90,"0x58":91,"0x59":92,"0x5a":93,"0x5b":94,"0x5c":95,"0x5d":96,"0x5e":97,"0x5f":98,"0x60":99,"0x61":100,"0x62":101,"0x63":102,"0x64":103,"0x65":104,"0x66":105,"0x67":106,"0x68":107,"0x69":108,"0x6a":109,"0x6b":110,"0x6c":111,"0x6d":112,"0x6e":113,"0x6f":114,"0x70":115,"0x71":116,"0x72":117,"0x73":118,"0x74":119,"0x75":120,"0x76":121,"0x77":122,"0x78":123,"0x79":124,"0x7a":125,"0x7b":126,"0x7c":127,"0x7d":128,"0x7e":129,"0x7f":130,"0x80":131,"0x81":132,"0x82":133,"0x83":134,"0x84":135,"0x85":136,"0x86":137,"0x87":138,"0x88":139,"0x89":140,"0x8a":141,"0x8b":142,"0x8c":143,"0x8d":144,"0x8e":145,"0x8f":146,"0x90":147,"0x91":148,"0x92":149,"0x93":150,"0x94":151,"0x95":152,"0x96":153,"0x97":154,"0x98":155,"0x99":156,"0x9a":157,"0x9b":158,"0x9c":159,"0x9d":160,"0x9e":161,"0x9f":162,"0xa0":163,"0xa1":164,"0xa2":165,"0xa3":166,"0xa4":167,"0xa5":168,"0xa6":169,"0xa7":170,"0xa8":171,"0xa9":172,"0xaa":173,"0xab":174,"0xac":175,"0xad":176,"0xae":177,"0xaf":178,"0xb0":179,"0xb1":180,"0xb2":181,"0xb3":182,"0xb4":183,"0xb5":184,"0xb6":185,"0xb7":186,"0xb8":187,"0xb9":188,"0xba":189,"0xbb":190,"0xbc":191,"0xbd":192,"0xbe":193,"0xbf":194,"0xc0":195,"0xc1":196,"0xc2":197,"0xc3":198,"0xc4":199,"0xc5":200,"0xc6":201,"0xc7":202,"0xc8":203,"0xc9":204,"0xca":205,"0xcb":206,"0xcc":207,"0xcd":208,"0xce":209,"0xcf":210,"0xd0":211,"0xd1":212,"0xd2":213,"0xd3":214,"0xd4":215,"0xd5":216,"0xd6":217,"0xd7":218,"0xd8":219,"0xd9":220,"0xda":221,"0xdb":222,"0xdc":223,"0xdd":224,"0xde":225,"0xdf":226,"0xe0":227,"0xe1":228,"0xe2":229,"0xe3":230,"0xe4":231,"0xe5":232,"0xe6":233,"0xe7":234,"0xe8":235,"0xe9":236,"0xea":237,"0xeb":238,"0xec":239,"0xed":240,"0xee":241,"0xef":242,"0xf0":243,"0xf1":244,"0xf2":245,"0xf3":246,"0xf4":247,"0xf5":248,"0xf6":249,"0xf7":250,"0xf8":251,"0xf9":252,"0xfa":253,"0xfb":254,"0xfc":255,"0xfd":256,"0xfe":257,"0xff":258,"  ":259," t":260,"er":261,"in":262," a":263,"en":264,"on":265," th":266,"es":267,"    ":268," s":269," d":270,"at":271,"or":272,"an":273," c":274,"is":275,"re":276,"it":277," the":278,"ar":279,"le":280," w":281," p":282,"ou":283,"al":284," f":285," m":286,"ed":287," o":288," b":289,"om":290,"ion":291,"ing":292,"ic":293,"as":294,"el":295,"ent":296," in":297," h":298,"nd":299,"et":300," l":301," n":302,"st":303," to":304,"ch":305," I":306,"ro":307,"        ":308,"il":309," of":310,"de":311,"ct":312," (":313,"am":314," C":315," de":316," S":317," u":318," A":319," \\":320," e":321," and":322," T":323,"ol":324," v":325,"im":326,"ot":327,"ad":328,"ut":329," g":330,"em":331,"ur":332,"id":333," *":334,"ig":335,"ra":336," re":337," is":338,"qu":339,"ow":340," M":341,"est":342," y":343,"se":344,"ve":345,"ce":346,"ie":347,"un":348," P":349," B":350,"ag":351,"ul":352," =":353,"he":354,"end":355,"ode":356,"ter":357,"ment":358,"os":359," D":360,"if":361,"ation":362," for":363," r":364," L":365," you":366," be":367,"ly":368,"ver":369,"ab":370,"te":371," it":372," on":373,"ri":374,"us":375," \"":376," wh":377," con":378," H":379," st":380,"ir":381," E":382," F":383,"ck":384," an":385,"th":386,"eg":387,"ay":388,"ith":389," R":390,"ist":391,"and":392," that":393," al":394," $":395," #":396,"od":397,"um":398," W":399,"ht":400,"code":401," G":402,"ate":403,"ess":404," N":405,"ere":406,"pp":407," as":408," se":409," pro":410," with":411,"pe":412," k":413,"ers":414,"pt":415,");":416,"lo":417,"     ":418," com":419,"ame":420," `":421," Com":422,"ia":423,"ant":424," la":425," {":426," en":427,"ction":428," ex":429,"ld":430,"ub":431," j":432,"la":433,"ue":434," J":435,"ich":436," do":437," O":438," qu":439,"iv":440,"ort":441,"art":442," un":443," ##":444," this":445,"ke":446," ha":447," -":448,"out":449," The":450," not":451," ne":452,"ill":453," le":454,"ci":455,"rom":456,"ine":457,"//":458,"op":459,"egin":460," Comment":461,"                ":462,"begin":463,"ст":464,"ass":465,"iz":466,").":467,"og":468," п":469," or":470," was":471," at":472,"our":473," i":474,"ain":475," K":476,"на":477," V":478,"ge":479," su":480,"ap":481,"age":482,"ould":483,"ne":484,"av":485,"xt":486,"ore":487,"ile":488,"--":489," в":490," by":491,"li":492,"ath":493,"ра":494,"ber":495,"ach":496,"all":497," Th":498,"ult":499," }":500," U":501," us":502," z":503,"ust":504," have":505,"lic":506,"ни":507," can":508,"tr":509,"com":510,"),":511," In":512,"ind":513,"ell":514," from":515,"ов":516,"to":517," [":518,"able":519,"ost":520," ch":521,"ect":522,"ight":523,"int":524," '":525," are":526," im":527," sh":528," <":529," An":530," с":531,"ata":532,"ire":533," tr":534,"con":535,"ord":536,"ity":537,"ard":538,"      ":539," he":540," but":541,"oc":542,"=\"":543," pr":544,"ure":545,"per":546,"ack":547,"ork":548,"ong":549,"ans":550,"ко":551,"ple":552," des":553,"ok":554,"orm":555,"wer":556,"ak":557,"pr":558,"ase":559," el":560,"ph":561,"ac":562," und":563," ar":564," if":565,"ud":566,"ps":567,"ite":568,"ble":569,"но":570,"fer":571,"pl":572,"ive":573,"ang":574,"ens":575,"ро":576," so":577,"so":578,"ast":579,"()":580,"swer":581,"ru":582,"ies":583," :":584,"au":585,"ov":586,"ре":587,"го":588," der":589," my":590," we":591," me":592,"nt":593," ad":594,"urn":595," your":596,"://":597,"are":598," all":599,"ff":600,"io":601,"estion":602,"ime":603," er":604,"lass":605," и":606," which":607,"ome":608,"ont":609," par":610," ma":611," Y":612,"\",":613," о":614,"ft":615,"ial":616,"cc":617,"ound":618," li":619," res":620,"eth":621,"ject":622," app":623," St":624,"ice":625," am":626,"act":627," del":628,"gr":629,"ated":630,"ier":631,"            ":632," ab":633," et":634,"ally":635,"..":636,"port":637,"ik":638," per":639," cont":640,"ри":641,"ка":642,"ser":643,"ли":644,"ll":645,"iew":646,"ign":647,"_{":648,"put":649,"one":650,"unction":651," di":652,"ary":653,"ition":654,"ma":655,"ен":656,"get":657," lo":658," val":659," Q":660,"ran":661," д":662,"ence":663," work":664," на":665,"ip":666,"item":667,"ype":668," &":669," his":670," use":671,"der":672," Answer":673," will":674,"ize":675,"та":676,"low":677," Ch":678," get":679,"ide":680,"ous":681,"ink":682,"ption":683,"ла":684,"turn":685,"ung":686,"ec":687,"ug":688,"form":689,"res":690,"htt":691,"oug":692,"ль":693," no":694,"cl":695," ro":696," one":697,"tt":698,"cri":699,"du":700," up":701,"то":702,"(\"":703," ob":704,"we":705,"ory":706," est":707,"ery":708,"iel":709,"str":710,"ob":711," que":712,"ian":713," out":714," pl":715," new":716,"ки":717," +":718,"ry":719,"oth":720,"ther":721," var":722," would":723," ser":724,"tern":725,"text":726," there":727,"ish":728,"ror":729,"те":730," set":731," @":732," по":733," te":734,"ex":735," return":736,"ail":737," any":738," It":739," function":740,"{\\":741,"',":742,"és":743,"ale":744,"ан":745," when":746,"ib":747," go":748,"ance":749," had":750," Qu":751," comp":752,"ле":753," з":754,"math":755," has":756," м":757," pre":758,"ener":759," part":760,"elf":761," die":762," like":763,"ray":764,"irst":765," dis":766," man":767,"rit":768," then":769," class":770,"pro":771," po":772," using":773,"eb":774," code":775,"own":776," some":777,"ces":778," $\\":779,"ер":780,"lect":781," au":782,"isch":783," col":784," –":785,"up":786,"ons":787," add":788,"ild":789,"iss":790,"val":791,"ount":792,"les":793,"vent":794,"             ":795," Z":796,"In":797,"row":798,"ear":799,"ations":800,"ah":801,"que":802,"ublic":803,"ank":804," sp":805," Wh":806,"----":807,"sk":808,"ew":809,"ags":810,"ти":811,"ann":812," —":813,"ert":814,"ace":815,"sch":816," need":817," à":818,"ien":819,"ough":820,"не":821," def":822,"ij":823,"ern":824," what":825," Ar":826,"wo":827,"ml":828,"</":829," Re":830," es":831," inst":832,"bo":833,"az":834," ###":835," б":836,"erm":837," Al":838,"led":839,"да":840,"ten":841,"set":842,"ло":843," comm":844,"sh":845,"ва":846," /":847," data":848," //":849,"](":850," str":851,"ose":852," Un":853,"ven":854,"St":855,"...":856," С":857,"yst":858," «":859,"ick":860,"ix":861,"par":862," у":863," want":864,"ng":865,"ote":866," gr":867," du":868," .":869,"und":870," only":871," sa":872,"ely":873,"vers":874," ent":875,"))":876,"('":877," mod":878,"ava":879,"ton":880," should":881,"ement":882," form":883," also":884," sc":885,"ings":886," You":887,"ón":888," kn":889,"();":890," |":891," were":892,"ss":893," Question":894,"ise":895," they":896," De":897,"ond":898," sol":899," fol":900," more":901," her":902," _":903," é":904,"atch":905,"fter":906," cre":907,"lock":908,"tring":909," This":910,"ze":911,"ado":912,"ull":913,"ger":914,"be":915," other":916," Tags":917,"ution":918,"ict":919," how":920," x":921," Se":922," che":923,"cript":924," just":925," pos":926,"ange":927,"ific":928,"ree":929,"}}":930," time":931,"app":932,"ны":933," file":934,"ark":935,"ical":936," first":937," int":938," В":939," He":940,"ta":941,"ument":942,"ors":943,"lement":944,"rac":945," ag":946," does":947,"yn":948,"read":949,"ual":950," Le":951,"ys":952," em":953," num":954,"vel":955,"ди":956,"over":957," dif":958,"ethod":959," If":960," spe":961,"ym":962," them":963," into":964,"          ":965," les":966," its":967,"ese":968,"ield":969," public":970," П":971," den":972,"ystem":973,"of":974," over":975,"->":976," fil":977,"name":978,"inal":979," il":980,"ample":981," way":982,"ica":983,"во":984,"cess":985,"itt":986,"uch":987," where":988,"ми":989,"org":990,"https":991," vo":992,"ient":993,"ove":994," value":995,"eng":996," La":997,"^{":998,"ref":999,"ied":1000,"ER":1001," stat":1002,"fig":1003,"me":1004," von":1005," inter":1006,"roid":1007,"ater":1008," their":1009," bet":1010," ein":1011,"}\\":1012,"\">":1013," sub":1014," op":1015," don":1016,"ty":1017," try":1018," Pro":1019," tra":1020," same":1021,"ep":1022," two":1023," name":1024,"old":1025,"let":1026," sim":1027,"sp":1028," av":1029,"bre":1030,"blem":1031,"ey":1032," could":1033," cor":1034," acc":1035,"ays":1036,"cre":1037,"urr":1038,"si":1039," const":1040,"ues":1041,"}$":1042,"View":1043," act":1044," bo":1045," ко":1046," som":1047," about":1048,"land":1049,"mer":1050," list":1051,"cal":1052," import":1053,"col":1054," na":1055,"na":1056,"::":1057," who":1058," error":1059," X":1060,"ator":1061,"ext":1062," been":1063,"ér":1064," run":1065,"pos":1066," cl":1067,"**":1068," К":1069,"ular":1070,"ause":1071," reg":1072," know":1073," see":1074," him":1075,"ning":1076," за":1077,"ates":1078,"fore":1079,"ions":1080," hel":1081,"ute":1082," rem":1083," го":1084," Mar":1085,"ру":1086,"vice":1087,"irect":1088,"ner":1089," under":1090,"rib":1091,"hr":1092,"че":1093," As":1094," end":1095,"ember":1096," а":1097," att":1098,"ina":1099,"son":1100," follow":1101," Sch":1102,"pect":1103," rel":1104," So":1105," look":1106,"abel":1107," problem":1108," van":1109,"strong":1110,"co":1111,"pon":1112,"ca":1113,"ada":1114,"\":":1115,"cond":1116,"amb":1117,"},":1118,"quest":1119," aut":1120," result":1121," may":1122,"Re":1123,"http":1124,"):":1125," And":1126,"red":1127," How":1128,"po":1129,"ско":1130,"att":1131,"oup":1132,"ced":1133," type":1134," than":1135," cons":1136,"uf":1137,"ци":1138," question":1139,"raph":1140,"igh":1141," М":1142," htt":1143,"ins":1144,"den":1145," da":1146," ver":1147,"oh":1148," =>":1149,"riv":1150,"ude":1151," For":1152," ra":1153,"frac":1154,"ма":1155," after":1156,"}{":1157," method":1158,"\")":1159,"amp":1160,"ash":1161," rec":1162," differ":1163,"ON":1164,"ax":1165,"ament":1166,"ource":1167,"Con":1168,"its":1169,"Name":1170,"man":1171," bec":1172,"che":1173," En":1174,"aj":1175," gener":1176,"IN":1177," id":1178,"ages":1179," loc":1180,"fo":1181,"br":1182," she":1183,"Pro":1184," una":1185," к":1186,"eta":1187,"log":1188,"olog":1189," sur":1190,"arg":1191," --":1192,"kt":1193,"(\\":1194,"min":1195," line":1196," vari":1197,"ся":1198,"ics":1199,"ня":1200,"very":1201,"add":1202," object":1203,"Id":1204," But":1205," case":1206," make":1207," cal":1208," pass":1209,"сь":1210,"ession":1211,"net":1212,".\"":1213," г":1214,"är":1215,"де":1216,"no":1217,"ating":1218,"ato":1219,"line":1220,"ви":1221," Ex":1222," ass":1223," vers":1224,"ля":1225," ed":1226,"umn":1227,"other":1228,"ста":1229,"ative":1230,"String":1231," los":1232,"wn":1233," answer":1234," let":1235," pe":1236,"ents":1237," fe":1238,"ince":1239,"ni":1240,"ider":1241,"ows":1242," test":1243," here":1244,"roll":1245," call":1246,"ruct":1247," pol":1248,"ait":1249," back":1250,"ho":1251,"Ex":1252,"ress":1253,"ST":1254,"ried":1255,"date":1256,"ет":1257," did":1258,"ting":1259," El":1260," dem":1261,")$":1262,"ова":1263,"urrent":1264,"lace":1265,"right":1266,"ren":1267,"по":1268," each":1269,"cy":1270,"block":1271,"data":1272," %":1273," ac":1274," ==":1275,"ür":1276," por":1277,"ask":1278,"arch":1279,"ames":1280," Con":1281,"ча":1282," off":1283," find":1284,"cont":1285," now":1286,"work":1287,"ational":1288,"dd":1289,"ción":1290," А":1291,"ault":1292,"List":1293," ext":1294,"urs":1295,"ake":1296,"ule":1297," point":1298,"AT":1299,"aut":1300," trans":1301," co":1302," read":1303," used":1304,"ски":1305,"ari":1306,"LE":1307,"eter":1308,"oun":1309,"ever":1310,"self":1311,"ined":1312,"idth":1313,"ux":1314,"js":1315," such":1316," Is":1317,"ée":1318,"ful":1319," dist":1320," bu":1321,"itemize":1322,"Cont":1323,"je":1324,"си":1325," prov":1326,"bb":1327,"ward":1328,"esent":1329,"erson":1330,"anks":1331,"wh":1332,"not":1333," We":1334,"ka":1335,"rop":1336,"atur":1337,"als":1338," bel":1339,"ör":1340,"fr":1341," example":1342," incl":1343,"amil":1344," ра":1345," “":1346," string":1347," think":1348,"Th":1349," tem":1350,"ave":1351," Fran":1352," number":1353," si":1354,"imes":1355,"tem":1356,"my":1357,"ler":1358,"load":1359,"==":1360," hand":1361,"za":1362," because":1363," sch":1364,"vo":1365,"this":1366,"ID":1367,"ão":1368," start":1369," war":1370," help":1371,"ts":1372," char":1373," ph":1374," min":1375,"til":1376,"rite":1377,"--------":1378,"els":1379," mit":1380,"edia":1381,"ку":1382," Sh":1383,"any":1384,"];":1385," Б":1386,"ique":1387,"da":1388,"ef":1389,"dex":1390," produ":1391," Н":1392,"gram":1393," Or":1394," gre":1395,"quote":1396,"leg":1397,"orn":1398," ind":1399," post":1400," dep":1401,"],":1402,"vi":1403," user":1404," >":1405,"lick":1406," very":1407,"ething":1408," array":1409," gu":1410," dur":1411,"`.":1412,"ть":1413,"lication":1414,"сти":1415,"ek":1416,"ico":1417," dat":1418,"ор":1419,"html":1420,"ione":1421," different":1422," check":1423," fr":1424," Er":1425," text":1426,"ні":1427,"icht":1428,"stack":1429,"EN":1430,"rag":1431," every":1432,"Ar":1433," before":1434,"alse":1435," fin":1436," dé":1437," these":1438," det":1439,"Val":1440,"ception":1441," android":1442,"blockquote":1443," je":1444,"file":1445,"ats":1446," до":1447,"essage":1448," again":1449,"aw":1450,"Ch":1451,"ween":1452," Д":1453,"for":1454,"cial":1455,"play":1456,"pre":1457,"ida":1458," Par":1459,"ny":1460,"ract":1461," supp":1462,"ased":1463,"lection":1464," dans":1465,"air":1466,"rol":1467," thr":1468,"Data":1469,"lich":1470," про":1471," long":1472," second":1473,"ually":1474,"ines":1475," found":1476,"ength":1477,"yp":1478,"ead":1479," log":1480,"ui":1481,"new":1482," Р":1483,"go":1484,"aus":1485,"ody":1486," son":1487,"ме":1488,"ero":1489,"ved":1490,"sub":1491," right":1492,"view":1493," following":1494,"')":1495,"\");":1496," said":1497,"же":1498,"чи":1499,"ту":1500,"ott":1501,"се":1502,"ars":1503,"$.":1504,"gg":1505," br":1506,"ool":1507,"yle":1508,"use":1509," show":1510,"lease":1511,"cia":1512," direct":1513,"doc":1514,"ар":1515,"ms":1516," giv":1517," exp":1518,"ql":1519,"ду":1520,"ве":1521," Be":1522,"Com":1523,"iter":1524,"RE":1525,"mp":1526,"men":1527," Ro":1528,"MA":1529," Col":1530,"ister":1531," well":1532," </":1533,"ayout":1534,"ature":1535,"ivers":1536,"zy":1537," не":1538," met":1539,"une":1540,"yth":1541,"Type":1542," element":1543," link":1544,"mod":1545," between":1546,"cept":1547,"quire":1548," through":1549," while":1550," On":1551,"the":1552,"ía":1553," something":1554,"vol":1555," most":1556,"sc":1557,"uss":1558," car":1559," sm":1560," ро":1561,"ano":1562,"left":1563,"va":1564," true":1565,"($":1566,"ems":1567," much":1568,"ás":1569," New":1570," proper":1571,"era":1572,"ited":1573," doc":1574,"ices":1575,"The":1576," ?":1577,"сто":1578,"fl":1579," spec":1580,"ender":1581,"way":1582," self":1583," even":1584,"ів":1585," се":1586,"ния":1587," Pr":1588," ke":1589,"emb":1590," table":1591," equ":1592,"lient":1593,"td":1594,"part":1595," print":1596," une":1597,"ify":1598," ->":1599,"ene":1600," mon":1601," dec":1602," still":1603," об":1604," Tr":1605," ф":1606,"ife":1607,"ism":1608,"by":1609,"raw":1610,"ior":1611," med":1612,"orld":1613," comple":1614,"ww":1615," art":1616,"ron":1617," Г":1618," My":1619," als":1620,"rect":1621," auf":1622," down":1623,"ather":1624,"Col":1625,"Text":1626,"back":1627,"$,":1628," year":1629,"мо":1630,"pi":1631," Gr":1632,"ream":1633," rep":1634,"bf":1635,"www":1636," wur":1637," org":1638,"inter":1639," Die":1640," being":1641,"\".":1642,"label":1643," cent":1644,"java":1645,"bar":1646,"ante":1647,"ana":1648,"__":1649," solution":1650," О":1651," fl":1652," create":1653,"ici":1654,"ste":1655,"ython":1656,"unt":1657,"ason":1658,"ference":1659,"SE":1660," non":1661,"ane":1662," ins":1663,"ader":1664,"_{\\":1665,"Res":1666," main":1667,"пи":1668,"              ":1669," There":1670," pour":1671,"RO":1672,"`,":1673,"lish":1674,"bject":1675,"ccess":1676," orig":1677,"   ":1678,"ischen":1679,"ower":1680," het":1681,"uc":1682," else":1683,"».":1684," от":1685,"equ":1686,"sible":1687,"test":1688,"stand":1689,"én":1690,"ets":1691,"GE":1692,"ident":1693," е":1694," при":1695,".,":1696," das":1697,"ock":1698,",\"":1699," vol":1700," fo":1701," para":1702," Т":1703," Car":1704,"ral":1705," Sp":1706,"var":1707," play":1708,"ouse":1709," та":1710,"ically":1711," contain":1712,"ponse":1713," String":1714,"án":1715," both":1716,"ken":1717,"AR":1718,"ере":1719," Il":1720," iss":1721," open":1722," )":1723," What":1724,"fe":1725,"rivate":1726,"reg":1727," without":1728," zu":1729,"vis":1730,"flow":1731," http":1732,"abase":1733," word":1734," change":1735," works":1736," ge":1737," !":1738," een":1739,"itle":1740," event":1741,"word":1742,"ando":1743,"SB":1744,"rem":1745," field":1746,"ving":1747,"Ser":1748," our":1749," qui":1750," oper":1751," ist":1752,"def":1753," made":1754,"ние":1755,"px":1756," men":1757,"rm":1758,"ais":1759,"cent":1760,"list":1761,"To":1762," To":1763,"ja":1764,"vert":1765," mar":1766,"value":1767," „":1768,"\";":1769," aus":1770," Br":1771,"ole":1772," mult":1773,"ought":1774," mat":1775," view":1776,"fil":1777," со":1778,"га":1779," void":1780," good":1781,"бо":1782,"CT":1783," many":1784,"ben":1785," во":1786," ка":1787," system":1788,"ino":1789," another":1790," rest":1791,"user":1792,"ility":1793,"ai":1794," might":1795,"ustom":1796," order":1797," Ver":1798,"SS":1799,"})":1800," eff":1801,"до":1802,"ett":1803," sign":1804,"му":1805,"IT":1806,"string":1807,"elle":1808," sing":1809,"cul":1810," trying":1811," beg":1812," page":1813,"хо":1814," Can":1815," Ser":1816,"++":1817," must":1818," values":1819," key":1820,"ible":1821,"].":1822,"ird":1823," program":1824,"roller":1825," conne":1826," say":1827," param":1828,"ache":1829,"velop":1830," select":1831," famil":1832," last":1833," Thanks":1834," pop":1835,"}.":1836,"eq":1837," doesn":1838,"['":1839," term":1840," ré":1841," document":1842,"па":1843,"лу":1844,"ateg":1845,".)":1846,"ling":1847,"ional":1848,"ables":1849," tak":1850,"utton":1851," arg":1852,"type":1853," sure":1854," real":1855," web":1856," current":1857," Pl":1858,"cho":1859,"ments":1860," Joh":1861,"ots":1862," exist":1863,"ну":1864," für":1865," из":1866,"do":1867,"ного":1868," las":1869," null":1870," inform":1871," Л":1872," version":1873," chang":1874,"ager":1875," Comm":1876,"лі":1877,"ush":1878," Ge":1879," high":1880," input":1881,"ogle":1882,"ros":1883,"box":1884,"gen":1885," ste":1886," local":1887,"Im":1888," process":1889,"ternal":1890,"ized":1891,"ги":1892,"ét":1893," Ind":1894," och":1895,"lt":1896," column":1897," tried":1898," command":1899," best":1900,"aster":1901,"за":1902," prim":1903," model":1904," і":1905," those":1906,"ities":1907,"ère":1908," ре":1909,"је":1910,"ши":1911,"ques":1912," Am":1913," own":1914,"lin":1915,"зи":1916,"Value":1917,"thing":1918," ,":1919," Te":1920," stud":1921," um":1922," server":1923,"ille":1924," put":1925,"ativ":1926,"gy":1927,"ови":1928,"raf":1929,"ово":1930," wurde":1931," When":1932," div":1933,"ants":1934," ter":1935," partic":1936," т":1937," Do":1938," No":1939,"sert":1940,"ido":1941,"mathcal":1942,"ade":1943," II":1944,"lear":1945,"ograph":1946,"ense":1947," row":1948,"num":1949," possible":1950," since":1951," Bo":1952,"ctions":1953," Im":1954,"OR":1955,"ці":1956," ide":1957,"map":1958," correct":1959,"ves":1960,"php":1961," output":1962," Ph":1963,"AL":1964,"ared":1965,"\\\\":1966," image":1967,"esch":1968,"жи":1969," conf":1970,"por":1971,"query":1972,"ures":1973,"ium":1974,"ends":1975," Ab":1976,"SBN":1977,"ід":1978,"ether":1979,"ptions":1980,"itu":1981,"lib":1982,"ns":1983,"ki":1984," working":1985," como":1986," Then":1987,"ML":1988,"key":1989,"class":1990,"ople":1991,"ittle":1992," match":1993,"ways":1994,"mathbb":1995," require":1996,"alt":1997," vis":1998," bl":1999," called":2000,"Item":2001,"ura":2002,"vec":2003,"eme":2004," della":2005,"embre":2006,"urg":2007,"Se":2008," request":2009,"ische":2010," port":2011," instead":2012,"=\\":2013," У":2014,"hor":2015,"ente":2016,"ume":2017,"erd":2018,"са":2019," why":2020,"rist":2021," person":2022," ...":2023," private":2024," tot":2025,"pha":2026,"ift":2027,"ita":2028,"loc":2029," old":2030,"он":2031," nel":2032,"']":2033,"ti":2034,"iet":2035,"cite":2036,"plement":2037," above":2038,"ks":2039,"ready":2040," come":2041,"section":2042," Pol":2043," writ":2044," https":2045," $$":2046," »":2047," build":2048,"ito":2049," consider":2050,"aft":2051,"App":2052,",\\":2053,"indows":2054,"comm":2055," ;":2056,"ground":2057," place":2058,"By":2059," project":2060,"Object":2061," repr":2062,"ences":2063,"indow":2064,"zt":2065," files":2066,"cz":2067,"ivity":2068," init":2069," prob":2070," sk":2071,"orth":2072,"iment":2073,"ouble":2074,"atal":2075,"irc":2076," è":2077," bre":2078,"ista":2079,"input":2080," И":2081,"ной":2082,"sum":2083,"path":2084," cour":2085," too":2086," Ad":2087," Gu":2088," false":2089," fun":2090," ст":2091,"ood":2092,"ès":2093," enc":2094,"bol":2095,"rl":2096,"arget":2097,"order":2098," mean":2099,"пе":2100,"igen":2101," пре":2102,"width":2103,";\r":2104,"itor":2105," state":2106," great":2107,"enn":2108,"bin":2109,"Er":2110,"Mod":2111,"oz":2112," won":2113," fact":2114," java":2115," Univers":2116," cap":2117,"istor":2118,"}(":2119,"ku":2120,"ither":2121,"ales":2122," ou":2123,"ross":2124," take":2125,"rix":2126,"lob":2127," eine":2128,"ases":2129," access":2130,"ité":2131,"istr":2132,"ization":2133," appro":2134,"ball":2135," mak":2136,"}^":2137," Cons":2138,"press":2139,"serv":2140,"().":2141,"af":2142," ref":2143,")\\":2144," contin":2145,"su":2146,"iver":2147," cond":2148," expect":2149," charact":2150,"bert":2151,"elt":2152,"ters":2153,"script":2154," Ed":2155,"apt":2156,"');":2157,"print":2158," size":2159," sich":2160,"face":2161,"enden":2162," Amer":2163,"ified":2164,"ów":2165," Su":2166,"tes":2167,"med":2168," Reg":2169,"sole":2170," includ":2171,"ini":2172,"inci":2173," pla":2174," left":2175,"df":2176,"Par":2177," All":2178," occ":2179," At":2180," cr":2181,"Qu":2182," given":2183," System":2184,"ican":2185," final":2186,"itions":2187," бы":2188," perform":2189,"AN":2190," Me":2191,"uro":2192," That":2193,"гра":2194," По":2195," ви":2196,"ably":2197," present":2198,"duct":2199,"ric":2200," Eng":2201,"try":2202," lar":2203,"bl":2204,"idd":2205," är":2206,"ora":2207,"LL":2208,"oss":2209," ISBN":2210," three":2211,"jo":2212,"ní":2213,"rc":2214," far":2215," Not":2216," little":2217,"dis":2218,"ati":2219,"function":2220," able":2221,"less":2222,"со":2223," path":2224," pres":2225,"lose":2226,"PI":2227," issue":2228,"ackage":2229,"time":2230,"ige":2231,"ams":2232," Cl":2233,"ails":2234,"alk":2235,"ii":2236,"ше":2237,"pen":2238,"QL":2239," eas":2240,"RL":2241,"cel":2242," sl":2243," ask":2244," nom":2245," top":2246,"ides":2247,"index":2248,"ém":2249," happ":2250,"ox":2251,"cd":2252," better":2253," load":2254,"ados":2255,"zen":2256," ce":2257," fa":2258," John":2259,"IMA":2260," Bar":2261,"overflow":2262," де":2263,"ness":2264,"cer":2265," Here":2266,"ret":2267," sz":2268,"ambda":2269,"opy":2270,"url":2271,"py":2272,"rt":2273," understand":2274,"ał":2275,"her":2276,"##":2277," child":2278," exec":2279," application":2280," struct":2281," я":2282,"File":2283," cert":2284,"ison":2285," variable":2286,"DE":2287,"rs":2288," really":2289,"Port":2290,"ba":2291," Ber":2292," inte":2293," static":2294," config":2295," She":2296,"estions":2297," plus":2298," hab":2299,"ope":2300," mus":2301," count":2302,"ME":2303," support":2304," people":2305," beh":2306," already":2307,"Tr":2308," done":2309,"dem":2310,"size":2311,"alpha":2312," disc":2313,"])":2314," Man":2315," mil":2316," stand":2317," group":2318," small":2319," mag":2320,"сть":2321," default":2322," single":2323,"link":2324,"clude":2325," ear":2326,"ilar":2327,"****":2328," fix":2329,"ley":2330," pas":2331,"ний":2332,"ission":2333," implement":2334,"itch":2335," года":2336," always":2337," Jah":2338,"pring":2339,"ção":2340,"plate":2341," descri":2342," head":2343,"init":2344,"ograf":2345," query":2346,"ived":2347," ing":2348,"pty":2349,"ha":2350," mov":2351," э":2352,"ette":2353,"ily":2354," got":2355,"iled":2356,"icro":2357," wr":2358,"ря":2359," never":2360,"ores":2361," bas":2362,"ios":2363,"lack":2364,"aint":2365,"vious":2366," give":2367,"idad":2368,"En":2369,"ный":2370,"table":2371," На":2372," pat":2373,"тор":2374,"angu":2375,"loy":2376," seg":2377,"array":2378," Fl":2379," index":2380," sw":2381,"IMAGE":2382," km":2383,"би":2384,"Class":2385,"ena":2386,"мен":2387,"comp":2388,"atus":2389,"rap":2390," List":2391,"Error":2392," typ":2393," ма":2394,"cs":2395,"':":2396,"ji":2397," However":2398," те":2399," below":2400," App":2401,"ще":2402,"}_":2403,"bum":2404,"vir":2405,"ées":2406," record":2407,"tain":2408,"lem":2409,"ital":2410," imp":2411,"ego":2412," od":2413," rece":2414,"mit":2415,"ffic":2416,"stackoverflow":2417,"ieve":2418," З":2419," nov":2420,"це":2421," Intern":2422,"bu":2423," sugg":2424," loop":2425,"ride":2426," $(":2427," super":2428,"rid":2429,"ных":2430," Per":2431," dom":2432,"='":2433,"utsch":2434,"len":2435," write":2436," inv":2437,"outh":2438," Her":2439," years":2440," original":2441,"ega":2442," Ste":2443," seems":2444,"ég":2445," next":2446,"eder":2447," Ne":2448,"avas":2449,"ification":2450,"Exception":2451," Der":2452," ve":2453,"atic":2454,"hat":2455,"brary":2456,"return":2457,"urch":2458,"ision":2459,"mi":2460,"oint":2461," day":2462,"iction":2463,"ál":2464," és":2465," though":2466,"action":2467,"ít":2468,"ungen":2469,"ours":2470," script":2471," information":2472," multi":2473," \\\\":2474,"ster":2475,"ке":2476,"AC":2477,"cies":2478," display":2479,"oman":2480,"Time":2481,"ius":2482,"));":2483,"tre":2484," lim":2485,"ately":2486,"éd":2487,"iste":2488," са":2489,"post":2490,"uel":2491,"img":2492," ч":2493,"ска":2494,"eld":2495,"pper":2496,"ula":2497," general":2498,"Al":2499,"Form":2500," upon":2501,"zo":2502,"amente":2503," prom":2504," ü":2505,"lex":2506," turn":2507," ме":2508,"ention":2509,"лен":2510," af":2511,"icle":2512,"ств":2513," Fil":2514," Ф":2515,"avascript":2516,"Man":2517,"ara":2518,"ware":2519,"align":2520,"angle":2521," Sc":2522,"unic":2523," fran":2524,"Un":2525,"zi":2526,"met":2527,"Add":2528," pub":2529,"ков":2530," gen":2531," pod":2532," sum":2533," having":2534," avec":2535,"sl":2536," fig":2537," Res":2538,"Date":2539,"ules":2540,"with":2541,"ский":2542,"gu":2543,"ET":2544," bro":2545,"rie":2546,"aps":2547,"ending":2548,"mail":2549,"ook":2550," success":2551,"berg":2552," deb":2553,"elta":2554,"()`":2555,"ential":2556,"frame":2557,"Key":2558,"inn":2559," simple":2560,"ival":2561," care":2562," Web":2563,"\").":2564,"></":2565," database":2566," Now":2567,"Ind":2568," мо":2569,"cht":2570,"ban":2571,"ram":2572,"equation":2573,"ski":2574,"ief":2575,"lim":2576,"Get":2577," tre":2578,"aten":2579,"bed":2580," Je":2581," results":2582,"лю":2583,"тель":2584,"db":2585," bit":2586,"body":2587,"Array":2588,"mu":2589,"pression":2590," ста":2591,"ony":2592,"iff":2593," bar":2594," Arch":2595,"bers":2596,"){":2597," Mon":2598," doing":2599," prof":2600," install":2601," position":2602,"ema":2603," });":2604,"Path":2605,"ali":2606," &&":2607,"lev":2608," cannot":2609," May":2610,"inst":2611,"-\\":2612," coun":2613," ang":2614," appear":2615,"cor":2616,"ció":2617,"ided":2618,"questions":2619,"atter":2620," Pa":2621,"select":2622," princi":2623,"Event":2624," side":2625," mem":2626," Jan":2627,"ario":2628," within":2629," Val":2630,"odes":2631,"iddle":2632,"uration":2633,"bra":2634," date":2635,"[]":2636," entre":2637,"ili":2638,"Portail":2639,"docs":2640,"ской":2641,"Element":2642," message":2643," nach":2644," during":2645," gra":2646,"etwork":2647," By":2648," tell":2649,"ete":2650,"~\\":2651," bis":2652," pu":2653," red":2654," thing":2655," sort":2656,"xim":2657,"ires":2658,"User":2659,"iod":2660," Est":2661,"osed":2662,"oute":2663," Les":2664," sent":2665,"ribute":2666,"utes":2667,"istory":2668," service":2669,"';":2670,"field":2671," IN":2672,"ension":2673,"rel":2674," going":2675,"web":2676,"Context":2677," later":2678,"uk":2679,"layout":2680,"ona":2681,"át":2682,"----------------":2683," exact":2684,"andom":2685," sie":2686,"II":2687," They":2688,"mente":2689,"ibli":2690," fine":2691,"UT":2692," develop":2693," Ein":2694,"soft":2695,"off":2696,"Set":2697," az":2698,"eters":2699,"ilder":2700,"ples":2701," specific":2702," om":2703,"error":2704,"ently":2705," film":2706,"uck":2707,"ains":2708,"ación":2709,"ges":2710,"жа":2711," things":2712,"Sh":2713," thought":2714," added":2715,"dep":2716,"ского":2717," Li":2718,"ils":2719,"ync":2720," то":2721,"ries":2722," cu":2723,"chen":2724,"ION":2725," Des":2726,"ultado":2727,"irt":2728," based":2729," mo":2730," dest":2731,"png":2732,"reen":2733," running":2734,"amma":2735,"oud":2736," refer":2737,"ious":2738," Jul":2739," search":2740,"ald":2741,"ede":2742," wrong":2743,"An":2744," until":2745,"site":2746,"ayer":2747," once":2748,"arr":2749," against":2750,"====":2751," source":2752,"arn":2753,"api":2754," represent":2755," aff":2756," sein":2757," allow":2758,"ormal":2759,"ended":2760," control":2761,"mathbf":2762,"come":2763,"cur":2764,"endo":2765,"wa":2766," update":2767," inside":2768," reason":2769,"omen":2770," вы":2771,"De":2772," је":2773,"sw":2774," sever":2775,"Of":2776," instance":2777," mer":2778," effect":2779,"color":2780,"ugust":2781,"ilt":2782,"des":2783,"itz":2784,"ulation":2785,"nie":2786," World":2787," similar":2788,"ymbol":2789,"hing":2790," mark":2791,"State":2792," content":2793," means":2794,"amed":2795," End":2796,"ND":2797,"count":2798," Inst":2799,"perty":2800,"ctor":2801," {\\":2802," Let":2803," !=":2804," getting":2805,"uth":2806,"umber":2807," Consultado":2808,"schaft":2809,"lete":2810," Will":2811," Em":2812,"head":2813," leg":2814,"ном":2815,"Or":2816,"arm":2817,"pond":2818," Christ":2819," around":2820," clear":2821," href":2822," See":2823,"').":2824," created":2825," button":2826,"ining":2827," click":2828,"iam":2829,"plit":2830,"For":2831," polit":2832," seem":2833," life":2834,"нов":2835," intern":2836,"щи":2837,"sel":2838,"soci":2839," stor":2840,"cle":2841,"earch":2842,"android":2843,"}^{":2844," either":2845," few":2846," initial":2847,"length":2848,"ria":2849,"sql":2850,"wik":2851," ét":2852,"uer":2853," valid":2854,"And":2855,"include":2856,"ury":2857," sus":2858,"ired":2859," After":2860," due":2861," bei":2862,"ources":2863," Nov":2864,"Act":2865," Cont":2866," break":2867,"ested":2868," actually":2869,"else":2870,"tml":2871,"rer":2872,"ones":2873," design":2874," property":2875,"phi":2876,"ality":2877,"och":2878,"ists":2879," ·":2880,"udio":2881,"AB":2882,"ala":2883,"iones":2884,"фи":2885,"find":2886,"As":2887," custom":2888," ann":2889,"ES":2890,"OT":2891,"lambda":2892," ident":2893," organ":2894," Cent":2895," Char":2896," os":2897," hard":2898,"ров":2899," />":2900,"ko":2901," exper":2902," separ":2903,"yl":2904,"ourn":2905," dev":2906," auch":2907," block":2908,"book":2909," map":2910,"illa":2911," comput":2912," space":2913,"result":2914,")}":2915," echo":2916,"config":2917,"hi":2918," large":2919," width":2920," Go":2921,"mat":2922," diff":2923," kind":2924,"ances":2925,"ynam":2926," color":2927,"Int":2928,"sol":2929," pi":2930," character":2931,"oment":2932," response":2933,"igma":2934,"wards":2935,"arrow":2936,"су":2937,"ties":2938," über":2939,"Image":2940,"yd":2941," пере":2942," node":2943," item":2944,"achine":2945,"ima":2946," va":2947," approach":2948," wer":2949," че":2950,"On":2951,"ollow":2952,"она":2953,"cted":2954,"ured":2955,"Controller":2956,"lied":2957," jo":2958," dal":2959,"unk":2960," î":2961,"start":2962,"ola":2963," compon":2964,"IC":2965,"bit":2966," base":2967,"пу":2968," idea":2969," dire":2970," rad":2971,"group":2972," With":2973,"server":2974,"side":2975,"sing":2976," dies":2977," near":2978," voor":2979," argument":2980," },":2981," land":2982," names":2983," option":2984,"ithub":2985,"pped":2986,"aug":2987," links":2988," full":2989," situ":2990," console":2991," etc":2992,"aux":2993," Cor":2994,"icrosoft":2995," came":2996,"local":2997," known":2998," multiple":2999,"anguage":3000," total":3001,"ology":3002,"ät":3003," Х":3004," fre":3005," ten":3006,"ideo":3007," bes":3008,"true":3009,"Query":3010,"omm":3011," Art":3012," keep":3013," University":3014,"reate":3015,"pport":3016," python":3017,"tra":3018,"ector":3019,"рі":3020,"oph":3021," conc":3022," four":3023,"viron":3024," via":3025,"?\"":3026,"image":3027,"oll":3028,"ные":3029," context":3030," sem":3031,"._":3032," eng":3033,"mar":3034,"AD":3035," mor":3036," Cal":3037," cell":3038,"imal":3039,"ATE":3040," inf":3041,"ön":3042,"uffer":3043,"sq":3044,"....":3045," zur":3046,"With":3047,"ран":3048,"chn":3049," door":3050,"content":3051," miss":3052," simp":3053,"ár":3054,"ira":3055," hat":3056,"Test":3057," certain":3058,"NS":3059," cho":3060," adv":3061,"where":3062," looking":3063," times":3064,"них":3065,"uto":3066," É":3067,"can":3068,"host":3069," (*":3070,"loat":3071," nicht":3072,"Field":3073,"burg":3074,"const":3075,"ades":3076," Mus":3077," nothing":3078," incre":3079," Min":3080," power":3081," American":3082,"ln":3083,"valid":3084,"ungs":3085," National":3086," San":3087," York":3088,"Request":3089,"char":3090," Ze":3091,"button":3092," alg":3093,"SON":3094," ap":3095,"uff":3096,"ability":3097,"ем":3098," anything":3099,"ela":3100,"())":3101,"ба":3102,"ampion":3103," pot":3104," fut":3105,"ailable":3106," prop":3107,"\"]":3108," less":3109,"lag":3110," August":3111,"It":3112," please":3113," style":3114," Also":3115,"bt":3116," probably":3117," One":3118," poss":3119,"UI":3120,"uit":3121," West":3122,"hn":3123,"+\\":3124,"Button":3125,"json":3126,"err":3127,"rame":3128,"dom":3129,"ilon":3130,"alf":3131," client":3132," continu":3133,"xml":3134,"pec":3135,"ador":3136,"ls":3137," however":3138," Any":3139,"änd":3140,"mathrm":3141," url":3142," book":3143," gl":3144,"ives":3145,"gi":3146," tro":3147," US":3148,"point":3149,"open":3150," cur":3151," era":3152," particular":3153," HT":3154,"oot":3155,"ello":3156,"lobal":3157," action":3158," Int":3159," include":3160," elements":3161,"ная":3162,"ards":3163," Bl":3164," hum":3165,"from":3166,"change":3167," functions":3168,"hen":3169,"Service":3170," height":3171," Land":3172,"ias":3173,"gs":3174,"ión":3175,"лов":3176,"node":3177,".”":3178,"hand":3179," бу":3180," amb":3181," Lu":3182," throw":3183," mot":3184," Act":3185," world":3186,"_\\":3187,"base":3188," Co":3189," arch":3190," ####":3191,"ged":3192,"pril":3193,"older":3194,"Model":3195," several":3196,"lie":3197,"check":3198,"]{":3199,"cons":3200," Tra":3201,"heck":3202," least":3203,"down":3204,"ebru":3205,"Def":3206,"param":3207,"ischer":3208," cas":3209,"CH":3210," address":3211," раз":3212,"ufen":3213,"urope":3214,"ей":3215," bound":3216,"CO":3217," Ang":3218," Ma":3219,"Index":3220,"core":3221,"ouch":3222,"atabase":3223,"ribution":3224,"document":3225,"Le":3226,"}_{":3227,"vern":3228," statement":3229," Brit":3230,"ono":3231,"psilon":3232," level":3233," product":3234,"IS":3235," course":3236," Mr":3237,">\r":3238," background":3239," ret":3240,"ering":3241,"most":3242,"сько":3243," thread":3244,"itional":3245,"ites":3246,"Pl":3247," dos":3248,"ga":3249,"day":3250," Gener":3251," tw":3252,"Ad":3253,"\"><":3254," ($":3255," moment":3256,"title":3257,"create":3258,"version":3259,"Manager":3260," fur":3261,"pping":3262,"ijn":3263,"ос":3264," rather":3265,"ptember":3266,"OS":3267," site":3268," caus":3269,"ani":3270," home":3271,"мі":3272," short":3273,"pa":3274," lead":3275,"ished":3276,"cing":3277,"ording":3278," prote":3279,"сле":3280,"LECT":3281," didn":3282,"position":3283,"\",\"":3284,"(),":3285,"trans":3286," lot":3287," од":3288,"AS":3289," sat":3290," points":3291,"github":3292,"style":3293," году":3294," Dis":3295,"ponent":3296,"omet":3297,"zer":3298,"ULL":3299," pa":3300,"AP":3301,"aces":3302," United":3303,"ama":3304,"ety":3305,"Color":3306," enough":3307,"US":3308," length":3309,"());":3310,"^{\\":3311,"fty":3312,"Box":3313,"apter":3314," complet":3315,"ник":3316,"max":3317,"object":3318,"({":3319,"imgur":3320,"itive":3321,"unch":3322," Sub":3323,"ende":3324,"гу":3325,"ategory":3326,"ты":3327,"iano":3328," upd":3329," Aust":3330,"}{\\":3331,"top":3332,"las":3333,"pis":3334,"iness":3335," {\r":3336," Е":3337,"Gr":3338," AS":3339," ве":3340,"thers":3341," defined":3342,"azione":3343," offic":3344," autom":3345,"ün":3346," brow":3347," serv":3348," remove":3349,"iro":3350," Bibli":3351,"ED":3352," whole":3353," ш":3354," Java":3355," zum":3356,"ua":3357,"pm":3358,"dev":3359,"кра":3360,"olds":3361," War":3362,"än":3363,"pass":3364,"uz":3365,"[\"":3366," tri":3367,"ised":3368,"ха":3369," memory":3370," Port":3371,"oper":3372,"Up":3373," Thank":3374," Mich":3375,"ych":3376,"board":3377,"бу":3378,"Inst":3379," begin":3380,"ination":3381," Mod":3382,"_,":3383," Den":3384,"option":3385," construct":3386," Just":3387,"Map":3388,"run":3389," respect":3390,"ham":3391,"ман":3392,"imedia":3393," apply":3394,"cription":3395,"main":3396," Ка":3397,"oid":3398,"Code":3399,"};":3400,"Info":3401," format":3402,"Log":3403," су":3404," lat":3405,"utor":3406," reference":3407," calcul":3408,"onn":3409,"Lo":3410,"infty":3411," along":3412," č":3413," task":3414," ev":3415,"theta":3416,"ras":3417,"jor":3418," бо":3419," princip":3420,"My":3421," einer":3422," Es":3423,"omb":3424,"quad":3425,"^{-":3426,"ump":3427," till":3428,"ді":3429," looks":3430," ok":3431,"ца":3432,"nu":3433,"Fil":3434," sont":3435," Med":3436,"ague":3437," cost":3438," Sim":3439," comment":3440," (\\":3441,"egen":3442," parameter":3443," France":3444,"rep":3445," TH":3446," yet":3447," away":3448," circ":3449," API":3450,"emp":3451,"ві":3452,"Layout":3453," lines":3454," Part":3455,"empt":3456," Bi":3457," mind":3458,"ky":3459,"ging":3460," report":3461," Add":3462,"род":3463," range":3464,"cias":3465,"lip":3466," Kar":3467," Commons":3468,"gerufen":3469,"aff":3470,"sec":3471," html":3472,"lig":3473," window":3474,"inition":3475,"cis":3476," ut":3477,"eln":3478," aux":3479," neg":3480,"Hand":3481," );":3482," anal":3483," fri":3484," си":3485,"etch":3486,"md":3487,"page":3488," library":3489," :=":3490,"ROM":3491,"You":3492,"space":3493," durch":3494," host":3495,"aven":3496," File":3497,"alle":3498,"тив":3499," pap":3500,"ство":3501,"mark":3502," mais":3503,"erman":3504,"Size":3505,"ек":3506," Ма":3507," isn":3508," copy":3509,"sten":3510,"river":3511," went":3512," javascript":3513," sam":3514," frame":3515," vi":3516," previous":3517,"rodu":3518," methods":3519," necess":3520,"NA":3521,"cket":3522," opt":3523,"Loc":3524,"how":3525," în":3526,"ship":3527," itself":3528," Please":3529,"iene":3530,"вер":3531," <<":3532," mill":3533," trad":3534,"pace":3535," Har":3536,"iten":3537,"wise":3538,"write":3539,"ции":3540,"ры":3541,"Line":3542,"olo":3543," accept":3544,"height":3545," elect":3546,"ella":3547," på":3548,"Select":3549," ли":3550," \\<":3551,"((":3552," ID":3553,"ops":3554,"ван":3555,"ió":3556,"TP":3557,"»,":3558,"nection":3559,"parent":3560," Mag":3561,"Table":3562,"Over":3563," network":3564,"спо":3565," assign":3566,"igger":3567,"irm":3568,")`":3569,"ottom":3570,"beta":3571," dell":3572," body":3573," да":3574," Your":3575," fue":3576," package":3577," light":3578," **":3579,"MP":3580," cou":3581,"yes":3582,":\\":3583," Ч":3584," mention":3585,"ensch":3586," deg":3587," convert":3588," Dav":3589,"adt":3590,"Result":3591,"though":3592," bus":3593,"xy":3594," seen":3595,"All":3596,"public":3597,"ively":3598," Rec":3599," His":3600,"sim":3601," för":3602," histor":3603," sett":3604,"rat":3605,"abled":3606," »,":3607,"google":3608,"Web":3609,"él":3610," title":3611," Janu":3612,"ја":3613," took":3614,"iden":3615,"sz":3616," Get":3617," objects":3618," common":3619," changes":3620," Lond":3621," extern":3622," ju":3623,"Is":3624," available":3625,"tri":3626," más":3627,"osa":3628,"Be":3629," Data":3630,"ural":3631," hom":3632," account":3633,"oo":3634," perm":3635,"respond":3636,"yt":3637," send":3638," returns":3639,"ivid":3640," expla":3641,"ín":3642," nor":3643,"If":3644," From":3645," target":3646,"fect":3647,"ент":3648," uit":3649," Jo":3650," variables":3651," series":3652," func":3653," himself":3654," ча":3655,"anti":3656," ach":3657,"ialog":3658," std":3659,"ae":3660," foot":3661," unter":3662,"gress":3663,"Not":3664,"rad":3665,"fér":3666," util":3667,"orem":3668," sou":3669,"opt":3670," og":3671," uma":3672,"itar":3673," Ok":3674,"ück":3675,"sqrt":3676," ant":3677," werden":3678,"år":3679,"});":3680," Paris":3681," exception":3682," determ":3683," Vol":3684," Sam":3685," ess":3686,"lies":3687,"ioni":3688,"oding":3689,"idget":3690," pri":3691," whether":3692," под":3693," numbers":3694," ~":3695,"event":3696," shows":3697,"atures":3698," house":3699," face":3700," się":3701,"vironment":3702,"van":3703," including":3704," <-":3705,"times":3706,"now":3707," pur":3708,"ifier":3709," emp":3710," cla":3711,"mon":3712," Das":3713,"ady":3714," від":3715," ц":3716,"abor":3717,"OST":3718," band":3719," ú":3720," exactly":3721,"iert":3722,"avig":3723," redu":3724," SE":3725,"lished":3726,"Bu":3727,"Message":3728,"cell":3729,"fully":3730," sv":3731," makes":3732,"pol":3733," required":3734,"ferrer":3735," pers":3736," mi":3737,"FI":3738," Paul":3739," UI":3740," Bel":3741,"inc":3742," contains":3743,"Out":3744,"asure":3745,"pu":3746,"oto":3747," game":3748,"zn":3749," Why":3750,"orith":3751,"big":3752,"кий":3753,"sigma":3754," quite":3755," jed":3756,"rec":3757," SQL":3758,"бе":3759," Mart":3760,"ya":3761," school":3762," simply":3763," vor":3764," double":3765,"рав":3766," Str":3767,"iem":3768," album":3769," resol":3770," dei":3771," Wik":3772," aw":3773,"umb":3774,"ols":3775," */":3776," ze":3777," anim":3778,"/>":3779,"ris":3780,"resh":3781,"No":3782,"iques":3783,"current":3784," period":3785," April":3786," store":3787,"','":3788," Set":3789,"={":3790,"ached":3791," Mal":3792," Pal":3793,"antes":3794,"aterial":3795," worked":3796,"leq":3797,"oreferrer":3798," happen":3799," box":3800,"ney":3801," close":3802," gran":3803," lie":3804," ir":3805," expected":3806," для":3807,"click":3808,"și":3809," parte":3810,"ogn":3811," Form":3812," memb":3813," plan":3814," team":3815,"][":3816," commun":3817,"orry":3818,"ency":3819,"gl":3820,"inary":3821,"cdot":3822,"^\\":3823," First":3824,"ander":3825," Dec":3826,"request":3827,"ства":3828," structure":3829," ||":3830," Comp":3831,"actory":3832," Mil":3833," Some":3834,"Stream":3835," assum":3836,"uen":3837," words":3838," September":3839," Ко":3840," days":3841,"ories":3842,"став":3843,"sm":3844,"vin":3845,"partial":3846," parent":3847,"oj":3848,"нии":3849,"!\"":3850,"ugin":3851," Windows":3852,"Ed":3853,":}":3854," q":3855," ben":3856,"iana":3857," label":3858,"state":3859,"uted":3860," ()":3861," сво":3862," edit":3863,"uring":3864," NS":3865," Jahr":3866," provide":3867,"He":3868," Yes":3869,"anel":3870,"ename":3871," Don":3872,"isk":3873,"gra":3874,"elij":3875," root":3876,"*/":3877," Fre":3878," Mor":3879,"used":3880,"range":3881," tamb":3882," module":3883," directory":3884,"ounds":3885,"Activity":3886," mu":3887,"info":3888," free":3889,"orge":3890,"tab":3891,")=":3892,"lang":3893," ос":3894," FROM":3895," enter":3896," became":3897,"idae":3898,"хи":3899," States":3900,"verse":3901," expl":3902,"ynt":3903,"UN":3904,"ee":3905,"endent":3906," making":3907," \"$":3908,"uni":3909,"quence":3910," lui":3911,"HT":3912," uses":3913,"zie":3914,"nia":3915,"Content":3916," Count":3917," standard":3918,"ENT":3919," кон":3920,"fort":3921,"adas":3922,"зу":3923,"System":3924," Sw":3925," ever":3926,"LO":3927," correspond":3928," Po":3929,"argin":3930,"кт":3931,"ій":3932," remain":3933,"cio":3934," actual":3935,"сту":3936," sind":3937," Pe":3938," changed":3939," Note":3940,"skie":3941," family":3942,"ità":3943,"cos":3944,"txt":3945,"ker":3946,"ceed":3947," arr":3948," cam":3949,"izer":3950," Dan":3951,"hel":3952,"icult":3953,"HP":3954,"iler":3955," Sal":3956," connection":3957,"usion":3958,"kn":3959,"RI":3960," vom":3961,"Listener":3962," ö":3963," dim":3964," press":3965," esc":3966," Try":3967,"atalog":3968," thanks":3969,"DO":3970," written":3971,"dir":3972,"rew":3973," fire":3974," Nach":3975," á":3976,"enc":3977," origin":3978," November":3979," };":3980,"Count":3981," За":3982," graph":3983," mis":3984," External":3985,"         ":3986," options":3987," URL":3988," php":3989," integr":3990,"Config":3991," Text":3992,"inner":3993," crit":3994,",”":3995," tog":3996,"$$":3997,"nof":3998," ses":3999,"ühr":4000," Since":4001,"Des":4002,"ube":4003," section":4004," gi":4005,"ford":4006," Ass":4007,"ainer":4008,"ttp":4009," behav":4010,"ports":4011,"draw":4012,"This":4013,"ranch":4014,"inding":4015," estab":4016," obtain":4017,"rich":4018,"licit":4019,"ев":4020," qual":4021," za":4022," har":4023," fac":4024,"aar":4025,"jet":4026,"icles":4027," Aus":4028," hor":4029," remov":4030," wie":4031,"Client":4032," natur":4033,"hip":4034,"Sub":4035," random":4036,"DF":4037," area":4038,"tag":4039,"Pr":4040," Ital":4041," roku":4042,"nofollow":4043,"*}":4044," others":4045," limit":4046," sil":4047," sav":4048," often":4049," render":4050,"DB":4051," Mc":4052," zijn":4053,"жен":4054," tag":4055,"ming":4056,"lichen":4057,"pack":4058," Ag":4059," sense":4060,"pg":4061,"Method":4062,"aged":4063,"ág":4064,"ła":4065," interest":4066," associ":4067,"volution":4068," empty":4069,"iche":4070," gro":4071," types":4072," Sie":4073,"Inter":4074," noreferrer":4075," gives":4076,"hal":4077," save":4078," font":4079,"ruction":4080,"Script":4081," alla":4082," says":4083," fu":4084,"ape":4085," language":4086,"iger":4087," King":4088,"bor":4089,"uv":4090," shall":4091," Europe":4092," einem":4093," water":4094," govern":4095,"anz":4096,"ators":4097," month":4098,"ye":4099," important":4100,"atz":4101,"first":4102," Trans":4103," Mad":4104," bra":4105,"ika":4106," Saint":4107,"oria":4108,"kre":4109,"ements":4110," Ben":4111,"lav":4112," admin":4113," Hen":4114,"ril":4115," Sm":4116,"cat":4117," Refer":4118," Ш":4119," pract":4120," Pat":4121," Gre":4122," young":4123," Inter":4124,"oma":4125,"teger":4126,"ibility":4127," parameters":4128," everything":4129,"dat":4130,"urop":4131,"olean":4132," returned":4133," Class":4134,"acy":4135,"####":4136," př":4137," folder":4138," kon":4139," guess":4140,"gt":4141,"jen":4142,"annel":4143,"icon":4144," comb":4145,"rict":4146," hij":4147," author":4148,"see":4149,"here":4150,"stra":4151," entire":4152," directly":4153,"raft":4154,"heet":4155,"ester":4156," ми":4157," mass":4158,"untu":4159," users":4160,"chi":4161,"PE":4162," component":4163,"Click":4164,"Att":4165," sobre":4166,"ands":4167," Hol":4168," Sant":4169,"ori":4170," sua":4171,"std":4172,"entic":4173,"CC":4174," filter":4175,"SQL":4176," God":4177,"At":4178," му":4179," performance":4180,"delta":4181,"ande":4182,"amer":4183,"ды":4184," cult":4185," Nor":4186,"but":4187," lik":4188,"********":4189,"ствен":4190," comme":4191," dr":4192,"imer":4193,"ordin":4194," condition":4195,"este":4196,"([":4197,"FF":4198,"ться":4199,"imo":4200,"rab":4201,"іль":4202," half":4203,"each":4204,"Dis":4205," rows":4206," hon":4207," together":4208," și":4209,"medi":4210,"agn":4211,"alled":4212," vill":4213,"ING":4214,"idden":4215," draw":4216,"yntax":4217," attempt":4218,"URL":4219,"pose":4220," indic":4221,"ника":4222," English":4223," déc":4224," needs":4225," normal":4226,"urt":4227," но":4228,"}}\\":4229,"last":4230," Fin":4231," Febru":4232,"ila":4233," country":4234," fields":4235," max":4236,"lés":4237,"owie":4238," deux":4239," built":4240," Main":4241," camp":4242,"ivo":4243,"iva":4244,"icy":4245,"zione":4246,"Node":4247," :)":4248," among":4249," Ob":4250," cases":4251,"haps":4252,"sers":4253,"arter":4254,"ści":4255," iter":4256," named":4257,"exec":4258," season":4259,"tot":4260,"=>":4261,"graph":4262," nil":4263,"acional":4264," NULL":4265," special":4266,"сте":4267,"css":4268," \\(":4269,"vs":4270,"ael":4271," city":4272,"ova":4273," article":4274," South":4275,"Action":4276,"ça":4277,"spring":4278,"itude":4279," complex":4280," что":4281,"build":4282,"gamma":4283," Ent":4284,"iers":4285,"'.":4286,"car":4287,"apache":4288,"ingen":4289,"Input":4290,": ":4291," dynam":4292,"alls":4293,"show":4294,"|\\":4295," wird":4296,"Bar":4297,"alth":4298,"model":4299,"Trans":4300,"Row":4301,"abe":4302," lib":4303,"null":4304,"ragment":4305," State":4306," law":4307,"Frame":4308," Lo":4309,"geb":4310,"}$.":4311," needed":4312," contr":4313,"aries":4314," screen":4315,"yr":4316,"mm":4317," shown":4318," bad":4319," cast":4320," Test":4321," Auf":4322," quant":4323,"iga":4324," ren":4325," Mac":4326," transform":4327," difference":4328," tit":4329,"TE":4330," step":4331," capt":4332," collection":4333,"ictionary":4334," Tom":4335,"rier":4336," move":4337,"cope":4338,"ords":4339," further":4340," columns":4341," Lin":4342," fixed":4343," children":4344,"MS":4345,"mo":4346,"una":4347," individ":4348,"tty":4349,"aste":4350,"src":4351,"match":4352,"wi":4353," х":4354," ди":4355," ord":4356,"iving":4357," Bro":4358," almost":4359," Pres":4360,"reci":4361,"aring":4362," ///":4363,"ется":4364," sig":4365,"light":4366," Red":4367," suggest":4368,"olf":4369," été":4370,"isation":4371,"зна":4372,"New":4373,"стан":4374,"LA":4375,"unicip":4376," figure":4377,"mt":4378,"iale":4379," catch":4380,"default":4381," tele":4382," matter":4383,"cast":4384," Rich":4385," handle":4386,"valu":4387,"$-":4388,"об":4389," json":4390,"Create":4391," exam":4392,"аль":4393,"ют":4394,"ored":4395,"idos":4396,"append":4397," Array":4398,"кс":4399,"}[":4400,"rive":4401," club":4402,"mann":4403," este":4404,"esta":4405," Gi":4406," Jap":4407," Name":4408,"Column":4409,"oups":4410,"ismo":4411," City":4412," classes":4413," infl":4414,"hl":4415,"ром":4416," adding":4417," fail":4418,"xx":4419,"ões":4420,"Sc":4421,"util":4422," location":4423,"lege":4424,"ago":4425," properties":4426,"abil":4427,"vas":4428,"}$,":4429,"itted":4430,"ód":4431," Dem":4432," asked":4433," tab":4434,"Source":4435," errors":4436,"ographie":4437," жи":4438," mal":4439,"stract":4440," dro":4441,"rak":4442," note":4443," setting":4444," fem":4445," saw":4446,"iar":4447,"HER":4448,"ес":4449," pred":4450," Out":4451," items":4452,"лан":4453," werd":4454,"ersion":4455,"lia":4456," sin":4457,"ichte":4458," feel":4459," пра":4460," oder":4461,"UE":4462,"ocument":4463," mode":4464," Na":4465,"ден":4466,"mes":4467,"framework":4468," auto":4469,"ным":4470,"uby":4471," template":4472," mess":4473,"ieder":4474," related":4475,"oken":4476," follows":4477,"search":4478,"ami":4479," wait":4480,"igr":4481," low":4482,"ских":4483,"ская":4484," Mark":4485," ill":4486,"amento":4487,"\\<":4488," df":4489,"osition":4490," Ви":4491,"isf":4492," Deutsch":4493,"ahl":4494,"war":4495,"itect":4496," sal":4497,"elen":4498,"ById":4499," gru":4500,"sv":4501," passed":4502," añ":4503,"Sch":4504," solve":4505,"weise":4506,"atos":4507," meg":4508," member":4509,"ername":4510," connect":4511,"ips":4512," round":4513," ]":4514,"nes":4515," dir":4516," London":4517,"dy":4518,"FA":4519," received":4520,"reet":4521," Log":4522," School":4523,"ango":4524," These":4525," Mont":4526," ener":4527,"lad":4528," define":4529,"sign":4530," cle":4531,"figure":4532," View":4533,"textbf":4534,"$\\":4535,"зы":4536,"number":4537," din":4538,"eller":4539,"orithm":4540,"false":4541,"fol":4542,"fficient":4543," HTML":4544,"liche":4545," Mo":4546," introdu":4547,"exp":4548," strong":4549," thus":4550,"/)":4551," ele":4552," так":4553," па":4554," dont":4555," cause":4556,"Number":4557," images":4558," sample":4559," sci":4560,"like":4561," Lou":4562,"div":4563,"anc":4564," front":4565,"nen":4566," missing":4567,"aria":4568,"pres":4569," пред":4570,"DI":4571,"filter":4572," Mit":4573,"UR":4574," opp":4575," sql":4576," року":4577,"eren":4578,"emat":4579,"ís":4580," Jean":4581,"éc":4582," ci":4583,"enne":4584,"atform":4585," taken":4586," Of":4587," насе":4588," err":4589,"OP":4590,"From":4591,"Default":4592," General":4593,"wiki":4594," grand":4595," einen":4596,"Reg":4597,"Handler":4598,"conom":4599,"anger":4600," был":4601," Los":4602," expression":4603,"ша":4604,"yal":4605," $('":4606," switch":4607," vector":4608," Thom":4609," virt":4610,"leased":4611," cover":4612," resp":4613,"ako":4614,"rench":4615,"ota":4616,"Cell":4617,"anged":4618," +=":4619,"lac":4620,"ska":4621,"next":4622," International":4623," Wil":4624," ont":4625,"ibr":4626,"ustr":4627," black":4628," selected":4629,"cher":4630," liter":4631,"root":4632,"лся":4633," Life":4634," insert":4635," matrix":4636,"ises":4637,")]":4638," pel":4639,"Override":4640,"rypt":4641," former":4642," Film":4643," North":4644,"client":4645," night":4646,"ходи":4647," Austral":4648," Ret":4649,"rho":4650," пер":4651,"ipedia":4652," express":4653," third":4654," major":4655," grad":4656,"owe":4657," believe":4658,"ournal":4659," status":4660,"unc":4661," dou":4662," JSON":4663,"uis":4664," population":4665,"enz":4666," William":4667,"sf":4668," Object":4669," cin":4670," Di":4671,"curity":4672," Open":4673," ле":4674,"lar":4675,"adding":4676," kom":4677,"}(\\":4678," kil":4679,"umer":4680,"\"/>":4681," feature":4682," Are":4683,"cks":4684," Internet":4685," ih":4686," started":4687," early":4688," began":4689,"TH":4690,"python":4691,"asp":4692," Fr":4693," clos":4694,"istic":4695," music":4696," dig":4697," ital":4698," David":4699," website":4700," controller":4701," Mer":4702,"context":4703,"product":4704,"osp":4705,"       ":4706," jun":4707,"rown":4708," Az":4709,"\":\"":4710," aan":4711," Date":4712,"mult":4713," browser":4714,"ред":4715,"which":4716,"RA":4717,"quare":4718," Russ":4719," soon":4720," Pre":4721,"tau":4722," week":4723," ба":4724," oct":4725," town":4726,"roy":4727," els":4728,"blic":4729,"undle":4730," Histor":4731," foi":4732," models":4733,"зо":4734,"onym":4735,"Param":4736," Met":4737,"gener":4738,"ją":4739," espe":4740,"CE":4741," device":4742,"ellow":4743," debug":4744,"érie":4745,"using":4746,"анг":4747," *)":4748,"udi":4749," Miss":4750,"ком":4751,"posed":4752," zwe":4753,"ін":4754," Robert":4755," Oct":4756,"lop":4757,"jar":4758," aver":4759," habit":4760," ::":4761,"äng":4762,"Start":4763," pow":4764," src":4765," pattern":4766," Э":4767," bi":4768,"otes":4769," __":4770," sens":4771," avoid":4772,"example":4773,"utt":4774,"Label":4775,"tex":4776,"boot":4777,"esto":4778," March":4779," easy":4780,"icture":4781,"Group":4782," father":4783," updated":4784," Vo":4785," III":4786,"omega":4787," alle":4788,"Rec":4789,"yg":4790,"зе":4791," Dim":4792,"nect":4793," Tor":4794," deutsch":4795," white":4796," national":4797,"ppe":4798," air":4799," password":4800,"det":4801," big":4802," Use":4803,"call":4804," extra":4805,"We":4806,"ania":4807," hold":4808,"Control":4809," CO":4810," мі":4811,"iti":4812," Ke":4813,"enu":4814," Park":4815,"том":4816," auth":4817," center":4818,"Ph":4819,"тов":4820,"iding":4821," across":4822," song":4823," phys":4824," numer":4825,"ща":4826," Alex":4827," problems":4828," Error":4829,"format":4830," Acc":4831," six":4832," db":4833," Cast":4834,"oms":4835,"project":4836," vert":4837,"cret":4838," header":4839," stream":4840,"ids":4841," tor":4842," sept":4843," estim":4844," decl":4845," gave":4846," player":4847,"ysis":4848," дру":4849,"amm":4850,"що":4851," (\"":4852," ax":4853,"Property":4854,"usr":4855," someone":4856," impro":4857,"aden":4858,"rote":4859," Ми":4860,"ih":4861,"++)":4862," video":4863," exists":4864,"кла":4865," complete":4866," session":4867," constant":4868,"icos":4869," pack":4870,"rome":4871,"egr":4872,"Application":4873," yes":4874," elle":4875," email":4876,"orf":4877,"case":4878," pointer":4879," regard":4880,"sen":4881,"status":4882," mes":4883," delle":4884,"ington":4885," Bas":4886,")^":4887,"develop":4888," force":4889," characters":4890," cross":4891," death":4892," takes":4893,"éri":4894,"igne":4895,"чен":4896,"UP":4897,".:":4898,"Thread":4899,"ju":4900,"iny":4901," details":4902," xml":4903,"tait":4904,"output":4905,"message":4906,"''":4907," British":4908,"ville":4909," Div":4910," User":4911,"cm":4912,"чно":4913,"column":4914,"eqref":4915,"ór":4916,"onom":4917," Post":4918,"ellen":4919,"Ab":4920,"ulté":4921," perfect":4922,"(){":4923,"vision":4924,"active":4925,"lier":4926,"rij":4927,"sd":4928," kö":4929," nie":4930," relig":4931," ot":4932," machine":4933," held":4934,")$.":4935,"========":4936,"cker":4937,"вы":4938,"born":4939," past":4940,"рия":4941," Dr":4942," regular":4943," provided":4944,"TER":4945," univers":4946," gets":4947," nu":4948," /*":4949,"ober":4950,"fin":4951," nella":4952," become":4953," ``":4954," history":4955," Sol":4956," Rad":4957," terms":4958," events":4959,"lymp":4960,")))":4961,"рова":4962," absol":4963," soft":4964,"links":4965," hope":4966," subject":4967,"\"),":4968," creating":4969," }\r":4970," Sk":4971," flow":4972," Ра":4973," assert":4974,"zet":4975," Frank":4976,"sa":4977," distribution":4978,"cu":4979,"band":4980,"izz":4981," job":4982,"iner":4983,"struct":4984,"ák":4985,"TO":4986,"auf":4987," extends":4988," Gra":4989,"display":4990," signific":4991,"oney":4992,"source":4993,"microsoft":4994,"inder":4995," quick":4996," wonder":4997,"Instance":4998,"elles":4999,"ème":5000," company":5001,"uß":5002,".}":5003," separate":5004,"UM":5005,"HERE":5006," writing":5007,"itution":5008," Gesch":5009,"мя":5010," James":5011," DE":5012," Spe":5013,"process":5014,"Str":5015," sym":5016," ao":5017," wy":5018," anyone":5019," Up":5020,"useum":5021,"aron":5022," definition":5023," `$":5024," fav":5025,"ributes":5026," Ré":5027,"ografia":5028,"element":5029,"cap":5030,"pat":5031," Bra":5032,")(":5033," according":5034,"ге":5035," pie":5036,"eli":5037,"}\"":5038," activ":5039," stop":5040,"patch":5041,"ті":5042," Jose":5043,"End":5044," prze":5045," age":5046,"itory":5047," PHP":5048,"agement":5049," `.":5050," pretty":5051," recomm":5052," sud":5053," requ":5054," обла":5055,"atives":5056," High":5057,"áz":5058,"oul":5059,"rest":5060," Ter":5061,"under":5062,"thern":5063,"center":5064," ur":5065,"lat":5066," interface":5067," ин":5068," whose":5069,"icas":5070,"amen":5071,"Filter":5072," station":5073,"Page":5074," arm":5075," eyes":5076," рай":5077," seu":5078,"oli":5079,"win":5080,"lik":5081,"gex":5082,"chan":5083,"idence":5084,"args":5085,"aking":5086," Google":5087," Stud":5088," ho":5089,"торы":5090,"Su":5091," automat":5092,"ême":5093," cy":5094,"lor":5095," stack":5096," SELECT":5097,"AF":5098," >>":5099," compet":5100," pair":5101," inglés":5102,"Response":5103," Fig":5104,"grad":5105," documentation":5106," cant":5107," appreci":5108,"ån":5109," learn":5110," indep":5111," pal":5112,"package":5113,"ares":5114," Berlin":5115,"бли":5116,"reich":5117,"ён":5118," satisf":5119," region":5120," friend":5121," George":5122," Во":5123," \"\"":5124," desde":5125,"Factory":5126," County":5127,"ouv":5128," ‘":5129," installed":5130," wanted":5131," Python":5132," interpre":5133," included":5134," ((":5135," altern":5136,"isto":5137,"gn":5138," border":5139,"pdf":5140," dup":5141," download":5142,"just":5143," members":5144,"child":5145," pay":5146," cer":5147," looked":5148," correctly":5149,"auth":5150," стан":5151," esp":5152," desc":5153,"eben":5154," questions":5155,"mal":5156," abgerufen":5157," Band":5158," []":5159,"Base":5160," ris":5161," fort":5162," Id":5163," various":5164," League":5165," Hand":5166," Type":5167,"irl":5168," Fe":5169,"ién":5170,"itter":5171," fast":5172,"sta":5173," except":5174,"icz":5175," French":5176," environment":5177," conse":5178,"ур":5179,"ого":5180," necessary":5181,"target":5182," reading":5183,"home":5184,"zeich":5185," equal":5186," più":5187," prem":5188," difficult":5189," unit":5190," replace":5191," heart":5192," talk":5193,"AM":5194," RE":5195," Person":5196,"endency":5197," imm":5198," human":5199,"dn":5200," Kir":5201," Aut":5202,"known":5203," frequ":5204,"system":5205,"лав":5206," Sz":5207," Gal":5208,"ное":5209,"selves":5210,"rightarrow":5211," Са":5212,"=\"@":5213," building":5214,"import":5215," fam":5216," delete":5217,"aire":5218,"mary":5219," fund":5220," particip":5221," syn":5222,"sin":5223," lower":5224," zero":5225," sec":5226," fra":5227,"Point":5228," failed":5229,"iento":5230,"cup":5231," slow":5232," nation":5233,"ähr":5234," info":5235," Public":5236," decla":5237," Та":5238," sold":5239," Rem":5240," Phil":5241,"стра":5242," mehr":5243," Work":5244," Nord":5245," fait":5246," gew":5247,"println":5248,"obile":5249," Kon":5250," assume":5251,"lands":5252," amount":5253," Press":5254,"ých":5255," maxim":5256," Champion":5257,"library":5258,"añ":5259," Wal":5260,"Comm":5261,"]]":5262," zw":5263," social":5264,"LI":5265," Unter":5266,"vor":5267,"Delta":5268,"email":5269,"raint":5270,"oni":5271," alt":5272," né":5273,"ция":5274,"ography":5275," mentioned":5276," <=":5277," cette":5278," currently":5279,"vare":5280,"izing":5281," Def":5282,"icol":5283,"ünd":5284," configuration":5285,"estig":5286,"III":5287,"lam":5288,"ière":5289," Ear":5290," tu":5291,"Ent":5292," Using":5293," ком":5294,"cie":5295," proof":5296," invol":5297," History":5298,"><":5299," AND":5300,"avy":5301," relations":5302,"${":5303," comes":5304," direction":5305," June":5306," Way":5307,"Component":5308,"ech":5309," Peter":5310,"sg":5311," stra":5312,"uct":5313," implementation":5314,"attle":5315," cz":5316,"plot":5317," played":5318,"\"></":5319," five":5320," coll":5321," Charles":5322,"Tra":5323," suo":5324,"files":5325,"entes":5326,"response":5327,"How":5328," Soci":5329," ign":5330," led":5331," German":5332,"udo":5333," Du":5334," tim":5335,"ounter":5336," attack":5337,"uri":5338," ар":5339,"esse":5340,"ivil":5341," Ju":5342," vel":5343,"matrix":5344," Mat":5345,"gio":5346," Zeit":5347,"VER":5348,"has":5349,"Connection":5350," ihr":5351," attribute":5352," discuss":5353," domain":5354,"bind":5355," Sec":5356,"rik":5357,"close":5358,"gin":5359," love":5360,"anto":5361,"gent":5362,"aba":5363,"jango":5364,"bi":5365," obser":5366,"itting":5367," ру":5368,"}=":5369,"agen":5370,"BC":5371,"some":5372," Bu":5373," soci":5374," individual":5375," deal":5376," outside":5377,"rio":5378,"Exec":5379,"andid":5380," business":5381," tempor":5382," Tur":5383," (!":5384,"riter":5385," google":5386,"]:":5387,"itte":5388,"xi":5389," Па":5390,"hol":5391,"нь":5392,"ring":5393," sul":5394,"ности":5395,"_.":5396,"gar":5397,"Task":5398," Check":5399," modern":5400," win":5401,"uster":5402,"han":5403,"formation":5404,"void":5405," фи":5406," useful":5407," England":5408,"los":5409,"etime":5410,"eur":5411," unique":5412," как":5413,"ying":5414,"obj":5415,"uid":5416," windows":5417," distance":5418," nombre":5419,"ія":5420,"ocus":5421,"ahn":5422,"ierte":5423," dar":5424,"SI":5425,"long":5426,"asta":5427,"iven":5428," told":5429," Gru":5430,"foo":5431," calling":5432,"iembre":5433," future":5434,"près":5435,"leep":5436,"avigation":5437,"POST":5438," described":5439," noch":5440,"unit":5441,"allen":5442," branch":5443,"fa":5444," fill":5445," obj":5446," tree":5447," wurden":5448," Liter":5449,"rot":5450,"split":5451,"emein":5452,"module":5453,"CA":5454," operator":5455," wrote":5456," Jack":5457,"ologie":5458," Ant":5459,"тер":5460,"stream":5461," Que":5462,"epsilon":5463,"non":5464,"stein":5465," simpl":5466,"pub":5467," July":5468," nature":5469," Database":5470,"ól":5471,"ним":5472," VI":5473,"être":5474,"iles":5475," wel":5476,"'),":5477," mut":5478,"location":5479," therefore":5480,"elli":5481," І":5482,"né":5483," ав":5484,"ledge":5485," conver":5486,"ím":5487," XV":5488,"vider":5489," January":5490," usually":5491," released":5492," Mi":5493,"Head":5494,"iller":5495," jan":5496," letter":5497,"produ":5498,"rd":5499," Cam":5500,",'":5501," Ц":5502," push":5503,"update":5504," maybe":5505,"Http":5506,"@\"":5507,"мер":5508,"service":5509,"parse":5510," dass":5511,"ên":5512,")\"":5513,"more":5514,"/*":5515," mas":5516," likely":5517," material":5518," [[":5519," longer":5520,"bal":5521," Archiv":5522,"igt":5523," egy":5524,"idge":5525,"igu":5526,"conf":5527," inc":5528,"consulté":5529," mai":5530,"Work":5531," гра":5532," October":5533," global":5534," sel":5535," municip":5536," viol":5537," Does":5538," \\[":5539,"ском":5540," compos":5541,"бря":5542,"вя":5543," respons":5544," considered":5545," Japan":5546,"pes":5547,"osto":5548," milit":5549,"SP":5550,"сы":5551,"attr":5552,"cil":5553,"irectory":5554,"aving":5555," Del":5556," prevent":5557,"idade":5558,"git":5559,"iform":5560,"outer":5561,"inct":5562,"level":5563,"atever":5564," repe":5565," exc":5566,"дар":5567,"Style":5568," Thomas":5569,"eline":5570," ж":5571,"untime":5572," larg":5573,"True":5574,".*":5575,"creen":5576,"yles":5577," transl":5578," Со":5579,"ensions":5580,"äl":5581,"isse":5582," volt":5583,"cially":5584,"nik":5585,".]":5586," Stadt":5587,"мы":5588,"fill":5589,"lov":5590," \"/":5591,"Sp":5592," Air":5593,"Call":5594," nur":5595,"Check":5596,"ience":5597,"efined":5598," вре":5599,"ło":5600,"dz":5601," ор":5602,"iker":5603,"owa":5604,"ович":5605,"ré":5606,"OL":5607," linear":5608," export":5609,"ahr":5610,"icial":5611,"Rep":5612," natural":5613," cop":5614," })":5615,"ções":5616,"zz":5617,"What":5618," House":5619,"Ref":5620,"inger":5621," taking":5622,"ně":5623," Einz":5624," dam":5625," issues":5626,"Builder":5627,"edit":5628," prz":5629,"password":5630,"Gener":5631,"rim":5632," parts":5633,"---":5634,"iginal":5635," Sci":5636," mother":5637,"rea":5638," container":5639,"дя":5640," IP":5641," none":5642," followed":5643," ple":5644," measure":5645," tout":5646,"Ext":5647," TV":5648," explain":5649," paper":5650,"сті":5651,"ws":5652,"Wik":5653," mm":5654," Norm":5655," Server":5656,"font":5657,"ecause":5658,"TR":5659," би":5660,"La":5661," ens":5662," retr":5663," Sil":5664," sequence":5665,"arc":5666,"IV":5667,"zá":5668," Android":5669," Super":5670," roz":5671,"ovie":5672,"Om":5673," Well":5674,"make":5675,"orph":5676," Jer":5677," Ros":5678,"reference":5679," features":5680," Ger":5681," Leg":5682," late":5683," additional":5684," flo":5685," его":5686," algorithm":5687,"BA":5688,"kar":5689,"IP":5690,"]);":5691," appears":5692,"yw":5693," temp":5694," aussi":5695,"method":5696," pet":5697,"strap":5698,"arning":5699," cut":5700," Sa":5701," track":5702," employ":5703," inde":5704,"rav":5705," generate":5706,"bes":5707,"arts":5708,"Status":5709,"uge":5710,"alis":5711," override":5712," fi":5713," lost":5714,"oted":5715," room":5716," calls":5717," consist":5718,"рен":5719," village":5720,"dist":5721," techn":5722,"enza":5723," роз":5724," Catalog":5725," becom":5726,"rows":5727," Nel":5728,"comple":5729," premi":5730," rot":5731," Weblinks":5732," football":5733," compar":5734," live":5735,"ких":5736," equival":5737,"cape":5738," Gen":5739,"nder":5740," Vis":5741," behind":5742,"gers":5743,"voke":5744," media":5745,"EX":5746,"that":5747," sono":5748," mysql":5749,"ev":5750," rule":5751,"дов":5752,"acc":5753," WHERE":5754,"ене":5755,"Grid":5756," jul":5757," mort":5758," generated":5759,"encia":5760,"acter":5761,"clud":5762," scen":5763," closed":5764," Michael":5765," mount":5766,")$,":5767," drop":5768," combin":5769,"tocol":5770," goes":5771," geb":5772,"MD":5773," Anton":5774," $(\"":5775,"Tem":5776," ca":5777," instru":5778,"eds":5779," tool":5780,"mys":5781," route":5782,"\"))":5783,"пре":5784," float":5785," services":5786," чи":5787,"кі":5788,"embly":5789,"aker":5790," Son":5791," Math":5792,"asse":5793,"ously":5794,"lications":5795," ru":5796," що":5797," Const":5798," immedi":5799,"FO":5800,"oro":5801," production":5802,"rei":5803," jquery":5804,"annt":5805," While":5806," sn":5807," годи":5808,"Format":5809," star":5810," Sen":5811," ko":5812,"NAME":5813," prés":5814,"cha":5815,"what":5816,"omin":5817,"endant":5818,"hy":5819," observ":5820," prefer":5821,"ун":5822," constructor":5823,"bs":5824," mac":5825," Bre":5826," Instit":5827," story":5828," symbol":5829,"eles":5830,"ße":5831,"asing":5832," west":5833,"ians":5834," master":5835,"ез":5836," ways":5837,"bm":5838," pick":5839," depart":5840,"Back":5841,"enk":5842,"lipse":5843," math":5844," Francis":5845," December":5846,"fs":5847,"rum":5848," development":5849,"LT":5850,"ernel":5851," True":5852," More":5853,"rangle":5854," conditions":5855,"Options":5856," gli":5857," operation":5858,"ék":5859,"acht":5860,"ights":5861," mist":5862,"anda":5863," energy":5864," же":5865," women":5866,"akt":5867," CH":5868,"gebra":5869," meet":5870,"iu":5871,"well":5872,"öl":5873," government":5874," Jos":5875,"ieg":5876," syntax":5877,"fix":5878," Pet":5879,"jquery":5880," card":5881," principal":5882," dru":5883," territ":5884," пов":5885," SS":5886,"рии":5887,"tres":5888,"agne":5889,"lying":5890,"tilde":5891,"bern":5892,"enter":5893,"Per":5894," somet":5895,"Load":5896,"lice":5897," sous":5898," Louis":5899," logic":5900," Other":5901," cir":5902,"év":5903,"chron":5904," han":5905," margin":5906,"Window":5907,"ères":5908,"nych":5909,"push":5910,"bolds":5911," layout":5912," [`":5913,"Char":5914," Cap":5915,"boldsymbol":5916," Roman":5917," Max":5918,":(":5919," Code":5920,"ising":5921," states":5922," existing":5923,"support":5924," research":5925,"licate":5926,"vari":5927," bij":5928," appe":5929," happens":5930,"\\\"":5931," concern":5932,"west":5933," saying":5934,"pid":5935," recogn":5936," Het":5937,"Child":5938," cs":5939,"\\,":5940," clean":5941,"lections":5942,"access":5943,"ву":5944,"про":5945,"acity":5946," Off":5947," easily":5948,"èque":5949," jako":5950," iz":5951," Ha":5952," Det":5953," forma":5954,"sche":5955,"swers":5956," offer":5957,"quired":5958,"Users":5959," subst":5960,">(":5961," ground":5962,"unn":5963,"rod":5964,"spe":5965,"ursor":5966," leave":5967,"erk":5968," tal":5969," bottom":5970,"IO":5971," popular":5972,"igo":5973," Time":5974,"values":5975," Loc":5976," Club":5977," anche":5978,"iał":5979,"ії":5980,"Omega":5981," located":5982,"Url":5983," Esp":5984,"лы":5985,"ць":5986,"ulate":5987," join":5988,"aves":5989,"vet":5990,"lio":5991,"remove":5992," token":5993," optim":5994," claim":5995,"ological":5996," css":5997," although":5998," priv":5999," Ba":6000,"ül":6001,"entication":6002," ven":6003,"Server":6004," Cong":6005,"NET":6006,"CON":6007,"dt":6008,"perties":6009," epis":6010,"wikipedia":6011," engine":6012," fer":6013,"getElement":6014," Cla":6015,"ří":6016," rom":6017,"varepsilon":6018," prime":6019,"istry":6020,"pected":6021,"orage":6022," touch":6023," ['":6024," dan":6025,"Em":6026,"aciones":6027,"Can":6028," whom":6029," behavior":6030," strings":6031," Europ":6032," Rom":6033,"circ":6034," pun":6035," register":6036,"buntu":6037,"rain":6038,"Ob":6039,"TA":6040," sometimes":6041," ment":6042," integer":6043," Jac":6044,"legate":6045,"othing":6046," sound":6047,"laces":6048," Ба":6049,"rb":6050,"di":6051,"ления":6052," themselves":6053," Black":6054," settings":6055," norm":6056," runs":6057," NOT":6058,"KE":6059," perhaps":6060," Я":6061," mol":6062," ans":6063,"atre":6064," Dies":6065,"Token":6066,"anie":6067," allowed":6068,"Range":6069," Gro":6070,"via":6071,"utorial":6072,"ensor":6073,"estival":6074,");\r":6075,"краї":6076," turned":6077,"scope":6078," bien":6079,"=$":6080," extension":6081,"atore":6082," Ро":6083," specify":6084,"edu":6085,"Datos":6086," stored":6087," parse":6088," answers":6089,"ills":6090," heard":6091,"lu":6092," THE":6093," gén":6094," ful":6095,"ez":6096," Prem":6097,"then":6098,"dp":6099,"ського":6100," Si":6101,"ço":6102,"Edit":6103,"ків":6104," Ли":6105," Sing":6106," categ":6107,"Equ":6108," guer":6109,"Width":6110," Christian":6111,"stat":6112,"Write":6113," woman":6114,"wood":6115,"Vis":6116,"раз":6117," $$\\":6118,"oder":6119," bool":6120," international":6121,"ность":6122," Richard":6123," addition":6124," Music":6125," aber":6126,"tó":6127," hier":6128,"ugh":6129," pob":6130," tables":6131,"Do":6132," higher":6133,"psi":6134,"rá":6135," active":6136," Table":6137,"ње":6138," description":6139," seemed":6140,"íst":6141," myself":6142," menu":6143,"del":6144," ž":6145,"ele":6146,"Aut":6147," гру":6148,"mut":6149,"oon":6150,"asc":6151,"bug":6152," moved":6153,"CL":6154," datas":6155,"SO":6156,"оло":6157," Georg":6158," reach":6159,":\"":6160," evalu":6161," Hel":6162," River":6163," Ар":6164,"////":6165," sets":6166," Olymp":6167,"Adapter":6168,".'":6169,"overn":6170," Lord":6171,"!--":6172,"jpg":6173,"imento":6174," Prof":6175," achieve":6176,"}:":6177," incor":6178," onder":6179,"engl":6180,"ABLE":6181," Mary":6182," waren":6183,"lage":6184,"Dec":6185,"англ":6186,"encias":6187,"лей":6188," Machine":6189," Ан":6190,"uda":6191," ś":6192," XX":6193,"only":6194,"ление":6195," también":6196,"nej":6197," relative":6198," hours":6199," indeed":6200,"undo":6201,"ingu":6202,"area":6203," Create":6204,"beit":6205," removed":6206,"master":6207,"haus":6208," Bern":6209," speed":6210," Bay":6211," Att":6212," None":6213,"application":6214,"üd":6215," fit":6216," Maria":6217," nord":6218," split":6219," stru":6220," official":6221," execute":6222,"ouve":6223,"{{":6224," Ap":6225," ку":6226,"IL":6227," ^":6228,"dim":6229," setup":6230,"ск":6231," share":6232," minutes":6233,"gle":6234,"oco":6235,"stell":6236," Coun":6237," temper":6238,"keit":6239,"ський":6240,"ao":6241," Long":6242,"(&":6243,"кан":6244," dens":6245,"But":6246,"XX":6247,"DATE":6248,"gan":6249,".).":6250," entry":6251,"install":6252," зна":6253," Som":6254,"Command":6255,"ßen":6256," starting":6257," sto":6258,"IG":6259," minim":6260," explicit":6261," bytes":6262," party":6263,"tober":6264," Grand":6265," Vor":6266," leur":6267,"Document":6268,"erc":6269,"ensive":6270,"CP":6271,"env":6272," arguments":6273," Gran":6274,"arily":6275," lin":6276,"tn":6277,"(-":6278,"geq":6279," Famil":6280," Бо":6281," tour":6282," nav":6283," properly":6284," Mrs":6285," Mel":6286," scale":6287,"astic":6288,"ds":6289," Sir":6290," Church":6291,"}^{\\":6292,"you":6293,"/.":6294,"So":6295," brought":6296," role":6297," Sur":6298," fond":6299," ges":6300,"że":6301,"eten":6302," était":6303,"SER":6304," которы":6305," equation":6306,"aspx":6307," Afr":6308," dit":6309,"empty":6310,"alement":6311,"wrap":6312," Bet":6313," collect":6314," git":6315," vie":6316," ..":6317,"рой":6318," <?":6319," educ":6320,"kl":6321,"ensis":6322," OR":6323," Hi":6324," Cour":6325,"бы":6326,"cert":6327," Ges":6328,"essor":6329,"Main":6330," лю":6331,"cade":6332,"dot":6333,"augh":6334,"hib":6335," automatically":6336," spir":6337,"present":6338," February":6339," Elle":6340,"custom":6341," proget":6342," administr":6343,"AA":6344," born":6345," College":6346,"athol":6347,"`)":6348,"ierre":6349," ran":6350," profession":6351,"ogen":6352,"}_{\\":6353," activity":6354," scroll":6355," prove":6356,"ibrary":6357,"eries":6358,"Read":6359,"year":6360," lang":6361,"Det":6362," knew":6363," protected":6364," wor":6365," effic":6366," rég":6367," theory":6368," published":6369,"real":6370," Tour":6371," durante":6372,"äs":6373," positive":6374," forward":6375," Rel":6376,"{\"":6377,"park":6378," Um":6379," eer":6380,"enta":6381," imag":6382,"ної":6383,"piel":6384," jQuery":6385,"isme":6386,"chni":6387,"organ":6388," args":6389,"oir":6390,"heim":6391,"rian":6392,"eless":6393,"uses":6394,"дин":6395,"ición":6396," indust":6397," wish":6398,"ány":6399,"oca":6400," angular":6401,"ieved":6402," occur":6403,"SELECT":6404,"onia":6405,"admin":6406," Best":6407," это":6408,"огра":6409," loss":6410," bal":6411," Рос":6412," career":6413," пе":6414,"IX":6415," fall":6416," Rob":6417," OP":6418,"ened":6419,"graphics":6420," coming":6421,"Update":6422," died":6423,"eden":6424," abs":6425," inner":6426," trav":6427,"стоя":6428,"zą":6429,"ép":6430," Group":6431," cel":6432," stuff":6433," situation":6434," ${":6435,"acle":6436," purpose":6437," Fire":6438," Oh":6439," Second":6440," upload":6441,"ostał":6442,"ющи":6443,"Auth":6444," showing":6445," completely":6446,"avel":6447,"bd":6448," proced":6449," Ö":6450,"control":6451," thank":6452,"undred":6453," tom":6454," examples":6455," remember":6456," рабо":6457," possib":6458," detect":6459," poor":6460," Op":6461," century":6462,"utter":6463," login":6464,"unst":6465,"Output":6466," otherwise":6467,"lan":6468,"тур":6469," сов":6470," groups":6471,"rip":6472," shell":6473," district":6474," records":6475," siè":6476,"fortun":6477,"enty":6478," Tre":6479," changing":6480,"след":6481,"aught":6482," deep":6483,"subset":6484,"agy":6485,"endar":6486,"jax":6487,"OM":6488,"El":6489,"imate":6490,"ardo":6491," plot":6492," visit":6493," bug":6494," все":6495," opened":6496," repla":6497," Henry":6498," pp":6499,"bas":6500," dark":6501," Martin":6502," resource":6503,"iling":6504," watch":6505,"replace":6506," release":6507,"Location":6508," learning":6509,"menu":6510," allows":6511,"ър":6512,"Length":6513," whatever":6514," pages":6515," compiler":6516," также":6517," Pan":6518,"command":6519," road":6520," unless":6521,"`?":6522," discover":6523," он":6524,"}]":6525,"bour":6526," Could":6527," regex":6528," ps":6529,"CD":6530,"из":6531," wife":6532,"amenti":6533," fair":6534," DB":6535," Cup":6536,"enen":6537,"ajax":6538,"othèque":6539," seiner":6540,"icker":6541,"ám":6542,"exchange":6543,"oles":6544,"IF":6545," До":6546,"ohn":6547," grow":6548," Thus":6549,"spec":6550," hatte":6551,"#,":6552,"allel":6553," rate":6554," central":6555," Van":6556,"iforn":6557,"Run":6558," study":6559," XML":6560," Che":6561," beaut":6562,"mid":6563," advance":6564,"Ver":6565,"тя":6566," hands":6567," lay":6568," š":6569," OS":6570," {}":6571,"Pre":6572," Hall":6573,"imp":6574," sun":6575," steps":6576," jud":6577,"qui":6578," boot":6579," %>":6580," Ва":6581,"nost":6582," nem":6583," pen":6584,"Open":6585," church":6586,"кон":6587," average":6588," comments":6589," corresponding":6590,"levant":6591," bed":6592," meaning":6593,"Version":6594,"Link":6595,"bel":6596," extract":6597,"ść":6598," IV":6599," Ir":6600," computer":6601," affect":6602," Ста":6603,"AX":6604,"sort":6605," species":6606," Oper":6607," hash":6608,"ches":6609," Einzeln":6610," keys":6611," marzo":6612," interpret":6613,"hood":6614," coordin":6615,"ös":6616,"rage":6617,"etz":6618,"iza":6619,"дер":6620,"üt":6621,"^*":6622," modify":6623," termin":6624," cred":6625,"zon":6626,"ную":6627," mie":6628," ''":6629," Mos":6630," connected":6631,"NO":6632," compile":6633," \"\\":6634," cat":6635,"fiddle":6636,"uta":6637,"Access":6638," Sto":6639," Bur":6640," north":6641,"Gamma":6642," alloc":6643,"Init":6644," Link":6645,"ialize":6646,"Impl":6647,"oupe":6648,"ropri":6649," Gold":6650," solo":6651," Dist":6652,",-":6653,"nav":6654," alert":6655,"esis":6656," Os":6657,"///":6658," feb":6659," -->":6660,"foot":6661," Fried":6662," Einzelnach":6663," rev":6664,"zeit":6665," Stat":6666," Seg":6667," blo":6668,"wick":6669,"EL":6670,"caption":6671,"header":6672," president":6673," multip":6674," Einzelnachweise":6675," seine":6676,"?”":6677,"Function":6678," Stand":6679," Function":6680," ?>":6681," Bill":6682," spect":6683," redirect":6684,"rupt":6685," walk":6686,"вши":6687,"springframework":6688,"place":6689,"ého":6690,"Entity":6691," Service":6692,"inte":6693," training":6694," (`":6695,"фор":6696," кра":6697,"aur":6698," fetch":6699," †":6700," même":6701," ('":6702,"atively":6703," execut":6704,"äch":6705," Catalogue":6706,"based":6707,"Attribute":6708," spring":6709,"phone":6710,"тра":6711," пи":6712,"тера":6713," `\\":6714," Od":6715,"One":6716,"send":6717,"bon":6718," °":6719,"MO":6720," asking":6721," où":6722," ingår":6723," testing":6724," фа":6725," Book":6726,"imm":6727," progress":6728,"bro":6729,"First":6730," phot":6731," ON":6732,"Template":6733,"developer":6734,"annot":6735," >=":6736,"mission":6737," któ":6738,"pc":6739,"bach":6740,"zent":6741,"ued":6742," ones":6743,"ји":6744," rout":6745," Ки":6746,"Post":6747,"ції":6748," Vir":6749,"nek":6750,"aging":6751," ок":6752,"izont":6753," agosto":6754," choose":6755," \r":6756," systems":6757,"loss":6758,"iente":6759," Cre":6760," contra":6761,"ums":6762," beginning":6763,"emy":6764,"istics":6765," served":6766,"Down":6767,"options":6768," Govern":6769," BY":6770," jest":6771,"té":6772," continue":6773,"pers":6774," easier":6775," cos":6776,"esso":6777,">>":6778,"Net":6779," Bor":6780," Cr":6781," transfer":6782," CSS":6783," finns":6784," хо":6785,"username":6786," constru":6787," pain":6788," Tem":6789," specified":6790," brit":6791,"ские":6792,"irk":6793,"rapper":6794," counter":6795," [\"":6796,"oded":6797,"дан":6798,"property":6799,"hard":6800,"istrict":6801,")/":6802," Pour":6803," Where":6804," ===":6805," sowie":6806," Про":6807," dess":6808," tras":6809," уча":6810," Over":6811,"note":6812," America":6813,"cp":6814," grande":6815,"Me":6816,")-":6817,"Mode":6818," passing":6819," giving":6820,"Cl":6821,"}/":6822,"Menu":6823,"!!":6824,"angular":6825," launch":6826,"varphi":6827," Johann":6828," foreach":6829,"ró":6830,"sequ":6831,"ifi":6832,"Am":6833,"arp":6834," buffer":6835," ni":6836," mix":6837," Museum":6838," meant":6839,"asi":6840," kan":6841,"прав":6842,"Comp":6843,"istoire":6844,"iful":6845,"jer":6846,"issions":6847,"Resource":6848," воз":6849," ST":6850," solutions":6851," belong":6852," Associ":6853,"cf":6854," Mär":6855," grid":6856,"Mult":6857," requires":6858,"kk":6859," teach":6860,"emeinde":6861," square":6862," коман":6863," Event":6864," rules":6865," bur":6866," eing":6867," Mai":6868," nam":6869," slä":6870,"hör":6871," tip":6872," Literatur":6873," scope":6874,"overline":6875," exit":6876,")?":6877,"bet":6878," vict":6879,"Off":6880," approxim":6881," Geb":6882,"ktop":6883,"heit":6884," Ю":6885,"template":6886,"рон":6887," uno":6888,"Serv":6889," framework":6890,"operator":6891," generally":6892," hundred":6893," divers":6894,"ovi":6895," rés":6896,"abs":6897," gal":6898,"çais":6899," feet":6900," virtual":6901,"czy":6902,"ску":6903,"./":6904,"hu":6905,"ancy":6906," recommend":6907," під":6908," money":6909," versions":6910," helps":6911," Hor":6912,"Items":6913,"look":6914,"connect":6915,"anges":6916,"ViewController":6917,"elijk":6918," occup":6919," editor":6920,"auto":6921,"ög":6922," seconds":6923," obvious":6924,"vm":6925,"akes":6926," gegen":6927," til":6928,"jection":6929,"лення":6930," operations":6931," East":6932,"ogy":6933," Polit":6934,"uten":6935," Joseph":6936,"\"`":6937," Company":6938," callback":6939," sen":6940,"cción":6941," associated":6942," containing":6943," practice":6944,"elijke":6945,"oke":6946,"éra":6947,"uns":6948,"anta":6949,"vey":6950,"zu":6951," Bes":6952," Flor":6953,"mem":6954,"ycz":6955," architect":6956," anni":6957," contact":6958,"YPE":6959," Cas":6960," полу":6961,"ovo":6962," bring":6963," concept":6964," js":6965," Referencias":6966,"emble":6967," н":6968," supported":6969,"Big":6970," Hans":6971,"erv":6972," Maj":6973," arriv":6974," Have":6975," probability":6976," Pop":6977," Pass":6978,"token":6979,"Provider":6980," Ra":6981,"Reader":6982,"ooth":6983,"lap":6984," assist":6985,"adow":6986," tests":6987,"сси":6988," king":6989,"langle":6990," Sum":6991,"OIN":6992," security":6993,"nis":6994,"../":6995," basic":6996,"unity":6997,"`:":6998," кото":6999,"kow":7000," Bibliothèque":7001,"asion":7002,"alo":7003,"ifest":7004," novembre":7005," peu":7006," Ж":7007,"enschaft":7008,"clus":7009,"ју":7010,"Height":7011,"ún":7012," tur":7013," ideas":7014," ces":7015,"frak":7016," premier":7017,"itation":7018," sé":7019,"HTML":7020," Royal":7021,"ської":7022," byte":7023,"PS":7024," segu":7025,"inen":7026," Great":7027," Ку":7028," external":7029,"Title":7030,"Top":7031,"Process":7032,"ität":7033," `/":7034," secret":7035,"pository":7036," potential":7037," Bud":7038,"names":7039,"asons":7040,"stackexchange":7041,"background":7042,"пер":7043,"сов":7044,"after":7045," pero":7046," software":7047," sed":7048," arrays":7049,"tmp":7050," asp":7051,"scale":7052," Lat":7053,"anal":7054," gem":7055,"PU":7056," Altri":7057,"That":7058," Ни":7059,"ifact":7060,"Address":7061," south":7062," formula":7063," Colleg":7064," ін":7065,"ktion":7066," sac":7067,"SH":7068,"ajo":7069,"etc":7070,"vc":7071,"`](":7072," Dur":7073," Ме":7074," Smith":7075,"items":7076,"CK":7077,"elo":7078," plugin":7079," serie":7080,"ienne":7081," или":7082,"Mar":7083," Image":7084,"got":7085,"andas":7086," matches":7087," worth":7088," Deb":7089," cache":7090," felt":7091,"ersch":7092,"izes":7093,"Oper":7094," Jahre":7095," commune":7096,"thread":7097," ny":7098,"dec":7099,"ouw":7100," surface":7101," Por":7102," Street":7103,"при":7104," candid":7105," Return":7106," Kom":7107,"gru":7108," ти":7109,"[\\":7110," depends":7111," influ":7112," towards":7113,"ained":7114," rank":7115," Januar":7116," components":7117,"gest":7118,"getElementById":7119," checked":7120,"airs":7121,"join":7122," dead":7123," hit":7124,"ény":7125," equivalent":7126," Пре":7127," appropri":7128,"Pass":7129," primer":7130,"englisch":7131," appar":7132," During":7133," knowledge":7134," trigger":7135," core":7136," Ol":7137," Produ":7138," Fern":7139," нача":7140,"Te":7141," Mot":7142,"erve":7143,"тво":7144," mid":7145," finally":7146,"aires":7147," especially":7148," tut":7149," receive":7150,"adre":7151," neigh":7152,"ktet":7153,"ilde":7154," radio":7155," driver":7156,"лись":7157,"endencies":7158," IE":7159," saved":7160,"ffect":7161," Wayback":7162,"iat":7163," padding":7164,"window":7165,"тиче":7166," mur":7167,"actor":7168," Han":7169,"ональ":7170," gar":7171," familjen":7172,"ós":7173," nationale":7174," pré":7175,"ded":7176,"onal":7177," President":7178," \\,":7179," placed":7180,"erni":7181," signal":7182,"nab":7183,"hm":7184,"Mon":7185," vs":7186,"SC":7187," progetti":7188," Ü":7189," forms":7190," messages":7191,"inf":7192,"users":7193,"GET":7194," dels":7195,"Collection":7196," Good":7197," Maybe":7198," compr":7199," larger":7200,"gres":7201,"aper":7202," При":7203,"undes":7204," sea":7205," Spring":7206,"ulo":7207," mechan":7208," sans":7209,"GB":7210,"Valid":7211," communic":7212," pra":7213,"vier":7214," Се":7215," ain":7216,"тура":7217,"kom":7218,"skiego":7219,"ково":7220,"adata":7221," Ре":7222," boolean":7223,"sets":7224," effort":7225,".[":7226," został":7227,"PA":7228," Vict":7229,"SD":7230,"ował":7231," emb":7232," prima":7233," hour":7234,"subsection":7235," Fort":7236,"mathfrak":7237,"igin":7238,"GL":7239,")+":7240,"fi":7241," anci":7242," pan":7243,"\\)":7244," lug":7245," deploy":7246,"domain":7247," slight":7248,"JSON":7249," morning":7250," hi":7251," compare":7252,"ije":7253," blue":7254," Ac":7255," middle":7256,"anden":7257," shared":7258," Camp":7259," Á":7260,"ounded":7261,"uw":7262,"ierung":7263,"Stack":7264," eines":7265," Da":7266,"lij":7267,"enti":7268," й":7269,"Util":7270," experience":7271," await":7272,"uls":7273," requests":7274," impos":7275," constraint":7276,"Change":7277,"emph":7278,"бер":7279," Another":7280,"Custom":7281," significant":7282,"cr":7283," million":7284,"reek":7285," dalla":7286," Germ":7287,"otal":7288,"ateur":7289,"btn":7290," thinking":7291," interval":7292,"onne":7293," liv":7294,"():":7295," Ве":7296,"oe":7297," Ev":7298,"meta":7299," broad":7300,"Rem":7301,"apply":7302," couple":7303," techni":7304,"idades":7305," goal":7306," CD":7307,"hab":7308," explan":7309,"anner":7310," Because":7311,"blog":7312,"includegraphics":7313," voice":7314," Map":7315,"vention":7316,"Session":7317," Liens":7318," sor":7319,"category":7320,"ashington":7321," März":7322,"pop":7323,"illet":7324," zwei":7325," Lie":7326,"Null":7327,"address":7328," factor":7329," ligne":7330," HTTP":7331," suf":7332," personal":7333,"cip":7334," Dar":7335," adm":7336,"кой":7337," Ext":7338," god":7339,"aa":7340,"Right":7341,"été":7342," dynamic":7343," maintain":7344,"tor":7345,"########":7346," Fra":7347," choice":7348," сто":7349,"СР":7350," Feder":7351,"ston":7352," flag":7353,"kit":7354,"Module":7355," спо":7356," Stra":7357,"icks":7358," haven":7359," Mass":7360," Emp":7361," Pi":7362," Pen":7363,"Rect":7364," Kr":7365,"itat":7366,"eler":7367,"ября":7368,"itet":7369," Start":7370," produced":7371," пол":7372,"(_":7373," delet":7374," hot":7375," Geschichte":7376,"~~":7377," months":7378," tod":7379," ни":7380,"ús":7381,"temp":7382," Dez":7383,"ypes":7384," cui":7385,"ommun":7386,"actions":7387," eigen":7388," immediately":7389,"PL":7390," Го":7391," Bal":7392,"ље":7393,"ului":7394," online":7395," años":7396," namespace":7397," mond":7398," Base":7399," Canada":7400,"etzt":7401,"}-":7402," defin":7403," doubt":7404," investig":7405,"views":7406," Line":7407," stage":7408,"ettings":7409,"ubre":7410,"float":7411," Play":7412," Las":7413,"ptr":7414," becomes":7415,"estamp":7416," independent":7417," analysis":7418," Look":7419,"lain":7420," рас":7421,"Reference":7422," sorry":7423," supposed":7424,"ût":7425," degree":7426,"utz":7427,"MM":7428," desired":7429,"ły":7430," len":7431," alone":7432,"signed":7433," Sta":7434,"Person":7435," applied":7436," Back":7437," mars":7438,"Part":7439," Did":7440," externes":7441," np":7442,"ongo":7443," esta":7444,"Block":7445," pou":7446,"adores":7447," Studio":7448,".$":7449," reached":7450,"bot":7451," Juni":7452,"tons":7453,"itel":7454," Gar":7455," articles":7456," District":7457," trouble":7458,"lide":7459," Found":7460,"ád":7461," equip":7462," internal":7463,"'],":7464," async":7465,"UB":7466,"gel":7467," ai":7468,"ensure":7469," appeared":7470," $_":7471," maximum":7472," Си":7473,"рь":7474," announ":7475,"лась":7476," cm":7477,"ган":7478,"aupt":7479," latter":7480," platform":7481," dra":7482," capital":7483," solved":7484,"riz":7485,"edic":7486," Mur":7487," Top":7488,"тся":7489,"Panel":7490,"rule":7491,"etic":7492," Ren":7493," Wikimedia":7494," TO":7495,"second":7496,"isl":7497," hy":7498," niet":7499," loaded":7500,"dig":7501," mayo":7502,"[:":7503,"Acc":7504," bek":7505,"нию":7506,"login":7507,"tx":7508," Fur":7509," Santa":7510,"azz":7511," conduct":7512," India":7513,"Order":7514,"irth":7515,"tw":7516,"}+":7517," wieder":7518," Edu":7519,"AV":7520," ```":7521," manually":7522," Read":7523,"fortunately":7524," Run":7525," Award":7526," Foot":7527,"*)":7528,"params":7529,"пі":7530," native":7531,"rift":7532," ä":7533,"ATH":7534," yourself":7535," prior":7536," cit":7537,"äh":7538," treat":7539," meas":7540,"ributed":7541," clar":7542,"card":7543,"ROR":7544,"illes":7545," layer":7546,"auer":7547," rat":7548,"bernate":7549," stato":7550," China":7551," $('#":7552," naar":7553,"zip":7554," ${\\":7555," appreciated":7556," име":7557,"ży":7558," przez":7559," Indian":7560," Tod":7561," Source":7562," други":7563,"internal":7564,"ionale":7565,"Product":7566," Men":7567," upper":7568," Every":7569,"},\\":7570," printf":7571," continued":7572," nodes":7573,"лки":7574," nice":7575,"modules":7576,"eign":7577," Mex":7578," According":7579," undefined":7580," binary":7581,"cut":7582,"Current":7583,"edy":7584,"}}{":7585,"bles":7586," вой":7587,"scri":7588,"eqn":7589,"Changed":7590," köz":7591," remote":7592,"вля":7593," quel":7594," align":7595," пар":7596,"SV":7597,"yer":7598," Californ":7599," places":7600," primary":7601," conv":7602," Juli":7603," visual":7604," Select":7605,"atory":7606,"=(":7607,"iser":7608," intent":7609,"sur":7610,"container":7611,"iced":7612," board":7613,"astr":7614,"omial":7615,"вет":7616,"зва":7617," cru":7618," Oktober":7619,"save":7620," greater":7621," inn":7622," picture":7623," То":7624," obtained":7625,"Wikimedia":7626,"úblic":7627," lors":7628," mont":7629,"obre":7630," civil":7631," construction":7632," Welt":7633," Under":7634,"undert":7635," edge":7636," Liste":7637,"csv":7638," experiment":7639,"localhost":7640," Edit":7641,"greg":7642,"ová":7643,"ља":7644,"msg":7645," Green":7646,"Dialog":7647,"Ident":7648," JS":7649,"^{(":7650," släktet":7651,"____":7652,"Project":7653," beskre":7654," ber":7655," wouldn":7656," react":7657,"Hel":7658,"zw":7659," Washington":7660,"orie":7661,"task":7662," category":7663," artist":7664,"anno":7665," ook":7666,"ammen":7667," Minister":7668," declar":7669," Key":7670,",.":7671," mach":7672," ww":7673,"isen":7674,"Fran":7675," Росси":7676,"бор":7677,"три":7678," rock":7679,"quis":7680,"mos":7681,"пера":7682," esterni":7683," gold":7684,"Windows":7685,"%%":7686," partial":7687," weight":7688," spr":7689,"}).":7690," français":7691,"fun":7692," thous":7693,"holder":7694," gone":7695," Č":7696," rend":7697,"DA":7698," answered":7699," False":7700,"Buffer":7701," daugh":7702,".--":7703," Show":7704," rect":7705," Kre":7706,"dr":7707,"osoph":7708," yield":7709,"urity":7710,"toString":7711,"aval":7712,"Pol":7713," lock":7714,"imation":7715,"antic":7716,"Local":7717," beskrevs":7718,"ités":7719,"grid":7720,"ут":7721," _{":7722,"сі":7723,"FILE":7724," км":7725," speak":7726,"summary":7727,"prop":7728,"javascript":7729,"zk":7730,"izontal":7731," trois":7732," Rod":7733,"prise":7734,"рово":7735," odd":7736," gest":7737," produce":7738," waar":7739," Av":7740,"ribu":7741,"вання":7742," finished":7743," adapt":7744," Sar":7745,"textit":7746," Ce":7747," Fa":7748,"osen":7749," deriv":7750," ship":7751," opin":7752," Even":7753,"gesch":7754," suppose":7755," Fer":7756,"ское":7757," worden":7758,"sey":7759,"hline":7760," Union":7761," /**":7762," vez":7763," Collegamenti":7764," Society":7765," econom":7766,"ší":7767,"oi":7768," orient":7769," Teil":7770,"rent":7771,"лекс":7772," solid":7773," cart":7774,"****************":7775," cab":7776," Message":7777,"dots":7778," ég":7779," twe":7780,"aga":7781," naz":7782," Microsoft":7783," underarter":7784,"ppen":7785," recent":7786," net":7787," resources":7788,"Ste":7789,".\\":7790," SO":7791,"лом":7792," cele":7793," lic":7794," benef":7795,"ldots":7796," serial":7797,"Integer":7798,"cles":7799," miles":7800," Ale":7801," entered":7802," Two":7803,"wie":7804," includes":7805," Each":7806,"elling":7807,"quer":7808," Dom":7809,"pf":7810,"WS":7811," straight":7812," Stan":7813," nos":7814,"ícul":7815,"atro":7816," Center":7817,"FT":7818," Inga":7819,"ilo":7820," www":7821,"jsfiddle":7822,"nic":7823," European":7824," commer":7825," girl":7826,"total":7827," Star":7828," suggested":7829,"pal":7830," zwischen":7831,"писа":7832,"IM":7833," handler":7834," Program":7835,"xsl":7836,"ály":7837,"BU":7838,",--":7839," vid":7840," established":7841," Spiel":7842,"ometry":7843,"unes":7844," sit":7845," inher":7846," puis":7847," être":7848," Most":7849,"Header":7850,"insert":7851," sist":7852," favor":7853,"dest":7854," entity":7855,"Cal":7856," Therefore":7857,"DD":7858,";;":7859," Dezember":7860," Rh":7861,"iments":7862," returning":7863,"sto":7864," Value":7865," liber":7866," Result":7867," bind":7868,"voir":7869," Tim":7870," Movie":7871,"weg":7872,"ket":7873," исто":7874," friends":7875," fn":7876," él":7877," &=":7878,"arden":7879,"fficial":7880," community":7881," api":7882,"Args":7883,"ieren":7884," dann":7885,"omorph":7886,"adr":7887,"loop":7888,"uman":7889," vous":7890,"bst":7891,"submit":7892,"\\|":7893,"тин":7894,"Container":7895,"asket":7896,"?)":7897,"Sec":7898," drive":7899,"Ass":7900," swe":7901," amer":7902," mine":7903," Ham":7904," avait":7905," Hon":7906," après":7907," Mann":7908,"ська":7909," increase":7910," ty":7911,"sky":7912," accur":7913,"article":7914,"weight":7915," sex":7916," listade":7917,"/**":7918," está":7919,"}}$":7920,"argo":7921,"define":7922," состав":7923,"session":7924,"ads":7925,"стви":7926," Law":7927," dialog":7928," duplicate":7929," ép":7930," voc":7931,"fri":7932," green":7933," hidden":7934," Island":7935," diag":7936,"owej":7937,"mysql":7938,"teil":7939,"rä":7940,"ikan":7941," José":7942,"aled":7943,"Runtime":7944," train":7945," Division":7946,"ниц":7947," Span":7948,"нима":7949,")=\\":7950,"тан":7951," stay":7952," foo":7953," accom":7954," hers":7955," нау":7956," Mün":7957,"ideos":7958,"static":7959," ready":7960,"]`":7961," visible":7962," Hope":7963,"ulated":7964," Cult":7965,"стро":7966,"Co":7967," smaller":7968,"atura":7969," perfectly":7970,"req":7971," proposed":7972," degli":7973,"Search":7974," ich":7975,"Max":7976," volume":7977,"execute":7978,"gre":7979," sport":7980,"udad":7981,"PT":7982," Records":7983," cook":7984," expand":7985,"бі":7986," altri":7987,"ppet":7988,"arse":7989," wet":7990," Bob":7991," FC":7992," Association":7993,"uje":7994," fel":7995," слу":7996," Big":7997,"/\\":7998,"Ge":7999,"while":8000,"{(":8001," sufficient":8002,"Position":8003," understanding":8004," nue":8005," raz":8006," ye":8007,"hem":8008,"Num":8009," Project":8010," Its":8011," hasta":8012,"enso":8013," wire":8014,"Ret":8015,"uj":8016,"proof":8017," relevant":8018," partir":8019," ago":8020,"ificate":8021," domin":8022," boy":8023," plant":8024," encoding":8025," throws":8026," Rock":8027,"zone":8028,"gang":8029,"widget":8030," interesting":8031,"DER":8032," demon":8033," office":8034,"amt":8035,"äter":8036," White":8037," versch":8038," dieser":8039," Mount":8040," students":8041," Pub":8042," Де":8043,"ija":8044," Cy":8045," California":8046," abril":8047,"äll":8048," чем":8049,"TV":8050," més":8051," declared":8052," ю":8053,"ől":8054,"appa":8055," Бе":8056,"echo":8057,"numer":8058," posted":8059," вер":8060," године":8061," weak":8062," Republic":8063," champion":8064,"ensuremath":8065,"your":8066," Ober":8067," Central":8068,"isa":8069,"анд":8070,"yy":8071," fully":8072," SD":8073," Linux":8074," Scott":8075,"partment":8076,"kon":8077," contract":8078," OF":8079," ale":8080," Ann":8081," над":8082,"lah":8083," Next":8084,"oren":8085," disk":8086," eg":8087,"atu":8088,"логи":8089," games":8090,"Left":8091," lu":8092," finite":8093," ки":8094," crash":8095,"pher":8096,"exe":8097,"ATION":8098," brother":8099,"Eng":8100,"tat":8101," Integer":8102,"ному":8103," colon":8104,"iqu":8105,")).":8106,"ivi":8107," Method":8108,"arten":8109,"Uni":8110,"vector":8111," wood":8112,"рт":8113," Ле":8114," siècle":8115," gent":8116,"}\r":8117," contents":8118," compan":8119,"Go":8120," jou":8121,"uent":8122,"Async":8123,"printf":8124," Model":8125," kept":8126,"ASE":8127," provides":8128," Abgerufen":8129," Gall":8130," Alf":8131,"SA":8132," Mem":8133," kter":8134," Bru":8135,"Android":8136,"(:":8137," Украї":8138,"Ne":8139,"Min":8140,"atr":8141," Hal":8142,"delete":8143,"odo":8144," não":8145,"ène":8146," calculate":8147,"Json":8148,"keys":8149,"ней":8150," hence":8151," ow":8152," Lib":8153,"eno":8154," Love":8155,"osi":8156,"wide":8157," score":8158,"full":8159,"вод":8160," determine":8161," spaces":8162,"лова":8163," peut":8164,"éral":8165,"ół":8166," appoint":8167," Tw":8168,"<?":8169," Order":8170," hop":8171,"random":8172,"cache":8173," destroy":8174," race":8175,"Tag":8176," rid":8177," negative":8178,"Car":8179,"ensional":8180,"dk":8181," cro":8182," THEN":8183," $.":8184,"ensk":8185,"NE":8186,"HO":8187," kle":8188,"ospital":8189,"kte":8190,"férences":8191,"udes":8192,"IR":8193,"otion":8194," Real":8195," Februar":8196,"ин":8197," Old":8198,"кого":8199,"leich":8200," р":8201,"ían":8202," га":8203,"cide":8204,"lab":8205," pull":8206," '/":8207,"Long":8208,",$":8209," appropriate":8210," была":8211,"führ":8212," Media":8213," manner":8214," Ге":8215,"description":8216,"Bean":8217," Lar":8218,"'];":8219," relation":8220," Sorry":8221,"har":8222,"cpp":8223," Ko":8224," execution":8225,"inos":8226," bul":8227,"grade":8228," Mu":8229," pil":8230,"writ":8231,"ifications":8232,"inese":8233," Phili":8234,"dx":8235," leading":8236," Journal":8237,"oved":8238," contro":8239,"нова":8240,"Yes":8241," channel":8242,")),":8243,"isten":8244,"aka":8245,"ToString":8246,"mas":8247," ett":8248," forces":8249,"ulations":8250," Call":8251," explanation":8252,"oring":8253,"ATA":8254,"chter":8255,"when":8256,"VC":8257," Jahrh":8258,"Case":8259," commands":8260," rich":8261,"bus":8262,"Fe":8263,"mbox":8264," recon":8265,"ño":8266," shape":8267,"owy":8268,"entry":8269,"itable":8270," election":8271,"ється":8272," prep":8273,"vá":8274," infin":8275,"lot":8276," books":8277," USA":8278,"лин":8279," pom":8280," nas":8281," tags":8282," executed":8283,"aille":8284,"lung":8285," JavaScript":8286," ball":8287," ainsi":8288," Pri":8289,"{$":8290," UN":8291," Ram":8292," hear":8293," Ubuntu":8294,">();":8295," pure":8296," embed":8297,"ação":8298,"controller":8299," married":8300," Fol":8301,"famil":8302," prec":8303," recurs":8304,"pad":8305,"istration":8306," respectively":8307,"[$":8308,"autor":8309," grav":8310,"iera":8311,"azioni":8312," Bul":8313," Australia":8314,"mond":8315," Tro":8316," Ele":8317,"packages":8318,"msdn":8319," Als":8320," przy":8321,"ART":8322," charge":8323," applications":8324,"Unit":8325,"aren":8326," sudden":8327,"ometer":8328," dot":8329,"acji":8330,"ктор":8331,"imin":8332,"ening":8333," donde":8334," Ho":8335,"tree":8336,"mb":8337," drag":8338,"aje":8339," invalid":8340," finish":8341,"laim":8342," feed":8343," Nap":8344,"room":8345,"images":8346," сай":8347," succ":8348,"iffer":8349," año":8350," cual":8351,"мери":8352,"DR":8353," Bilder":8354,"бра":8355,"rait":8356,"pan":8357,"ень":8358," distinct":8359," Kn":8360,"önig":8361,"anced":8362," loading":8363," Techn":8364," Sel":8365,"mus":8366," rail":8367," student":8368," notice":8369," sla":8370," Да":8371," guard":8372," Day":8373,"вали":8374,"Option":8375,"aison":8376,"ipp":8377," Jun":8378," fell":8379," absolute":8380,"ове":8381,"debug":8382," Sud":8383,"пы":8384,"ugins":8385," views":8386,"lay":8387," surr":8388," stood":8389," ві":8390,"selected":8391,"гі":8392," attributes":8393,"final":8394,"enda":8395," Bon":8396,"ners":8397," Wer":8398,"bur":8399,"ittel":8400," moving":8401," Plan":8402,"isches":8403,"Java":8404," basis":8405," Bus":8406," Au":8407," Ill":8408," время":8409," цент":8410,"handle":8411,"ступ":8412," Far":8413," oraz":8414,"ocr":8415," seit":8416,"onder":8417,"дом":8418,":/":8419,"chor":8420," Town":8421," definit":8422,"react":8423," piece":8424," Karl":8425,"CI":8426," Application":8427,"unter":8428," formed":8429," пу":8430,"Bo":8431," Daniel":8432," пла":8433,"Body":8434,"})$":8435," были":8436," earth":8437,"гла":8438,"There":8439," стра":8440," ville":8441," centre":8442,")\r":8443," helpful":8444," ++":8445," CG":8446,"izione":8447," Game":8448," Which":8449," pip":8450," Portug":8451,"DS":8452," describe":8453," checking":8454," manager":8455,"BO":8456," Bundes":8457,"buch":8458," decided":8459," Jahrhundert":8460," fif":8461,"efficient":8462,"anci":8463,"braries":8464," fails":8465," kernel":8466," Gl":8467," Nacional":8468," proceed":8469," fuer":8470," living":8471," successfully":8472," faster":8473," contre":8474," prison":8475,"ORT":8476,"help":8477," autor":8478,"ław":8479,"ają":8480," Arm":8481," provin":8482," naam":8483,"/#":8484,"sed":8485," gesch":8486," мар":8487,"esk":8488,"term":8489," Tex":8490,"iring":8491," tools":8492,"PDF":8493," ult":8494,"issenschaft":8495," couldn":8496,"ding":8497,"Dep":8498,"{-":8499," predict":8500,"antage":8501," Like":8502," Би":8503,"tools":8504,"estra":8505," ki":8506," Jim":8507,"star":8508," remark":8509,"óg":8510,"nabla":8511," Although":8512,"mode":8513,"Host":8514," strange":8515,"None":8516,"black":8517," Festival":8518," IS":8519,"anza":8520," (-":8521,"icket":8522,"кола":8523," Jes":8524," flex":8525," À":8526," Network":8527," EX":8528," enero":8529,"!”":8530," Ort":8531," alors":8532," Original":8533," zo":8534,"ными":8535," spl":8536,"Draw":8537,"yond":8538,"──":8539," Ot":8540," dram":8541," division":8542," efficient":8543," Га":8544," vier":8545,"nak":8546,"LS":8547," spirit":8548,"zeichnet":8549," dici":8550,"clear":8551,"copy":8552,"yar":8553," році":8554,"usqu":8555," nous":8556," blev":8557,"жде":8558,"Arg":8559," performed":8560," Make":8561," Carol":8562,"etto":8563," Sand":8564," Disc":8565,"Enc":8566,"rero":8567,"hash":8568," focus":8569," attention":8570," agre":8571," divis":8572," было":8573," ej":8574," march":8575," phase":8576,"ías":8577," phil":8578," Pap":8579," river":8580," caused":8581,"plugin":8582," Team":8583,"uler":8584," $(\"#":8585,"iej":8586,"ISBN":8587,"nam":8588," fight":8589,"vid":8590," Lud":8591,"Selected":8592,":@\"":8593," Pod":8594," années":8595,"arios":8596," deutscher":8597," NA":8598," ию":8599," dictionary":8600," Ла":8601," Tri":8602,"èn":8603," political":8604,"ridge":8605,"atten":8606," circle":8607," transport":8608,"emas":8609,"FC":8610," replaced":8611," Aud":8612,"iska":8613,"Configuration":8614," soort":8615," Не":8616," sequ":8617,"PRO":8618," bud":8619," {{":8620,"ließ":8621," Mas":8622,"ders":8623,"usammen":8624,"esa":8625," Ly":8626,"вро":8627,"mac":8628," испо":8629," suc":8630,"uy":8631," illustr":8632," primera":8633,"ilation":8634," storage":8635," params":8636,"kaz":8637," terminal":8638,"раль":8639," holds":8640,"лось":8641," nad":8642,"”.":8643," octubre":8644,"bul":8645," hus":8646,"ULT":8647," également":8648," Mill":8649,"ład":8650," contiene":8651,"\"?":8652," >>>":8653,"Que":8654,"  ":8655," plain":8656,"ativa":8657,"ocker":8658,"Names":8659," Jud":8660," agree":8661," Gemeinde":8662,"lare":8663,"каза":8664," starts":8665," price":8666,"Target":8667,"cus":8668," Instead":8669,".;":8670," alternative":8671," вла":8672,"IE":8673," organiz":8674,"inu":8675," completed":8676," carry":8677,"atom":8678," depending":8679," Our":8680," insp":8681," &\\":8682,"aily":8683,"irection":8684,"фа":8685," defe":8686,"TAC":8687," designed":8688," voir":8689,"break":8690," partie":8691," Jahren":8692," studio":8693," jour":8694," Notes":8695,"fire":8696,"house":8697,"success":8698," Juan":8699,"JS":8700," Custom":8701," besch":8702," stated":8703,"bootstrap":8704,"ött":8705,"ozzá":8706," CON":8707,"hav":8708," sleep":8709,"eda":8710,"hot":8711,"ánd":8712," Sy":8713," temps":8714,"amar":8715," scal":8716," ast":8717," opening":8718,"clipse":8719," programming":8720," letters":8721," profile":8722,"nah":8723," beyond":8724," Further":8725,"faces":8726," chart":8727,"зда":8728,"aign":8729,"ній":8730," Rol":8731,"овано":8732,"terior":8733,"wed":8734," herself":8735," ng":8736,"anguages":8737,"}=\\":8738,"ynamic":8739," jug":8740," Example":8741," (†":8742," playing":8743," usage":8744," managed":8745," Natur":8746,"тери":8747," Et":8748,"eria":8749," daughter":8750,"нием":8751,"Fragment":8752," hol":8753,"Fl":8754,"ографи":8755," ihn":8756,"üh":8757,"instance":8758," comun":8759," truth":8760," само":8761," implemented":8762," anyway":8763," Cro":8764,"фе":8765,"GC":8766,"ubuntu":8767,"types":8768,"ês":8769,".~\\":8770,"fold":8771," joined":8772,"??":8773," mé":8774," wild":8775,"клю":8776,"rowser":8777," Home":8778,"skiej":8779," JOIN":8780," juin":8781,"hof":8782," dataset":8783,"жду":8784,"'))":8785," miejs":8786,"API":8787," edited":8788,"ools":8789," seeing":8790,"ijd":8791," procedure":8792," Bras":8793," signed":8794," externos":8795," disapp":8796," Direct":8797,"cyc":8798," consult":8799,"örd":8800,"Widget":8801,"cious":8802,"sect":8803," Ди":8804," wind":8805," Archivado":8806,"aml":8807,"сс":8808,"Wh":8809,"kbd":8810," Army":8811," suffer":8812,"artifact":8813," resolve":8814," Sport":8815," це":8816,"idas":8817," tax":8818,"idi":8819," actions":8820,"пра":8821,"pués":8822," naj":8823,"False":8824," chance":8825," тако":8826,"äd":8827," dol":8828," env":8829," basically":8830," Council":8831,"zte":8832," displayed":8833,"nil":8834,"complete":8835," Lem":8836,"iance":8837," основ":8838," depend":8839,"plom":8840,"ensus":8841,"uts":8842," Hot":8843,"bitr":8844," validation":8845,"abb":8846," тре":8847,"km":8848,"zd":8849,"öff":8850,"WE":8851," interested":8852," {\"":8853,"aro":8854," correl":8855," dedic":8856," lists":8857," Bibliografia":8858," earlier":8859,"program":8860," première":8861,"front":8862,"Tab":8863,"ству":8864,"drop":8865," fear":8866," Enlaces":8867," Capt":8868," realiz":8869," hal":8870," instances":8871," susp":8872,"illing":8873,"%;":8874,"{}":8875,"||":8876," partition":8877," Build":8878," wo":8879," Пер":8880," director":8881," Sin":8882,"тия":8883,"rsg":8884,"ouver":8885," nearly":8886,"oda":8887,"ктив":8888," sir":8889,"IME":8890," janvier":8891," Win":8892,"Build":8893,"ieurs":8894,"INE":8895,"double":8896,"Last":8897," policy":8898,"store":8899," observed":8900," familie":8901,"nica":8902,"rey":8903,"зь":8904," Year":8905," developed":8906," Institute":8907," reply":8908,"Comple":8909,"ician":8910," Guer":8911," dall":8912," desp":8913," Football":8914,"Empty":8915,"cken":8916,"unda":8917," Ur":8918," ig":8919," Atl":8920,"author":8921," Bol":8922,"zig":8923,"nat":8924,"št":8925,"security":8926,"onic":8927," pes":8928,"itan":8929," Extern":8930,"jan":8931,"VAL":8932," им":8933,"bold":8934," ва":8935," Мо":8936," disput":8937," trick":8938," ped":8939,")^{":8940,"into":8941,"Sim":8942," parallel":8943,"fox":8944,"normal":8945,"inent":8946,"педи":8947,"hold":8948,"OK":8949," chem":8950," twice":8951," username":8952,"ič":8953," representation":8954," journal":8955," :-":8956," batt":8957,"\\%":8958," certainly":8959," Exception":8960,"eps":8961,"shot":8962,"ategy":8963,"Show":8964," Carl":8965,"rig":8966," reported":8967,"bottom":8968,"TF":8969," Francisco":8970,"nap":8971," Championship":8972," court":8973," sources":8974,"iour":8975," conserv":8976,"dict":8977," Ру":8978,"IB":8979," Ve":8980," №":8981," ER":8982,"\"));":8983," Point":8984,"azine":8985," internet":8986,"дна":8987," carried":8988," Field":8989,"axis":8990," Sun":8991," ave":8992,"пис":8993,"ян":8994,"asy":8995," julio":8996," depuis":8997," suggestion":8998,"[[":8999," Archive":9000,"ęp":9001," Pra":9002,"reh":9003," demonstr":9004,"фі":9005,"cmd":9006," wasn":9007," phone":9008,"upload":9009,"aya":9010,"тора":9011,"lines":9012," indu":9013," vot":9014," espa":9015," bin":9016," после":9017,"plan":9018," junio":9019,"orial":9020,"free":9021,"sterreich":9022," ду":9023," linked":9024," enable":9025,"PC":9026," density":9027," Egy":9028,"yo":9029,"endre":9030," съ":9031," italiano":9032," AR":9033," Pers":9034,"férés":9035," скла":9036,"Var":9037," Once":9038,"Red":9039,"buffer":9040," Enter":9041," Š":9042,"imiento":9043,"Store":9044," health":9045,"vat":9046,"IST":9047,"Oh":9048," kw":9049," riv":9050," somewhere":9051,"ografie":9052,"private":9053,"кти":9054," delay":9055," Http":9056,"job":9057,"rael":9058,"empor":9059," diciembre":9060,"ête":9061,"цу":9062," commit":9063,"oso":9064,"Values":9065," headers":9066,"transform":9067," processing":9068,"rå":9069," Ah":9070," Node":9071,"------------":9072," faire":9073," hun":9074,"Player":9075," review":9076,"гда":9077," limited":9078," Property":9079," serve":9080,"riage":9081," Master":9082," kann":9083,"crete":9084,"phere":9085,"ёр":9086," chief":9087," scene":9088,"kin":9089," uniform":9090," febrero":9091,"\"}":9092,"illo":9093,"ITE":9094,"ouvel":9095,"usepackage":9096,"enth":9097," quickly":9098,"Lambda":9099,"xes":9100," cells":9101,"rog":9102,"amin":9103," Мар":9104," mayor":9105,"player":9106,"++;":9107," Насе":9108," safe":9109," veloc":9110," обра":9111,"Database":9112,"neh":9113,"Vert":9114," fle":9115," фор":9116," foreign":9117,"Abstract":9118," magn":9119," modified":9120," military":9121," monde":9122," Action":9123," bank":9124,"Serial":9125," continuous":9126," gel":9127," physical":9128," introduced":9129,"uture":9130,"rick":9131," presented":9132," Prov":9133," Both":9134,"Pos":9135,"super":9136,"&#":9137," finding":9138,"nel":9139,"unde":9140," från":9141,"skim":9142," Hill":9143,"fn":9144," Canad":9145," intended":9146,"ozzáférés":9147," juillet":9148," Wars":9149," successful":9150," charg":9151,"iele":9152,"omething":9153,"oku":9154,"fetch":9155," }}":9156,"bank":9157,"operatorname":9158," Color":9159," Card":9160,"tu":9161," \",":9162,"wid":9163," gep":9164,"XML":9165,"================":9166," Virgin":9167,"ährend":9168,"licated":9169,"Dir":9170,"zero":9171," Kal":9172," Party":9173," å":9174,"price":9175,"don":9176," warning":9177," Bad":9178," Supp":9179," Liga":9180," Pierre":9181,"Record":9182,"ulator":9183," Rome":9184," theorem":9185," entirely":9186,"ским":9187,"het":9188," dopo":9189,"Next":9190,"mlung":9191,"wig":9192," Ath":9193," Sou":9194,"licher":9195," sudo":9196,"ests":9197,"хів":9198," septiembre":9199," micro":9200," trop":9201,"fit":9202,"Core":9203," Radio":9204," Organ":9205," Power":9206,"CF":9207," Last":9208," oppos":9209," offset":9210," regia":9211," minimum":9212," helped":9213,"andon":9214,"ifying":9215,"ruit":9216,"enschapp":9217," bere":9218,"VM":9219," Awards":9220," agr":9221,"ynomial":9222,"enced":9223," devices":9224," bot":9225," firm":9226," writer":9227," ring":9228,".-":9229,"istes":9230,"lä":9231," mel":9232,"entation":9233," Schw":9234," nome":9235," pobla":9236," woj":9237," ul":9238,"ento":9239,"ых":9240," resist":9241," remains":9242," Ca":9243,"aña":9244," Court":9245,"utable":9246,"entially":9247," trat":9248," Visual":9249," restrict":9250," previously":9251,"cation":9252," осо":9253," MySQL":9254,"för":9255,"cala":9256," culture":9257,"live":9258," accepted":9259,"Did":9260," hous":9261," selection":9262," decre":9263,"margin":9264,"urb":9265," Inc":9266," Many":9267,"ibt":9268," succeed":9269,"Binding":9270,"cí":9271," Rog":9272," shouldn":9273,"cloud":9274," dz":9275,"вав":9276," pix":9277,"small":9278," projects":9279," OK":9280," latest":9281," references":9282,"Program":9283," erst":9284," як":9285," kam":9286," Camb":9287,"ellt":9288,"öd":9289,"none":9290," jusqu":9291,"king":9292," Ped":9293,"assert":9294,"CS":9295,"rito":9296,"essa":9297,"лько":9298," Von":9299," Edward":9300," impossible":9301,"np":9302,"words":9303,"ielt":9304," Page":9305,"lers":9306," pier":9307," области":9308,"ittee":9309," ([":9310," trust":9311,"NG":9312,"redu":9313,"<<":9314,"rial":9315," products":9316," Ern":9317,"rière":9318,"гов":9319," Reich":9320," Road":9321," nested":9322,"Display":9323," strength":9324,"ografía":9325," announced":9326," Science":9327," райо":9328,"Parameter":9329," Task":9330,"uments":9331," adopt":9332," Only":9333,"ють":9334," cli":9335," lem":9336,"stood":9337," FI":9338,"ências":9339,"ponents":9340,"]$":9341,"comment":9342," ya":9343,"should":9344,"ike":9345,"tim":9346,"ellig":9347," sending":9348," ajax":9349," noviembre":9350,"umes":9351," weiter":9352," Dans":9353,"opp":9354," septembre":9355,"otimes":9356,"ző":9357," ep":9358,"vere":9359," oh":9360,":=":9361," Song":9362,"”,":9363," viv":9364," queries":9365," vá":9366," décembre":9367," unable":9368," erh":9369," `-":9370," Lee":9371," ersten":9372,"ôt":9373,"стве":9374,"TS":9375," fragment":9376," wide":9377," suff":9378," dut":9379," Vere":9380,"іс":9381,"ading":9382,"iego":9383,"icago":9384," Argent":9385,"orer":9386,"ennes":9387," Leb":9388,"linux":9389,"acing":9390," broken":9391,"tp":9392,"ío":9393,"abeth":9394,"istas":9395,"gew":9396,"ième":9397,"cas":9398," preced":9399," Dal":9400," compared":9401,"equiv":9402,"illy":9403,"teen":9404," Console":9405," strict":9406,"itaire":9407," ED":9408,"entials":9409," perman":9410," tous":9411," geme":9412," extrem":9413," окру":9414,"kg":9415," heavy":9416," avril":9417," anti":9418," octobre":9419,"utf":9420,"helm":9421,"amples":9422," (_":9423,"aken":9424," dear":9425," opinion":9426," fish":9427," Alexander":9428,"iw":9429,"им":9430,"cadem":9431," reflect":9432," др":9433," trib":9434,"common":9435," clearly":9436," saf":9437,"=\"@+":9438," Мос":9439,"сите":9440,"eqnarray":9441,"nung":9442," relationship":9443," Sem":9444," killed":9445,"ted":9446,"uno":9447," лі":9448," wid":9449,"anning":9450," panel":9451," Leben":9452," ruby":9453,"ansion":9454," aren":9455,"tabular":9456,"alet":9457,"}$$":9458," Lake":9459," suite":9460," minor":9461,"Hozzáférés":9462," xmlns":9463,"DIR":9464,"driver":9465,"ints":9466," vic":9467,"AND":9468,"prim":9469,"сылки":9470," Ox":9471,"TC":9472,"rivial":9473,"atie":9474," eight":9475," conflic":9476,"angel":9477," Begr":9478," explicitly":9479,"ются":9480," Dev":9481,"render":9482," reprodu":9483," cré":9484,"Gu":9485,"MB":9486," kön":9487," remained":9488," kl":9489,"хов":9490," byl":9491,"Phi":9492," detail":9493,"jav":9494," mouse":9495,"Bas":9496,"ię":9497,"asser":9498,"hs":9499," shift":9500," últ":9501,"rand":9502," btn":9503,"raz":9504," pul":9505," statements":9506,"filename":9507," prompt":9508,"élé":9509,"ikz":9510," Sus":9511," debut":9512,"Stat":9513,"forms":9514," Hein":9515,"stadt":9516,"ennis":9517,"пол":9518,"arante":9519,"цій":9520," queue":9521," reci":9522," sta":9523,"ynchron":9524,"centering":9525,"Some":9526,"Graph":9527," tested":9528," Kunst":9529,"ом":9530," Nothing":9531,"ieu":9532,"“.":9533,"Bundle":9534," oficial":9535,"allow":9536," React":9537," Library":9538,"blue":9539," verw":9540," pare":9541," Friedrich":9542," aware":9543,"Exp":9544," effects":9545," горо":9546,"lopedia":9547," Ven":9548,"rale":9549," Final":9550," propos":9551,"lacement":9552,"kten":9553," novel":9554,"orter":9555," Germany":9556," django":9557," transition":9558," happened":9559," beautiful":9560," neither":9561," libraries":9562," hide":9563,"alg":9564," aspect":9565," forget":9566,"cademy":9567,"onte":9568,"refix":9569," cloud":9570,"ned":9571,"cdots":9572,"register":9573,"nym":9574,".):":9575," Jew":9576," très":9577,"ниче":9578," Dor":9579," proc":9580," gan":9581," є":9582," Sav":9583,"ví":9584,"Settings":9585," Vari":9586," cours":9587,"Ro":9588," conj":9589," reasons":9590," reader":9591,"лександ":9592,"icate":9593,"}),":9594," tasks":9595," Ray":9596," ric":9597,"Ke":9598,"onie":9599,"rf":9600,")[":9601," subsequ":9602," Turn":9603," VIAF":9604,"mathsf":9605,"HE":9606," declare":9607," protocol":9608," PC":9609,"цион":9610,"ViewById":9611," animation":9612," confused":9613,"вич":9614," enabled":9615,"owo":9616,"ást":9617,"öt":9618," mand":9619," Rail":9620,"fields":9621," Kap":9622," algebra":9623," Су":9624,"férence":9625," Current":9626,"сно":9627," Lim":9628,"Params":9629," Antonio":9630," tv":9631,"late":9632,"ifer":9633,"Entry":9634," Serv":9635," musical":9636," trace":9637," scient":9638,"fic":9639," forgot":9640,"video":9641," older":9642,"Tree":9643," uns":9644,"ники":9645," Europa":9646," Zwe":9647," бе":9648," vec":9649,"жу":9650,"           ":9651,"Match":9652,"span":9653," blank":9654," später":9655," Ty":9656," dict":9657,"ña":9658," confirm":9659," vý":9660,"зан":9661,"Rel":9662,"film":9663," Rot":9664," Hy":9665,"ках":9666," demand":9667," minist":9668," Madrid":9669," usual":9670,"spiel":9671,"eros":9672," tutorial":9673," Ссылки":9674,"sys":9675,"циаль":9676," spread":9677," convers":9678," roll":9679,"artifactId":9680," Number":9681," symmet":9682," Mult":9683,"expected":9684," axis":9685," matching":9686," food":9687,"groupId":9688,"Mapp":9689," свя":9690," vend":9691,"Found":9692,"otto":9693,"Cat":9694,"crit":9695,"istent":9696," drei":9697," ended":9698," Tele":9699,"component":9700," involved":9701," Estados":9702," danger":9703," chain":9704," Prom":9705,"hom":9706," polít":9707,"cop":9708," nap":9709,"rif":9710,"plements":9711," vent":9712,"anna":9713,"anted":9714,"dated":9715,"anth":9716," threads":9717,"зова":9718," станов":9719," eerst":9720,"buf":9721,"heid":9722," Ru":9723," Prim":9724," migr":9725," Unidos":9726," arbitr":9727," roman":9728,"ountry":9729,"ultur":9730," König":9731," annot":9732,"aching":9733," Haupt":9734,"umin":9735," hem":9736,"ckets":9737,"bau":9738,"ection":9739,"eft":9740," packages":9741," Kur":9742,"thur":9743," pays":9744,"liament":9745," Бу":9746," cada":9747,"points":9748,"ocket":9749," verb":9750,"лее":9751," submit":9752," san":9753,"ruby":9754," east":9755,"kov":9756," Verlag":9757," spot":9758,"ppo":9759,"Each":9760,"jekt":9761," Biographie":9762," news":9763," país":9764,"ufact":9765," dia":9766,"кова":9767," accompl":9768," Ét":9769,"ilities":9770," ihm":9771,"invoke":9772," append":9773,".),":9774," lab":9775,"anging":9776,"istan":9777,"resol":9778," Section":9779,"Parent":9780,"moz":9781,"Mat":9782,"styles":9783,"unden":9784,"“,":9785,"irtschaft":9786,"ким":9787," Finally":9788,"phen":9789," Pac":9790," ArrayList":9791," recover":9792," education":9793,"models":9794,"ped":9795," happy":9796,"чу":9797," guerra":9798,"media":9799,"OF":9800," ensure":9801,"Mark":9802,"database":9803,"oggle":9804," publish":9805,"OW":9806," Bau":9807,"?.":9808," части":9809," repository":9810," Matt":9811,"high":9812,"oven":9813," ger":9814," unknown":9815,"Amer":9816," Brown":9817,"ALL":9818," resulting":9819," bor":9820," poet":9821,"ними":9822,"Email":9823,"Font":9824," hist":9825," today":9826," Berg":9827," buttons":9828,"тал":9829," sni":9830," челов":9831,"Cre":9832," union":9833," zich":9834,"ishop":9835," quando":9836,"Po":9837,"CTION":9838," Cost":9839,"судар":9840,"erved":9841,"Note":9842,"Equal":9843,"лия":9844,"бур":9845," abstract":9846,"stop":9847," advice":9848," icon":9849," travel":9850,"BS":9851,"vens":9852," batch":9853,"lique":9854,"sheet":9855," ihre":9856,"emon":9857,"berto":9858," assigned":9859,"ью":9860,"Phone":9861," award":9862," functionality":9863,"alla":9864," Dam":9865," ciudad":9866," cluster":9867,"Description":9868," sheet":9869," Australian":9870," ».":9871," \"<":9872," wondering":9873,"aine":9874," represented":9875,"kappa":9876,"nb":9877," sy":9878," Kö":9879,"=\"#":9880," seven":9881,"Directory":9882," sister":9883,"plates":9884," luck":9885," remaining":9886," Vill":9887,"werk":9888,"anni":9889,"etti":9890,"func":9891," ban":9892,"ims":9893,"miss":9894,"agraph":9895,"екси":9896," Ref":9897,"nitt":9898," Gab":9899," andere":9900," jedoch":9901,"results":9902,"!\\":9903," listed":9904," loro":9905," knows":9906,"жно":9907,"Rad":9908," socket":9909,"multi":9910," рі":9911,"rails":9912," tar":9913," gentle":9914,"sett":9915,"services":9916,"bound":9917,"igkeit":9918,"aja":9919," cmd":9920,"agger":9921," ba":9922," Belg":9923," Kle":9924," wordt":9925," fost":9926," dimension":9927,"Ang":9928,"uming":9929,"Obj":9930,"нен":9931," Marie":9932,"exists":9933,"тро":9934," боль":9935,"emente":9936," Jon":9937,"SERT":9938," highest":9939,"aki":9940," tres":9941," circum":9942," Down":9943,"ommen":9944,"urer":9945," causes":9946,"venue":9947,"issance":9948," influence":9949," fat":9950,"реди":9951,"}\\\\":9952," entr":9953," Sign":9954," кла":9955," binding":9956,"essen":9957," Фран":9958," Local":9959," явля":9960,"appro":9961," dependencies":9962," talking":9963," zurück":9964,"connection":9965,"Active":9966,"bbe":9967,"irls":9968," Inf":9969,"wd":9970," ис":9971,"road":9972," conven":9973,"ět":9974,"вез":9975," entries":9976,"esc":9977," bits":9978,"asso":9979,"WR":9980,"ships":9981," dés":9982,"esp":9983,"Make":9984," familiar":9985,"Art":9986," army":9987,"ctr":9988,"éric":9989,"queue":9990," \\{":9991,"uela":9992,"amiento":9993,"ших":9994," \"\"\"":9995,"contr":9996,"лле":9997,"FS":9998," market":9999,"ång":10000,"citep":10001,"Ill":10002,"rank":10003," sender":10004," beim":10005,"рак":10006," compat":10007," occurs":10008," diese":10009,"ститу":10010,"awa":10011," iOS":10012," Chinese":10013," TR":10014," Ken":10015," Une":10016," creates":10017," showed":10018," év":10019,"ologia":10020," protest":10021," Pf":10022," squad":10023,"++,":10024,"áv":10025," essere":10026,"зя":10027,"kol":10028," slightly":10029,"addr":10030,"ân":10031," reduce":10032," \\(\\":10033," Dep":10034," generic":10035,"Loader":10036,"ți":10037," пос":10038," occasion":10039," Lady":10040,"entity":10041," avant":10042," Pas":10043,"aggio":10044,"\\{":10045,"пад":10046,"atholic":10047,"Password":10048," respond":10049," Non":10050,"AG":10051,"neg":10052," ус":10053,"blob":10054,"cke":10055," Consider":10056," Care":10057,"iki":10058," Chicago":10059,"inden":10060," Cop":10061,"]+":10062,"öm":10063,"évrier":10064,"кло":10065,"alen":10066," maj":10067,"racy":10068,"orte":10069,"ients":10070,"ells":10071,"activity":10072," runtime":10073,"NULL":10074," possibly":10075," stri":10076,"izi":10077," mir":10078," Version":10079,"prime":10080," twenty":10081," Mah":10082," sounds":10083,"шен":10084,"clusion":10085,"acz":10086," determined":10087," Rep":10088," Landes":10089," wall":10090,"igi":10091," reset":10092,"шо":10093,"yan":10094,"Met":10095,"ei":10096," appearance":10097," fois":10098," nell":10099,"esi":10100,"ёт":10101,"loor":10102," Ul":10103," resolution":10104," fot":10105," throughout":10106," ri":10107,"Level":10108,"pool":10109," identity":10110," janu":10111," imper":10112," över":10113,"}`":10114," infer":10115," dates":10116," Standard":10117,"force":10118,"ockey":10119,"tera":10120," distingu":10121," presence":10122,"lica":10123," leaving":10124,"itung":10125,"éb":10126," establish":10127," maar":10128,"adi":10129," News":10130,"azon":10131,"folg":10132," Hence":10133," Ye":10134," fab":10135," führ":10136,"itmap":10137," Vers":10138,"rov":10139,"Sign":10140,"device":10141,"Sigma":10142," wetenschapp":10143," Ps":10144,"PATH":10145," torn":10146,"vest":10147,"стов":10148,"account":10149," largest":10150," percent":10151," Women":10152," img":10153,"tool":10154," roce":10155," ay":10156,"inet":10157," août":10158," polynomial":10159," integral":10160," areas":10161,"}'":10162," hyp":10163,"loyee":10164,"таль":10165," proxy":10166," Wy":10167," Мекси":10168," escape":10169,"olar":10170," mistake":10171,")}{":10172," Pot":10173," processes":10174,"\">\r":10175,"halten":10176,"zza":10177,"amo":10178,"кре":10179," Wood":10180,"ør":10181," сер":10182,"ocia":10183,"two":10184,"profile":10185," Ast":10186,"embro":10187," arms":10188,"inas":10189,"innen":10190," msg":10191,"INT":10192," batter":10193,"ignment":10194," vy":10195,"Hrsg":10196," Grund":10197,"roc":10198,"seg":10199," decor":10200," eventually":10201,">,":10202," pag":10203,"anten":10204," strugg":10205,"}^\\":10206,"daten":10207," rela":10208,"пов":10209," коро":10210," Bos":10211," labor":10212," Secret":10213,"ugen":10214," jap":10215," husband":10216," Album":10217," etwa":10218," произ":10219,"richt":10220,"rach":10221,"bat":10222," prepar":10223," Stock":10224," lack":10225,"хід":10226," hogy":10227," Chrome":10228," Admin":10229," comparison":10230," increasing":10231,"нг":10232,"imi":10233,"Db":10234," gef":10235,"ucht":10236,"ése":10237,"gence":10238," Core":10239," incorrect":10240," assuming":10241,"ourse":10242,"ieron":10243," Theorem":10244," casa":10245,"jes":10246," дере":10247," `\"":10248,"LD":10249,"äß":10250,"Deb":10251," suiv":10252," Bank":10253,"libs":10254," Leon":10255," quart":10256," professional":10257," tiene":10258," accomp":10259,"стер":10260," UK":10261,"NN":10262," lí":10263,"ця":10264,"kel":10265," •":10266," dise":10267,"onto":10268," má":10269,"ifs":10270,"bild":10271," compute":10272," éd":10273,"ję":10274," Mé":10275," languages":10276," Times":10277,"cen":10278," авто":10279,"ým":10280,"enez":10281," upp":10282," méd":10283," cuando":10284,"од":10285,"Intent":10286,"eerd":10287," Tal":10288,"offset":10289," haben":10290,"reme":10291," Stack":10292," dri":10293," seinem":10294," février":10295," combination":10296," soll":10297," movement":10298,"Spec":10299,"кры":10300,"retch":10301,"Offset":10302,"Root":10303,"Ар":10304,"wart":10305," Follow":10306," Social":10307,"ников":10308," →":10309,"Don":10310," harm":10311,"agr":10312,"nego":10313,"resource":10314," Luc":10315," seinen":10316," Department":10317," Update":10318," Texas":10319," reve":10320," Pos":10321," shot":10322,"othe":10323," repeated":10324," recently":10325,"ában":10326,"aks":10327,"пан":10328," cha":10329,"ohl":10330," tend":10331," дво":10332,"chts":10333,"çaise":10334,"pling":10335,"album":10336,"ej":10337," `[":10338,"maps":10339," units":10340," <!--":10341," ге":10342," Information":10343,"ikon":10344," tan":10345," docker":10346," Stad":10347," audio":10348,"iko":10349," coordinates":10350,"xs":10351," replied":10352," ),":10353," Government":10354," Academy":10355,"UNT":10356," три":10357,"Bl":10358," anc":10359,"шу":10360," також":10361," infinite":10362,"RC":10363," ga":10364," adjust":10365," merge":10366,";`":10367," poster":10368," Japanese":10369,"\"];":10370," exhib":10371," ordered":10372,"ictures":10373,"рос":10374," série":10375,"lets":10376," ip":10377,"Selector":10378," existence":10379,"Rece":10380,"liga":10381,"download":10382," lemma":10383,"iev":10384,"udent":10385,"sko":10386," Arab":10387,"itate":10388,"byte":10389,"от":10390,"ikt":10391,"ната":10392," Af":10393,"(@":10394," mad":10395,"odb":10396," elimin":10397," spent":10398,"Enter":10399," Mitg":10400,"When":10401," départ":10402,"MI":10403," fellow":10404," thousand":10405," Cu":10406,"ktor":10407,"Cache":10408," também":10409," extended":10410,"вест":10411,"aters":10412," Lic":10413,"totype":10414," Ga":10415," blood":10416," mapping":10417," nomin":10418," manifest":10419," pens":10420," rit":10421," filename":10422," filled":10423,"vä":10424," raised":10425," mobile":10426,"ké":10427," Right":10428," gehör":10429," temperature":10430," somehow":10431," Spanish":10432," kommun":10433," chosen":10434," horse":10435,";\\":10436," originally":10437,"Hash":10438," citt":10439," encore":10440," Wolf":10441," nú":10442," Young":10443,"Vari":10444," Schwe":10445," capture":10446," Jane":10447,"Interface":10448,"owych":10449," Deutschland":10450," Kol":10451," boundary":10452," GND":10453,"Now":10454,"kehr":10455,"(*":10456,"=-":10457," Wel":10458," Cat":10459,"amment":10460,"AGE":10461," rights":10462,"Scroll":10463," happening":10464," Bla":10465," science":10466,"aws":10467," behaviour":10468," implies":10469," Queen":10470,"ovan":10471,"pay":10472,"ња":10473,"aret":10474,"ership":10475," Lang":10476," год":10477," recorded":10478,"zem":10479," Thread":10480," todo":10481,"ogo":10482," scenario":10483," concent":10484,"рез":10485,"Storage":10486," dirig":10487," Series":10488," gas":10489,"SET":10490,"èce":10491,"rate":10492,"HTTP":10493," kap":10494,"Emp":10495,"UTF":10496,"ání":10497,"стави":10498,"windows":10499,"ération":10500,"aped":10501," sistema":10502," surv":10503," Western":10504," gé":10505," Such":10506,"Writer":10507," canvas":10508," guarante":10509,"scroll":10510,"aved":10511,"Ital":10512," Elect":10513,"](#":10514," Herm":10515," Command":10516," Child":10517," pd":10518,"utch":10519,"Sql":10520,"*.":10521," Tag":10522," Ta":10523," mail":10524,"screen":10525,"scr":10526,"zial":10527," Für":10528," suggestions":10529,"chester":10530,")|":10531,"person":10532,"zel":10533," waiting":10534," сле":10535,"FL":10536," Albert":10537," Hij":10538," тер":10539,"ewrite":10540," sentence":10541," linux":10542,"еде":10543,"ência":10544," Italian":10545,"чка":10546,"Files":10547," noticed":10548,"bing":10549," Research":10550," alter":10551,"heel":10552,"\\<^":10553," Process":10554," battle":10555,"мов":10556," Africa":10557," Anne":10558," geld":10559,"}%":10560," docs":10561,"Types":10562," retrieve":10563," Official":10564," trab":10565,"цы":10566," Input":10567,"step":10568," laugh":10569," Ха":10570," pela":10571,"Media":10572,"rough":10573,"гани":10574," Should":10575," Content":10576,"лем":10577,"osh":10578," somewhat":10579," Cer":10580,"Background":10581,"stru":10582," inline":10583," Neder":10584," modules":10585," Buch":10586,"ński":10587,"widet":10588," zn":10589,"poses":10590," gradu":10591," aqu":10592,"PR":10593," putting":10594," поли":10595," purch":10596," smooth":10597,"рий":10598,"engine":10599," lived":10600,"Account":10601,"Details":10602," tells":10603," Output":10604,"Here":10605," Foundation":10606,"TextView":10607," decision":10608," dependency":10609,"ocation":10610,"oval":10611,"feld":10612," пров":10613," ends":10614," ios":10615," excel":10616,"agu":10617," eleg":10618," Element":10619,"Queue":10620," fö":10621,"версите":10622," experien":10623," directed":10624," camb":10625," Дж":10626," folg":10627," conce":10628," Fab":10629," Vi":10630," advantage":10631," Bei":10632,"prod":10633," XIX":10634," Face":10635," vir":10636," Russian":10637," span":10638,"ení":10639," zone":10640," attach":10641," без":10642," management":10643,"Ac":10644," оп":10645,"once":10646,"halt":10647,"uso":10648,"Spe":10649," raw":10650,"éro":10651,"idel":10652,"law":10653,"Sheet":10654," mission":10655," camera":10656," honor":10657," appointed":10658," Roma":10659,"linear":10660,"Rows":10661,"ferences":10662," IO":10663," covered":10664,"raj":10665,"ствова":10666," Sym":10667," tid":10668,"isc":10669," Rud":10670," encuent":10671," failure":10672,"üss":10673," squ":10674," paint":10675," serious":10676," cursor":10677,"tras":10678," discussion":10679," cried":10680,"erie":10681," Develop":10682," rewrite":10683," général":10684,"wait":10685," Harry":10686,"ír":10687," gepublic":10688," иг":10689,"іб":10690,"ят":10691," Из":10692," equations":10693," plane":10694," acqu":10695," angle":10696," trees":10697," Кон":10698,"VD":10699,"pert":10700," documents":10701,"cb":10702," implements":10703,"станов":10704," Walter":10705,"зыва":10706," спе":10707," chap":10708,"plex":10709," magnet":10710," gepubliceerd":10711," highly":10712," leurs":10713," dress":10714," restart":10715,"Render":10716,"Callback":10717,"iso":10718," constitu":10719," Ende":10720,"ZE":10721," Angeles":10722," derived":10723,"=\"{":10724,"]\\":10725," Change":10726," Haus":10727," stad":10728," Request":10729,"omo":10730," Active":10731,"uren":10732," tourn":10733," particularly":10734,"Servlet":10735,"abc":10736,"widetilde":10737,"andra":10738,"Helper":10739,"Rule":10740," plusieurs":10741," wave":10742,"neq":10743," Те":10744,"fre":10745,"ské":10746," alc":10747," logs":10748,"GS":10749," Mol":10750," permission":10751," soul":10752," wants":10753," guide":10754," viene":10755," Wilhelm":10756," evidence":10757,"\"},":10758,"ropol":10759," authentication":10760," occurred":10761," IF":10762,"noc":10763,"IA":10764," Ban":10765," кар":10766," ble":10767," segment":10768," players":10769,"isi":10770," stuck":10771," Py":10772,"Any":10773,"hou":10774," formatt":10775," peace":10776," Кар":10777,"etes":10778,"dfrac":10779,"(?":10780," Site":10781," Live":10782," Us":10783," clim":10784," Ali":10785,"рей":10786," Prince":10787," oblig":10788,"ieb":10789," Alt":10790," pros":10791,"racle":10792," Cette":10793,"kes":10794,"zös":10795,"ouvelle":10796,"////////":10797,"aby":10798,"ére":10799,"rane":10800," powers":10801," Path":10802," Word":10803," transaction":10804," causing":10805,"ellschaft":10806,"ât":10807," CPU":10808," depth":10809,"STR":10810," Conf":10811," rare":10812," Ak":10813," bon":10814," Carlos":10815," specifically":10816,"rics":10817,"KEY":10818," stars":10819,"érica":10820," Лу":10821," configure":10822," agent":10823," explained":10824," coefficient":10825,"дь":10826,"'}":10827," vida":10828," Syn":10829," назва":10830," Option":10831," rob":10832," клу":10833,":[":10834,"antly":10835,"dependency":10836," Cur":10837," frances":10838," ideal":10839,"Sw":10840," груп":10841," Captain":10842," todos":10843,"Jo":10844," pelo":10845,"?](":10846," faith":10847,"овой":10848," fresh":10849," propri":10850,"Timeout":10851," veh":10852,"contents":10853," Document":10854,"collection":10855," kar":10856,"ruck":10857,"Your":10858,"uma":10859," mathemat":10860,"Enabled":10861,"публи":10862," Engine":10863," München":10864," посе":10865," fon":10866,"archive":10867," frequency":10868,"}+\\":10869,"âte":10870," kor":10871," Кра":10872,"Sing":10873,"month":10874," Haw":10875," sys":10876,"erme":10877," Would":10878," impact":10879,"urrency":10880,"licht":10881," apt":10882,"iere":10883," motion":10884,"ССР":10885," Init":10886," ms":10887," MS":10888,"shift":10889," autres":10890," bash":10891,"hidden":10892,"orio":10893," celebr":10894," Liber":10895,"eto":10896," dove":10897," paths":10898," inj":10899,"Category":10900," cry":10901," marked":10902,"удо":10903,"ashion":10904,"ält":10905," lan":10906," teams":10907," kv":10908,"iams":10909,"aban":10910," TABLE":10911,"вар":10912,"Repos":10913," Bell":10914," pubblic":10915," countries":10916," spin":10917," lég":10918," Krie":10919," Jones":10920,"white":10921,"Html":10922,"Press":10923," Blue":10924,"Operation":10925," Anth":10926," pse":10927," Font":10928," theme":10929," blocks":10930,"$)":10931," glad":10932," manage":10933,"orden":10934,"osten":10935,"cole":10936," SP":10937," schema":10938,"uras":10939," whenever":10940,"ША":10941,"рито":10942," discovered":10943," prefix":10944,"global":10945,"roke":10946,"zes":10947,"chte":10948," Before":10949,"мени":10950," Dig":10951," rapid":10952," lleg":10953,"equals":10954," Hoch":10955,"forall":10956,"вати":10957,"usz":10958," attached":10959,"Expression":10960," stock":10961,"üll":10962,"pet":10963,"essions":10964,"colo":10965," gy":10966,"Book":10967," Jacob":10968," Product":10969," inputs":10970,"мир":10971," learned":10972,"ówn":10973," police":10974," лет":10975," Item":10976," eye":10977,"aient":10978," Sammlung":10979," Lor":10980," repres":10981," fest":10982,"Cond":10983," nouve":10984," extend":10985," Frances":10986," Find":10987," deze":10988,"erna":10989," había":10990,"prü":10991," motor":10992,"bie":10993,"Hello":10994," resid":10995," finale":10996,"%)":10997,"{'":10998," Hard":10999," pairs":11000," Ell":11001,"ivot":11002,"rees":11003," Force":11004," evening":11005," después":11006,"rg":11007,"Why":11008," conn":11009,"schema":11010,"ход":11011," между":11012," flash":11013,"skip":11014," minute":11015," ved":11016,"aylor":11017," seus":11018," Major":11019," franc":11020," rac":11021,"kw":11022,"cv":11023,"Native":11024," Button":11025,"ници":11026,"settings":11027," Access":11028," quality":11029,"props":11030,"Float":11031," Scot":11032," AD":11033," allem":11034,"&\\":11035,"ustration":11036,"pattern":11037,"mir":11038," incorpor":11039,"skich":11040,"'>":11041,"Stand":11042," technique":11043," Ess":11044," Oxford":11045," ла":11046,"tikz":11047,"лий":11048,"Login":11049," minister":11050," curl":11051,"kan":11052," maps":11053,"inda":11054,"rieb":11055," END":11056,"ifies":11057,"console":11058,"bury":11059," LE":11060," independ":11061," ta":11062," Ś":11063,"onel":11064,"ész":11065," Ist":11066,"utive":11067,"ёл":11068," Region":11069," (=":11070," compact":11071,"çois":11072," labels":11073,"autorité":11074," stan":11075," française":11076," removing":11077,"yc":11078,"}|":11079," Exec":11080,"($_":11081,"mag":11082,"before":11083," stopped":11084,"мии":11085," refresh":11086,"unkt":11087,"icio":11088,"Xml":11089," Tab":11090," founded":11091," fal":11092,"fx":11093," Historia":11094," Early":11095,"Dom":11096," decide":11097," understood":11098," jur":11099," Nr":11100," capac":11101,"was":11102," enemy":11103," programs":11104," mask":11105,"ске":11106," groupe":11107,"cam":11108," widget":11109,"REATE":11110," seva":11111," Barcel":11112," perd":11113," Му":11114,"rance":11115,"TYPE":11116," {'":11117," bill":11118," \"_":11119,"'`":11120,"bahn":11121," contained":11122,"Close":11123,"rug":11124,"egy":11125," sight":11126," Provin":11127,"ню":11128,"arz":11129,"щен":11130," Joe":11131," deleted":11132," Auto":11133," meter":11134,"CG":11135,"ъл":11136," pent":11137," bezeichnet":11138,"Sum":11139,"dbc":11140," Platz":11141,"ectors":11142," Little":11143,"QUE":11144,"ція":11145,"теля":11146,"night":11147," ll":11148," mostly":11149,"UID":11150," bez":11151,"dob":11152,"кси":11153,"terne":11154," corner":11155,"aty":11156," improve":11157," intr":11158," `@":11159,"arod":11160," installation":11161," Referências":11162,"igan":11163," critic":11164,"adel":11165," село":11166,",\r":11167,"atori":11168," Fri":11169," références":11170," Intent":11171," tant":11172,"unci":11173," levels":11174,"eres":11175," emer":11176,"safe":11177,"tk":11178," cham":11179," greatly":11180," weit":11181," coach":11182," toward":11183,"Home":11184," Boolean":11185,"тел":11186," mock":11187," appreciate":11188," Cross":11189," Take":11190,"DP":11191," sides":11192," Normdaten":11193,"дей":11194,"stal":11195," cout":11196,"bn":11197," Vert":11198," bird":11199," dynamically":11200," Dol":11201," Burg":11202," dog":11203,"ätt":11204," nuc":11205,"EC":11206,"Bytes":11207," ak":11208,"reland":11209," guitar":11210," regarding":11211," Fuß":11212," дол":11213,"auss":11214," jej":11215,"aco":11216," updates":11217,"рук":11218,"('/":11219," cold":11220," Given":11221,"hin":11222," feeling":11223,"igli":11224,"fah":11225,"стре":11226,"bool":11227,"initial":11228," становника":11229," Anna":11230," hors":11231," doll":11232," consum":11233,"uber":11234,"standing":11235,"activ":11236,"зі":11237,"checked":11238," permissions":11239," Monte":11240,"WriteLine":11241,"plus":11242," Equ":11243," их":11244,"чки":11245,"unque":11246," LO":11247,"ea":11248,"sample":11249,"iesz":11250,"oral":11251," Ин":11252,"oston":11253," Simon":11254,"fast":11255,"mk":11256,"assen":11257," architecture":11258,"enses":11259," Å":11260," topic":11261," disable":11262," Cru":11263," Control":11264," creation":11265," hyper":11266,"itud":11267,"жения":11268,"aram":11269," где":11270,"ienst":11271,"edule":11272," Bot":11273," Ос":11274," Their":11275,"anne":11276,"Microsoft":11277," PM":11278,"ydro":11279,"entlich":11280," Eine":11281,"CHAR":11282,":'":11283,"Well":11284,"leton":11285," supports":11286,"'])":11287,"manual":11288," vice":11289,"asa":11290,"clos":11291,"vised":11292," pok":11293,"track":11294,"ност":11295,"........":11296," '\\":11297,"².":11298," orders":11299,"etta":11300," conversion":11301," trade":11302,"cli":11303," Исто":11304," akt":11305," subset":11306," aug":11307," leaves":11308,"Math":11309,"anned":11310,"kal":11311," Вели":11312," nog":11313," eth":11314," hair":11315,"around":11316," javax":11317,"вой":11318," Centre":11319,"öß":11320,"uti":11321," navigation":11322," PS":11323," wa":11324," России":11325,"usa":11326,"zeta":11327," PDF":11328," mismo":11329,"properties":11330,"meister":11331,"льта":11332,"forward":11333," Ost":11334,"kins":11335," sido":11336,"зов":11337,"tags":11338," actor":11339," fly":11340,"CR":11341,"agini":11342," lett":11343,"eni":11344,"tech":11345," Enc":11346,"oracle":11347,"amilton":11348,"zej":11349,"fen":11350,"umerate":11351," questo":11352,"dart":11353," Kore":11354,"apis":11355,"eper":11356,"Screen":11357,"wall":11358," island":11359,"she":11360," ligger":11361,"вся":11362,"fang":11363," tard":11364," plaats":11365," пло":11366," Office":11367," SET":11368," circuit":11369,"jed":11370,"Save":11371,"льно":11372,"Socket":11373," Index":11374,"ACK":11375,"iders":11376,"erer":11377," США":11378," lady":11379," scheme":11380,"ielle":11381," exerc":11382,")}\\":11383,"DateTime":11384,"athan":11385," Professor":11386," moins":11387," Excel":11388," Hay":11389," Musik":11390," ї":11391,"ęd":11392," \".":11393," був":11394," instrument":11395,"пар":11396," бере":11397," politique":11398," tradition":11399," VM":11400," Arts":11401," Ci":11402,"Use":11403," aggreg":11404," weeks":11405," opport":11406,"iting":11407," vertical":11408," Naz":11409,"...)":11410,"izo":11411," cycle":11412," tempo":11413,"тре":11414," handling":11415,"istence":11416," paste":11417," enjo":11418,"ROUP":11419," outer":11420," supply":11421,"eman":11422," accident":11423," \\]":11424," тех":11425,"Pool":11426,"oting":11427,"onymous":11428," Giov":11429," ud":11430," ./":11431,"ERROR":11432,"construct":11433,"textwidth":11434,"quipe":11435,"cases":11436," ад":11437," Row":11438,"Holder":11439,"wan":11440,"arna":11441,"Mem":11442," Canadian":11443," Commission":11444,"sun":11445," apps":11446," Blo":11447," ihrer":11448," famille":11449," mě":11450," py":11451,"ис":11452," того":11453," Again":11454," ignore":11455," television":11456,"Pat":11457,"hide":11458," Rev":11459," bear":11460,"phy":11461," noise":11462," wra":11463,"ationale":11464," collabor":11465,"border":11466," elected":11467," surpr":11468," avoir":11469," assembly":11470," обще":11471," arbitrary":11472," brief":11473," ---":11474," Maur":11475,"gression":11476,"icia":11477," liegt":11478," Figure":11479," onto":11480,"Repository":11481," déf":11482," forth":11483," clicked":11484,"seite":11485," notes":11486,"native":11487," EDIT":11488,"ые":11489,"MT":11490,"amental":11491," rose":11492," puede":11493,"Delegate":11494,"uba":11495,"neo":11496,"xis":11497," Arthur":11498,"URE":11499,"aming":11500,"Device":11501," diam":11502,"ständ":11503," pron":11504,"ois":11505,"coming":11506,"Parameters":11507,"uvud":11508," ability":11509," mét":11510," Unfortunately":11511,"fd":11512,"Dictionary":11513,"socket":11514," conoc":11515,"contains":11516,"essed":11517," geldig":11518,"ница":11519," pointed":11520,"esti":11521,"nom":11522,"ография":11523," represents":11524," manip":11525,"world":11526," resolved":11527,"tegr":11528," dort":11529,"astern":11530," campaign":11531," primo":11532," ;;":11533," snippet":11534," Nik":11535,"Total":11536,"issement":11537,"ACE":11538," verify":11539,"iffe":11540,"lagen":11541,"ieur":11542," converted":11543," Milit":11544," Alg":11545," Ron":11546," konn":11547,"apple":11548," dispos":11549,"stellung":11550," retain":11551," mentre":11552," neut":11553," Night":11554,"ché":11555,"atti":11556," obra":11557," superior":11558," Congress":11559,"ём":11560," codes":11561," Ama":11562," Earth":11563," opposite":11564," pool":11565," Dun":11566,"жение":11567," \"${":11568,"inv":11569," уни":11570," Andrew":11571,"телей":11572," był":11573,"Univers":11574," Angular":11575,"anim":11576,"дова":11577,"BUG":11578,"utely":11579," drawing":11580," gain":11581," fourth":11582," Problem":11583," suddenly":11584," Ä":11585,"onna":11586," Kont":11587," Bildern":11588," konnte":11589,"že":11590,"Trace":11591," secure":11592," który":11593," eq":11594," formal":11595,"amerikan":11596," Anal":11597," Rewrite":11598," Double":11599,"created":11600,"NU":11601,"MDb":11602,"apes":11603,"Unis":11604," especial":11605,"})\\":11606,"edom":11607," categor":11608,"Return":11609," Hamb":11610," Rio":11611," Mir":11612," Geme":11613,"abilities":11614,"trz":11615,"uset":11616,"ierra":11617,"network":11618," doctor":11619,"eurs":11620," listen":11621,"дж":11622," Hö":11623," consists":11624,"asm":11625,"Chr":11626,"aland":11627," исполь":11628," lugar":11629," definitely":11630,"move":11631,"ública":11632," län":11633,"ismus":11634," држа":11635," dt":11636," Perhaps":11637," Brasil":11638,"John":11639," promise":11640,"łu":11641,"reens":11642," psych":11643," Who":11644,"ряд":11645," INTO":11646," People":11647," Williams":11648," Marg":11649," дан":11650,"record":11651," Euro":11652," Virginia":11653," Rest":11654," Corn":11655,"}},":11656," Grid":11657," inject":11658,"нан":11659," crow":11660," Phys":11661," DO":11662," \"-":11663," increased":11664,"acher":11665,"peat":11666,"Lin":11667," Dub":11668,"rices":11669,"agnost":11670,"dl":11671," curve":11672,"üg":11673,"rice":11674,"language":11675,"ClickListener":11676," municipal":11677," Ori":11678," Bild":11679," Cab":11680," Var":11681," noted":11682," Î":11683," subs":11684,"iation":11685,"WOR":11686,"ingly":11687," Rus":11688,"iens":11689,"INFO":11690,"ква":11691,"ativo":11692,"gende":11693," Franz":11694," isol":11695,"edes":11696,"nier":11697," NO":11698," Has":11699,"beans":11700," pandas":11701,"(\"%":11702,"віт":11703,"утбо":11704," gather":11705," legal":11706,"includ":11707," circumst":11708,"criptor":11709,"rible":11710," Süd":11711," apro":11712,"Api":11713," най":11714," African":11715,"owski":11716," Johnson":11717,"iek":11718," vote":11719," Kan":11720," bibli":11721," haar":11722," vr":11723,"]),":11724,"subseteq":11725,"Parser":11726,"iani":11727,"isé":11728,"idea":11729,"Only":11730," ál":11731," Catal":11732," Case":11733,"seh":11734," encounter":11735," reform":11736,"мини":11737," Stre":11738,"exception":11739," Tar":11740,"тар":11741,"trl":11742," Александ":11743,"лект":11744,"equal":11745,"Op":11746," lif":11747," його":11748," voltage":11749,"shire":11750," Groß":11751,"вня":11752,"nings":11753,"нци":11754," lag":11755," anderen":11756," vac":11757," macro":11758,"=[":11759,"Then":11760," controls":11761,"seq":11762,"ologies":11763," selector":11764," України":11765,"хівовано":11766,"ый":11767,"allenge":11768," IMDb":11769,"ummy":11770,"yen":11771," beste":11772," Box":11773," chair":11774," Sab":11775,"erde":11776," nast":11777,"ivamente":11778," объ":11779," requirements":11780," meeting":11781," finan":11782," Adam":11783," televis":11784," bright":11785," Git":11786,"EG":11787," Gil":11788,"rès":11789," Cond":11790," ft":11791," було":11792,"-+":11793,"END":11794,"erne":11795," Comput":11796," ils":11797," gall":11798," csv":11799,"ług":11800," summer":11801,"game":11802," posts":11803,"Архівовано":11804," zij":11805," determin":11806," abandon":11807,"counter":11808," requirement":11809," Tit":11810,"irtual":11811," Videos":11812," quiet":11813," Term":11814," timeout":11815,"Print":11816," invent":11817,"lais":11818," monitor":11819,"halb":11820," Wild":11821," leader":11822," сель":11823," utiliz":11824," parents":11825," forced":11826," proved":11827," effective":11828," llam":11829," Спо":11830,"orb":11831,"ggi":11832," assumption":11833," subm":11834," вій":11835,"ilia":11836," reverse":11837,"'\"":11838," quotes":11839," sites":11840,"igung":11841," Arg":11842,"Double":11843," screens":11844," clause":11845," bundle":11846," philosoph":11847," Num":11848," gleich":11849,"uly":11850,"direct":11851,"asketball":11852,"owany":11853,"\\}$":11854," radius":11855," Search":11856,"Properties":11857," elev":11858," prod":11859," \"%":11860,"isión":11861,"Debug":11862,"Second":11863,"(!":11864," Catholic":11865,"рован":11866,"lez":11867,"Pa":11868,"pson":11869," erste":11870," Fu":11871," lit":11872," Saison":11873," Hash":11874," exem":11875," представ":11876,")*":11877," eu":11878," │":11879," gab":11880,"etailed":11881,"Copy":11882," два":11883,"even":11884,"Kind":11885," Jackson":11886,"ал":11887," consec":11888,"USER":11889," Tok":11890,"(.":11891," $|":11892," Tamb":11893," Lemma":11894,"hang":11895," contribution":11896,"rollers":11897," studies":11898," poi":11899,"gems":11900," UP":11901," Wol":11902,">\"":11903," floor":11904," initialize":11905," Lew":11906,"zek":11907,"arte":11908," positions":11909," portion":11910,"cover":11911,"wp":11912,"ового":11913," piano":11914," metal":11915," samples":11916," Сан":11917,"variable":11918," стать":11919," integers":11920,"Where":11921,"family":11922," nun":11923," increment":11924,"ixed":11925," heeft":11926,"fte":11927," vil":11928," otros":11929,"Multimedia":11930," Henri":11931,"aded":11932,"ген":11933," capit":11934," других":11935,"isp":11936,"ITY":11937," constraints":11938," Kirche":11939,"found":11940,"ший":11941," pic":11942," tou":11943,"cred":11944,"роб":11945," Mess":11946,"Job":11947," Mais":11948," styles":11949,"fall":11950," Uk":11951," street":11952,"occer":11953,"esen":11954," colors":11955,"cean":11956,"юще":11957,"conne":11958," ratio":11959,"anton":11960," Fel":11961," customer":11962," Prix":11963,"rás":11964,"pred":11965," electron":11966,"sym":11967," вели":11968," overflow":11969," $[":11970," POST":11971," Cin":11972,"scheid":11973,"(\"/":11974," searching":11975," purposes":11976," arrived":11977," punt":11978," lad":11979,"Python":11980," leads":11981," sand":11982,"пада":11983," communes":11984," CHAP":11985," caso":11986,"rz":11987," dw":11988,"aca":11989," Columb":11990,"children":11991,"êt":11992,"schemas":11993," instructions":11994," -\\":11995," Israel":11996,"ności":11997," образ":11998," совет":11999," immagini":12000," Fred":12001," Global":12002," thick":12003," fueron":12004," thrown":12005," clock":12006,"enable":12007,"'''":12008," Sund":12009," contempor":12010,"answer":12011," manufact":12012," io":12013,"qquad":12014,"OUT":12015," Lab":12016," Zw":12017,"legal":12018," Vel":12019," raise":12020," deliver":12021," Voir":12022," assumed":12023,"Let":12024,"ierten":12025," Kong":12026," Exp":12027," Jug":12028," declaration":12029," Fish":12030,"mé":12031," speech":12032," tent":12033," Route":12034,"__(":12035," réalis":12036," Design":12037,"setText":12038," Station":12039,"archy":12040," като":12041," dent":12042," Kl":12043,"iß":12044," risk":12045," Broad":12046," vectors":12047," Spec":12048," routes":12049,"ymn":12050," Greg":12051," получи":12052,"gie":12053,"ORM":12054,"веде":12055,"walt":12056," efter":12057,"Ptr":12058," subt":12059," birth":12060," drawn":12061,"mess":12062,"мерикан":12063,"VE":12064," Put":12065," asc":12066," feder":12067,"сли":12068," Prin":12069," stick":12070,"reset":12071,"yk":12072,"studio":12073," Still":12074,"Const":12075,"ació":12076," Portugal":12077," scripts":12078,"undial":12079," lives":12080," szer":12081," estado":12082,"folder":12083," communication":12084,"Route":12085," swift":12086,"тен":12087," kill":12088," PR":12089,"joint":12090," objective":12091," complicated":12092," Über":12093,"esh":12094,"picture":12095,"raine":12096,"comput":12097," proport":12098,"ogs":12099,"ült":12100," quantum":12101,"кри":12102," sop":12103," loops":12104," Reference":12105," nei":12106,"ICE":12107," verm":12108," adj":12109," però":12110," trou":12111,"isions":12112," Apple":12113,"servable":12114," Boston":12115,"oret":12116,"oks":12117," kg":12118,"defined":12119,"platform":12120,"cler":12121,"ographic":12122,"ritt":12123," dic":12124," Mond":12125," Ireland":12126," Una":12127," commercial":12128," Pu":12129,"Di":12130," её":12131," precis":12132,"народ":12133," quatre":12134,"ustral":12135," dag":12136,"igue":12137," burn":12138," officer":12139," Ав":12140," highlight":12141," Suppose":12142,"odi":12143,"servlet":12144," Encyc":12145," Range":12146,"тий":12147,"Please":12148," років":12149,"quant":12150," flat":12151," Référence":12152,"следова":12153,"role":12154," diesen":12155,"}}(":12156," Indust":12157," númer":12158," \";":12159,"lus":12160,"ôle":12161," zm":12162,"deg":12163," rough":12164,"Inv":12165," hur":12166," Ress":12167,"chs":12168," turns":12169,"nero":12170,"functions":12171,"али":12172," habitants":12173,"ат":12174,"issues":12175," huge":12176,"Utils":12177," Sat":12178," государ":12179," coast":12180,"shape":12181,"LC":12182," logging":12183,"endor":12184," lies":12185," difer":12186," critical":12187,"XT":12188,"мина":12189,"ansk":12190,"Results":12191,"kc":12192,"iverse":12193,"EXT":12194,"ALSE":12195," vál":12196,"Pi":12197,"compile":12198,"hello":12199," чемпи":12200," Italia":12201,"коло":12202," edition":12203,"grund":12204," dataframe":12205," Following":12206,"reib":12207," Jeff":12208," città":12209,"ITable":12210," $(\\":12211," reduced":12212,"obil":12213," anywhere":12214,"'(":12215," phr":12216," Kh":12217," Frame":12218," manual":12219," cra":12220," VS":12221,"%=":12222,"InstanceState":12223," бра":12224," Drag":12225," Herr":12226," гу":12227," mús":12228,"Tool":12229," Private":12230," synchron":12231,"iration":12232," обо":12233," typically":12234," implicit":12235,"orient":12236," timer":12237," können":12238,"iest":12239,"raid":12240," expressions":12241," aim":12242," stre":12243," wrap":12244," Bart":12245," bron":12246," keyboard":12247,"pow":12248," grupo":12249," резу":12250," professor":12251," Head":12252,"ною":12253,"minus":12254," Michel":12255,"NOT":12256,"mor":12257,"]}":12258,"widehat":12259,"aris":12260,"тература":12261,"defn":12262,"istrz":12263," tanto":12264," Pow":12265," indicate":12266," Winter":12267,"reshold":12268,"рів":12269," `(":12270," owner":12271," disp":12272," кри":12273,"мет":12274,"мент":12275,"report":12276,"require":12277," voy":12278," AP":12279," España":12280," São":12281,"jär":12282,"Non":12283,"Library":12284,"ichten":12285," structures":12286," muy":12287,"ário":12288," certificate":12289,"чного":12290," province":12291,"pages":12292,"dal":12293," Freder":12294,"ье":12295,"Execute":12296," ancient":12297," films":12298," Alfred":12299,"Auto":12300," atom":12301," ell":12302," Harr":12303,"йн":12304," \"#":12305," nacional":12306," neighbor":12307,"ступа":12308," wit":12309,"Pop":12310," Greek":12311," repeat":12312,"bad":12313," SC":12314," DateTime":12315,"шти":12316," WH":12317," прави":12318," Ти":12319," saison":12320," Hart":12321,"directory":12322,"uan":12323,"norm":12324," Philipp":12325," suspect":12326," anno":12327,"bc":12328,"сла":12329,"$(":12330," befind":12331,"ocs":12332,"latest":12333,";\">":12334," afterwards":12335,"PUT":12336," ja":12337," Hil":12338,"yz":12339," Bour":12340," laid":12341," Дже":12342,"pie":12343,"watch":12344," Eq":12345,"contact":12346,"iber":12347,"checkbox":12348," españ":12349,"anse":12350," шко":12351,"eff":12352,"xxx":12353," GET":12354," lov":12355,"itute":12356,"zech":12357,"tere":12358," purs":12359,"kens":12360,"iante":12361," Free":12362," органи":12363,"kreis":12364," {:":12365,"shared":12366," Graph":12367," connections":12368," DOM":12369," Cart":12370,"sson":12371," Hamilton":12372,"тели":12373," restaur":12374,"Resol":12375,"Driver":12376," enf":12377,"EDIT":12378," prev":12379," ik":12380," să":12381,"jö":12382," СССР":12383," colour":12384,"chten":12385," estad":12386,"inois":12387," confir":12388," vé":12389," Ces":12390," Never":12391,"omer":12392,"жда":12393,"слу":12394,"чения":12395,"dll":12396," youth":12397,"emen":12398," studied":12399," Kil":12400,"cion":12401," navig":12402,"required":12403,"orithms":12404,"ilor":12405," Deutschen":12406," persons":12407," Barcelona":12408," formation":12409,"abei":12410," против":12411,"Engine":12412,"ONE":12413,"ográ":12414,"Cap":12415,"rir":12416," gate":12417,"oration":12418,"maven":12419," combined":12420," attr":12421," hook":12422," который":12423," servers":12424,"ucture":12425,"ження":12426,"tv":12427," req":12428,"jal":12429," locally":12430,"}}{\\":12431,"Br":12432," Hier":12433,"мор":12434," apart":12435,"\"],":12436," %>%":12437," zusammen":12438," identify":12439," Altern":12440," бро":12441," ци":12442,"gh":12443," Ten":12444,"RS":12445,"форма":12446," nelle":12447," Hin":12448,"ounding":12449," représ":12450,"aph":12451," [\\":12452," Sports":12453,"рал":12454," thre":12455," prin":12456," Eliz":12457," Four":12458," society":12459,"Transaction":12460," veg":12461," schools":12462," overall":12463," tail":12464,"über":12465," Sov":12466," Сер":12467," rapp":12468," traffic":12469,"question":12470," environ":12471,"ateien":12472,"icus":12473," narrow":12474," pray":12475," Bou":12476," Client":12477,"abl":12478," Audiod":12479," npm":12480," Column":12481," Games":12482,"aver":12483,"onymes":12484," После":12485,"ną":12486," Nu":12487," Dick":12488," tensor":12489," @\"":12490,"vé":12491,"Icon":12492," пода":12493," Gon":12494,"/).":12495,"istra":12496," Audiodateien":12497,"Delete":12498,"}}}":12499," jump":12500," Об":12501," principle":12502," États":12503,"oked":12504," Вла":12505,"Interval":12506," sau":12507,"encode":12508," pon":12509,"catch":12510," tiem":12511," Gust":12512,"MC":12513,"limits":12514," keeping":12515," songs":12516," авгу":12517," район":12518," notification":12519," offered":12520,"Cor":12521," shut":12522,"errors":12523," EN":12524," latach":12525," selbst":12526," checkbox":12527," cool":12528," factory":12529," paid":12530,"dimensional":12531,"niej":12532,"pton":12533," pin":12534,"aked":12535," reli":12536," Taylor":12537," Something":12538,"imum":12539," Vin":12540," iteration":12541,"Find":12542,"кови":12543," boys":12544," Simple":12545," Crist":12546," Was":12547,"ând":12548," Va":12549," тра":12550," destination":12551,"limp":12552," Kat":12553,"worth":12554," Kor":12555,"ição":12556,"=`":12557," fairly":12558,"falls":12559," reject":12560," dream":12561,"bell":12562," toute":12563," $\\{":12564," stone":12565," protect":12566," excell":12567," Mexico":12568," dash":12569," fault":12570,"pmatrix":12571,"aller":12572," guerre":12573,"origin":12574,"hibernate":12575,"ília":12576," Register":12577,"unto":12578," Bat":12579," bow":12580,"ських":12581,"età":12582," Luis":12583," fou":12584," Cambridge":12585," ott":12586,"sup":12587,"reas":12588," pointers":12589," Board":12590," ри":12591," driv":12592,"нин":12593," Circ":12594," thou":12595,"Div":12596,"spark":12597,"lament":12598," VAL":12599,"Send":12600," Irish":12601,"oy":12602," Tu":12603," trivial":12604,"Forms":12605," así":12606," Imper":12607," signature":12608,"unos":12609," Neg":12610," cancel":12611," Heinrich":12612,"eed":12613,"Illustration":12614," sulla":12615," quarter":12616,"asz":12617," blog":12618,"fica":12619,"won":12620,"quet":12621,"]))":12622," generation":12623," caught":12624," lands":12625," Kingdom":12626,"schaften":12627,"rons":12628,"annels":12629," Special":12630,"tutorial":12631,"tip":12632," \"\",":12633," Azure":12634," bounded":12635,"Sm":12636,"tar":12637,"вен":12638," зем":12639," notation":12640," apache":12641," gaz":12642,"ierno":12643,"angen":12644,"pective":12645," electric":12646," semi":12647,"MAX":12648,"ederb":12649,"objects":12650," differences":12651,"isted":12652,"href":12653,"icip":12654," numpy":12655," футбо":12656,"loader":12657," dich":12658,"љу":12659," Dé":12660,"Hz":12661," Param":12662,"documentation":12663,"ircraft":12664,"EM":12665," institution":12666,"compat":12667," аль":12668,"слав":12669," Net":12670,"циональ":12671," broadcast":12672,"datetime":12673,"async":12674,"vre":12675,"mean":12676," Chem":12677," estimate":12678,"icana":12679," grep":12680,"tek":12681,"äm":12682,"orig":12683," Victor":12684,"utenant":12685,"anga":12686,"pin":12687," vertex":12688," CHAPTER":12689,"city":12690,"ugby":12691,"green":12692," Ker":12693," différ":12694," necessarily":12695,"DC":12696,"Linear":12697,"alem":12698," Later":12699," meta":12700,"jem":12701,"ragen":12702,"May":12703," Mitglied":12704," sorted":12705,"ussen":12706," spoke":12707," disabled":12708," accomplish":12709," Russia":12710,"there":12711,"ees":12712," hall":12713," metric":12714,"attribute":12715,"того":12716,"about":12717," Lam":12718,"channel":12719," episode":12720," $('.":12721," ought":12722," Este":12723,"Objects":12724," validate":12725," rim":12726," numerous":12727," Javascript":12728," GL":12729," Italy":12730,"ederbörd":12731,"onato":12732,"books":12733,"stone":12734,"ху":12735," jel":12736,"iri":12737," ASP":12738,"GA":12739," stata":12740," baz":12741,"Day":12742,"thm":12743,"dh":12744," Files":12745,"AndroidRuntime":12746," checks":12747,"kr":12748," venne":12749,"SL":12750,"avia":12751,"kazy":12752," Three":12753,"Admin":12754," college":12755,"Global":12756,"tion":12757," curious":12758,"short":12759," bass":12760,"дела":12761," дея":12762,"Schema":12763,"'\\":12764,"diff":12765," CA":12766," Corpor":12767," operators":12768,"områ":12769," edges":12770,");`":12771,"inds":12772," ging":12773,"&&":12774,"}-\\":12775,"rano":12776," são":12777," adds":12778,"elor":12779," unsigned":12780," пр":12781," Config":12782," Esc":12783," chose":12784," pieces":12785," regions":12786,"Est":12787," Battle":12788," foc":12789," Light":12790,"padding":12791,"aben":12792," europ":12793,"illon":12794," есть":12795," bord":12796," отно":12797," Hong":12798," vul":12799,"plugins":12800," '<":12801," kur":12802,"region":12803," Repub":12804,"icher":12805,"}_\\":12806," medal":12807," Moreover":12808,"BI":12809,"Av":12810,"uter":12811," scan":12812," Municip":12813," contrast":12814," Ig":12815," город":12816,"related":12817,"aling":12818," мат":12819,"ünst":12820," Chris":12821,"wy":12822," Actually":12823," Universidad":12824,"EventListener":12825," temporada":12826," assignment":12827," Mike":12828," während":12829," świ":12830," сред":12831,"каде":12832," calculated":12833," eller":12834," Ash":12835,"riel":12836," hardware":12837," intens":12838,"('.":12839,"illi":12840,"agon":12841," Gy":12842," heute":12843," sle":12844," literature":12845,"sem":12846,"manager":12847," Grande":12848," mixed":12849," Вер":12850,"ící":12851," soit":12852," welcome":12853,"чение":12854," Universität":12855," builder":12856,"simple":12857,"icode":12858,"ře":12859,"indent":12860,"opo":12861," advanced":12862,"temper":12863,"edge":12864," datetime":12865," donc":12866,"лання":12867," verd":12868,"дно":12869,"itos":12870," heat":12871,"visible":12872,"mel":12873," Giovanni":12874," variety":12875," router":12876,"Vector":12877," Walk":12878," obviously":12879,"hein":12880,"Fin":12881,"ITableView":12882,"Year":12883," Econom":12884," velocity":12885," Civil":12886," ј":12887,"alert":12888,"Identifier":12889,"ència":12890," normally":12891," Egypt":12892," ctx":12893," Verein":12894," Hu":12895,"ulture":12896,"ните":12897,"lé":12898," Wien":12899," Prz":12900,"Byte":12901," nah":12902,"isms":12903," Publish":12904," Herz":12905,"icul":12906,"pisode":12907,"чі":12908," diesem":12909,"kö":12910,"Visible":12911," rig":12912,"`).":12913,"Parse":12914," Jacques":12915,"NI":12916," glass":12917,"---+":12918," initially":12919," kr":12920,"CCN":12921,"plays":12922," sigu":12923,"Folder":12924,"storage":12925," \\|":12926,"ivos":12927,"скую":12928," Moh":12929," Committee":12930," Kim":12931,"eu":12932,"тем":12933," originale":12934,"irs":12935," Reb":12936,"itut":12937,"nl":12938," Pier":12939," ];":12940," Fal":12941," \"\";":12942,"mvc":12943," female":12944," bridge":12945," tít":12946,"ktr":12947,">)":12948," seat":12949," vess":12950," USB":12951," Articles":12952," Description":12953," oc":12954," houses":12955," Пет":12956,"lon":12957,"Notification":12958," pressure":12959," куль":12960,"igned":12961," religious":12962,"fan":12963,"iglia":12964," classification":12965,"ogether":12966," SDK":12967," Human":12968," commission":12969," Ор":12970," antes":12971,"DT":12972,"ète":12973,"prés":12974,"/\"":12975," («":12976," hö":12977," час":12978," jak":12979,"ienen":12980,"ugg":12981,"WA":12982," placeholder":12983,"Will":12984,",,":12985," Kam":12986," wen":12987," Schul":12988,"ție":12989," aud":12990," sue":12991," referred":12992,"ват":12993," Para":12994," bla":12995,"UES":12996," statist":12997," ту":12998," Warsza":12999,"gue":13000," Ide":13001,"mathscr":13002," lieu":13003," bod":13004," rus":13005," boat":13006,"xspace":13007," modal":13008,"лек":13009,"topic":13010,"many":13011,"ský":13012," organization":13013," гене":13014," Wilson":13015," comfort":13016,"ibil":13017,":-":13018," animal":13019,"Report":13020,"ками":13021,"jon":13022," ker":13023," кни":13024,"mozilla":13025,"Price":13026,"antin":13027,"emento":13028,"may":13029," lung":13030," blow":13031,"edeut":13032," typed":13033," december":13034," ....":13035,"liance":13036," viel":13037," Фи":13038,"presa":13039," осіб":13040," Nam":13041," Gren":13042,"силання":13043,"VID":13044,"stre":13045,"weis":13046," protection":13047,"taient":13048," officers":13049,"тно":13050," Brig":13051," intellig":13052,"ях":13053,"ITH":13054," separated":13055," LCCN":13056,"ním":13057,"clock":13058," apare":13059,"яви":13060," Elizabeth":13061," Water":13062,"gebiet":13063," convent":13064,"furt":13065," beiden":13066,"bash":13067," через":13068," ub":13069," Statist":13070," limits":13071,"Vol":13072,"ctx":13073," нов":13074,"guide":13075,"mic":13076,"iesa":13077," huvud":13078,"RT":13079,"Fig":13080," lect":13081,"conn":13082,"imit":13083,"гар":13084," bajo":13085,"scribe":13086,"regex":13087," Cass":13088," propag":13089,"'$":13090," profes":13091,"unique":13092," Sql":13093,"union":13094,"rios":13095,"pip":13096,"--+":13097,"kadem":13098,"columns":13099," vary":13100," bereits":13101," doi":13102," Common":13103," Robin":13104," ×":13105," sei":13106," syst":13107," vä":13108," Default":13109," tym":13110,"pel":13111," believed":13112," provider":13113," minimal":13114,"тали":13115,"aines":13116,"Kit":13117,"izio":13118,"issen":13119,"pressed":13120," stag":13121," uint":13122,"kor":13123," распо":13124," inherit":13125," compiled":13126," febru":13127," tmp":13128,"works":13129,"чна":13130,"drawable":13131," Nav":13132," thoughts":13133,"route":13134," concert":13135," optional":13136," bras":13137," providing":13138,"сом":13139,"idx":13140,"emplo":13141," коли":13142," Bere":13143," Els":13144,"ремен":13145," дека":13146,"cout":13147,"layer":13148," glob":13149,"foreach":13150," Education":13151,"PO":13152," improv":13153," clients":13154,"groups":13155," kont":13156,"Del":13157,"rett":13158," sup":13159," mog":13160,"tan":13161," compl":13162,"irty":13163," nouveau":13164,"osz":13165," Navy":13166,"bere":13167,"mask":13168,"ové":13169,"zil":13170,"PER":13171," población":13172," detailed":13173,"лет":13174," families":13175,"abet":13176,"евич":13177,"änder":13178," år":13179," pendant":13180," bil":13181," hint":13182,"oden":13183," expansion":13184," pont":13185,"asant":13186," Kind":13187,"iji":13188," Auth":13189,"laimed":13190,"reflect":13191,"]=":13192,"bytes":13193,"hover":13194," цер":13195,"gradle":13196,"Arch":13197,"apest":13198,"ása":13199,"Card":13200," temporary":13201," département":13202,"classes":13203,"жива":13204," худо":13205," mole":13206,"RY":13207,"LP":13208," pec":13209,"roduction":13210," Guard":13211," Parliament":13212," instanti":13213," notamment":13214," Doug":13215," Marsh":13216,".~":13217," \\\"":13218," thé":13219," libre":13220,"does":13221," début":13222," Unit":13223," сту":13224," league":13225," quale":13226," составля":13227,"Security":13228," apparently":13229," troops":13230,"icano":13231," MB":13232,"enze":13233,"loading":13234," distributed":13235,"writer":13236,"resources":13237,"hö":13238,"utils":13239," prepared":13240,"cier":13241,"opol":13242," länkar":13243,"hes":13244,"нва":13245," opens":13246,"agog":13247,"interface":13248," Fund":13249," pentru":13250,"ních":13251," configured":13252," Website":13253," listener":13254,"ivel":13255,"nę":13256,"mina":13257," invest":13258," міс":13259," dav":13260," patch":13261,"pieler":13262," Externa":13263,"tf":13264," ered":13265," Assembly":13266," sout":13267," verk":13268,"mers":13269,"toggle":13270," updating":13271," Kent":13272,"eca":13273,"FAULT":13274," titre":13275," Kenn":13276," Миха":13277,"стор":13278," pode":13279," Seb":13280,"цев":13281,"EY":13282," silver":13283," capacity":13284," completion":13285," Pedro":13286,"fel":13287,"vano":13288,"zeug":13289," interior":13290," Response":13291,"édia":13292," WorldCat":13293," că":13294,"quel":13295,"Sol":13296,"ісля":13297," Domin":13298," cum":13299,"cep":13300," Muse":13301," María":13302," functional":13303," adapter":13304,"configuration":13305," tipo":13306," Bry":13307,"vy":13308,"UL":13309," travers":13310,"!(":13311," absolutely":13312,"лта":13313,"ття":13314," IT":13315," воен":13316,"ycle":13317,"best":13318," constructed":13319," филь":13320,"cido":13321,"exit":13322,"gart":13323," provincia":13324,"vez":13325,"cipl":13326," Facebook":13327," yellow":13328," Summer":13329," pointing":13330," possibility":13331," legisl":13332," мож":13333,"dern":13334,"коно":13335," mechanism":13336," Bernard":13337,"expr":13338,"лови":13339," digits":13340," delegate":13341,"ogram":13342," Dictionary":13343,"isy":13344," spo":13345,"/$":13346,"cluded":13347," MVC":13348," tém":13349," printed":13350," Gott":13351," Om":13352,"ansas":13353," Durch":13354," Ident":13355,"QU":13356,"htm":13357," Sul":13358,"'].":13359," duty":13360," Author":13361," ně":13362,"owego":13363,"pus":13364,"embl":13365,"Executor":13366,"BL":13367," Mens":13368,"dispatch":13369," Mid":13370,"apps":13371,"Transform":13372," Dat":13373," impl":13374,"oux":13375,"holm":13376," Ins":13377," Empire":13378,"руп":13379," Apache":13380,"SION":13381," passage":13382,"################":13383," expressed":13384,"над":13385," ol":13386," havia":13387," более":13388," enjoy":13389,"formance":13390," dimensions":13391," чер":13392,"See":13393," mouth":13394," gau":13395,"iency":13396," Carolina":13397,"Dist":13398,"radio":13399,"limit":13400,"/?":13401," Ball":13402,"ність":13403,"Member":13404,"water":13405," murder":13406," standing":13407," VII":13408,"Center":13409,"ppa":13410,"ureau":13411," Leip":13412," objet":13413," Activity":13414,"embers":13415,"vr":13416," condu":13417,"Cells":13418,"inus":13419," ',":13420," afraid":13421," ха":13422," Vic":13423,"testing":13424,"Tube":13425," vast":13426,"PM":13427,"nih":13428,"SSN":13429," Chile":13430,"ylvan":13431," Bow":13432," religion":13433,"opher":13434," Coll":13435," digital":13436,"zioni":13437,"Section":13438," результа":13439,"Foot":13440,"convert":13441," receiving":13442,"Contact":13443," hero":13444,"sam":13445," posterior":13446,"owi":13447,"Ant":13448," flags":13449," Zealand":13450," bounds":13451," whereas":13452,"infl":13453,"Play":13454," demo":13455," gibt":13456," hospital":13457," volta":13458,"лё":13459," fashion":13460," exceed":13461,"elenium":13462,"Iter":13463,"krie":13464," integration":13465," Otherwise":13466,"adu":13467,"She":13468,"onde":13469,"uint":13470,"radius":13471," ram":13472," álbum":13473," тур":13474," dy":13475," Ott":13476," пери":13477,"rev":13478,"rior":13479,"íd":13480,"irat":13481," вклю":13482," importante":13483," Duke":13484," causa":13485," Mathemat":13486," diplom":13487," Nicol":13488," exclus":13489," debugging":13490," Gh":13491,"original":13492,"lyn":13493," Pla":13494,"suite":13495,"chat":13496," estud":13497,"uelle":13498," pert":13499," importance":13500," approaches":13501," dla":13502," проф":13503,"Pres":13504,"<\\":13505,"prefix":13506,"SSION":13507,"роди":13508,"country":13509,"itzer":13510," кор":13511," singular":13512,"gov":13513,"рин":13514," FA":13515," matrices":13516,"olare":13517,"nika":13518,"power":13519,"lla":13520," desire":13521," familia":13522,"дор":13523," fan":13524,"generated":13525," Cos":13526," że":13527," Diese":13528,"mov":13529," denote":13530,"\")]":13531,"ouvern":13532,"aman":13533," inser":13534,"ijk":13535,"otta":13536,"eral":13537,"дель":13538,"()->":13539," poder":13540,"iges":13541," Online":13542," weird":13543,"iac":13544," quelques":13545,"èrent":13546," tel":13547," Latin":13548,"verter":13549,"ляр":13550,"рои":13551," pdf":13552," keyword":13553,"Handle":13554,"After":13555,"rece":13556," identical":13557,"stylesheet":13558," станови":13559," ka":13560,"cement":13561,"тет":13562," chat":13563," Mun":13564,"ała":13565,"ANT":13566,"ológ":13567," fant":13568," forest":13569," вико":13570,"cuss":13571," sehr":13572,"pag":13573,"otic":13574," áll":13575,"мати":13576," \"'":13577,"+\"":13578,"Animation":13579,"ходит":13580,"azu":13581," plays":13582,"izioni":13583,"миче":13584," bomb":13585," merely":13586," holding":13587," wenn":13588," medic":13589," speaking":13590,"ongodb":13591," Campe":13592,"inity":13593," янва":13594,"()`.":13595,"luss":13596," Histoire":13597," operating":13598,"Channel":13599," accuracy":13600," bos":13601," evident":13602,"цию":13603,"events":13604,"textrm":13605,"oreign":13606," ii":13607,"hren":13608,"lower":13609," том":13610," About":13611," aj":13612,"eri":13613,"ступи":13614," digit":13615," Spain":13616," Daten":13617," forme":13618," шта":13619," Bach":13620,"nonumber":13621," recommended":13622," reads":13623,"histoire":13624," sang":13625," ??":13626," стал":13627,"score":13628,"fas":13629," cub":13630," grew":13631," centro":13632," bekannt":13633,"Events":13634,"BER":13635,"hew":13636,"сса":13637," majority":13638,"ître":13639,"enci":13640," Query":13641," które":13642,"ić":13643," complexity":13644," François":13645,"constraint":13646,"урна":13647,"══":13648," iterate":13649,"lett":13650,"peror":13651," Nederland":13652,"share":13653," inclu":13654,"änger":13655," Nic":13656,"чо":13657,"Full":13658," rapport":13659,"eclipse":13660," industry":13661,"headers":13662," Ри":13663,"chsel":13664," polic":13665,"schied":13666,"%,":13667,"OD":13668," Jak":13669,"({\\":13670,"aligned":13671," frequently":13672," suoi":13673," essentially":13674," Ric":13675," reports":13676," decimal":13677,"rar":13678," Foo":13679," Ka":13680," DC":13681," simpler":13682,"Pane":13683,"?}":13684,"Sort":13685," posit":13686,"cdn":13687,"ktur":13688," awk":13689,"зер":13690,"PF":13691,"uur":13692," Ross":13693," mant":13694,"Na":13695,"Cons":13696,"))))":13697," techniques":13698,"impl":13699," dropped":13700," Lista":13701," Basically":13702,"ental":13703," celui":13704," strategy":13705," Wales":13706,"nan":13707," gmin":13708," größ":13709," eerste":13710,"Tim":13711,"nten":13712,"resp":13713," stable":13714,"nov":13715,"rob":13716,"ној":13717," marriage":13718,"getString":13719,"Author":13720," Graf":13721," diagram":13722,"gia":13723,"Network":13724," composed":13725," missed":13726," Meg":13727," право":13728," homonymes":13729," Books":13730," encou":13731,"porte":13732," rotation":13733," fir":13734,"тельно":13735," gun":13736," Aff":13737,"нок":13738," Fußball":13739," Story":13740," Chap":13741," ).":13742," Seit":13743,"мон":13744," télé":13745," copied":13746," consistent":13747," drink":13748," Cham":13749," matters":13750," rendered":13751," hypoth":13752,"œuv":13753," meer":13754," parsing":13755," PRO":13756,"series":13757," zá":13758,"straße":13759," Boot":13760," repo":13761,"wor":13762," Stream":13763," AN":13764," пів":13765," SM":13766," Arn":13767," Ž":13768," [];":13769,"Resources":13770," elabor":13771," Eth":13772," liste":13773," relatively":13774,"chant":13775,"=\"\"":13776," lift":13777,"CN":13778,"Services":13779,"MENT":13780," игра":13781,"бре":13782," Jord":13783," tec":13784,"шка":13785," Sup":13786," influen":13787,"onds":13788,"handler":13789," banda":13790," vertices":13791," zap":13792," cord":13793,"alter":13794,"zenia":13795,"âteau":13796," knowing":13797," Argentina":13798,"Area":13799,"ане":13800,"fc":13801,"=\"/":13802," Mik":13803,"ată":13804,"ieux":13805," deutschen":13806," traditional":13807,"decode":13808,"vex":13809," sizeof":13810," Fun":13811," parser":13812," Florida":13813," buildings":13814," Manuel":13815,"rile":13816," logged":13817," strongly":13818," revol":13819,"нее":13820,"xico":13821," Fair":13822,"cart":13823," Wort":13824," Jesus":13825,"emes":13826,"schrift":13827,"InputStream":13828,"wad":13829," grandes":13830," número":13831," Otto":13832,"ientes":13833," famous":13834,"ologne":13835,"Je":13836,"ниш":13837," Guerra":13838,"bara":13839," cad":13840,"elve":13841,"brace":13842," Jr":13843,"stable":13844,"ECT":13845,"lemma":13846,"mediate":13847," vin":13848," monument":13849," cv":13850," winter":13851," transformation":13852," Nick":13853,"stronom":13854," frag":13855," intel":13856,"raction":13857," considering":13858," Fle":13859," ло":13860," Après":13861," AM":13862," Hum":13863," mundo":13864,"NER":13865," Below":13866," города":13867,"arters":13868,"--\"":13869," Пе":13870,"ît":13871," txt":13872,"angers":13873," thy":13874,"CLA":13875,"ibles":13876," requested":13877," Alexand":13878," factors":13879," produces":13880,"ningen":13881," состоя":13882," optimization":13883,"chod":13884,">`":13885," Wikip":13886,"nosti":13887," competition":13888," Hann":13889," zona":13890,"dc":13891,"design":13892," Zu":13893," espec":13894,"equality":13895," Abb":13896," developer":13897," \"^":13898," Short":13899," plans":13900," vit":13901,"izable":13902,"burgh":13903,"agem":13904," Print":13905,"ív":13906," suitable":13907,"picker":13908,"Profile":13909,"andy":13910," quot":13911," Durante":13912," Francia":13913," tart":13914," Venez":13915," dispatch":13916," observations":13917," ż":13918,"Invalid":13919," occurr":13920,"тки":13921,"Memento":13922," Syd":13923," tiempo":13924," staff":13925," sections":13926," ssh":13927," NGC":13928,"ël":13929," erre":13930," divided":13931," Without":13932," durant":13933," jaar":13934," −":13935," soldiers":13936,"унк":13937,"lapse":13938," Valley":13939," (:":13940,"rera":13941," dével":13942," péri":13943," calculation":13944," keine":13945,"ertain":13946," теле":13947,"руд":13948," cul":13949," cloth":13950,";}":13951," przed":13952,"Month":13953,"Picker":13954," SV":13955,"arian":13956," Review":13957," hang":13958," окт":13959," Front":13960,"otlin":13961," translation":13962," modo":13963," statistics":13964," Nue":13965," Никола":13966,"NUM":13967," ships":13968," Report":13969,"{[":13970,"Effect":13971,"ieri":13972," parties":13973,"pla":13974,"rw":13975," Works":13976," iron":13977," attract":13978," cort":13979,"ná":13980," Steve":13981," bene":13982,"тон":13983,"ícula":13984,"Two":13985," глав":13986," Video":13987," powerful":13988,"auch":13989,"mande":13990,"ächst":13991,"Lat":13992," zna":13993," figures":13994," alias":13995,"nex":13996," categories":13997,"called":13998," Similar":13999," girls":14000,"pez":14001," joint":14002,"рого":14003,"iken":14004,"чина":14005,"ancia":14006," tijd":14007," Rose":14008," algorithms":14009," printing":14010,"nea":14011," executing":14012," lambda":14013," regional":14014," Copa":14015,"Foo":14016,"phys":14017,"zm":14018," Laur":14019," candidate":14020," Ja":14021,"zym":14022,"Example":14023," spiel":14024," дей":14025,"nehmen":14026,"keiten":14027," сент":14028,"intent":14029,".(":14030," первы":14031,"prom":14032," nat":14033," imagine":14034,"callback":14035,"components":14036,"without":14037," aquest":14038,"Support":14039," responsible":14040," jego":14041,"lj":14042,"will":14043,"lean":14044,"eland":14045,"ología":14046,"mc":14047,"Proxy":14048," ocup":14049," находи":14050," rub":14051,"нів":14052," Fall":14053,"amos":14054," Ep":14055,"entre":14056,"fail":14057,"World":14058," Editor":14059," expos":14060," finds":14061," Culture":14062,"LEASE":14063," movie":14064,"<=":14065,"ometric":14066,"eling":14067,"numerable":14068,"ourd":14069," Sea":14070," bild":14071," оста":14072,"blo":14073," lose":14074,"ateurs":14075,"oured":14076," Batt":14077,"();\r":14078," poz":14079,"posts":14080,"pend":14081,"certain":14082,"ником":14083,"Just":14084,"webkit":14085,"demás":14086,"~~~~":14087," indicates":14088," park":14089,"rique":14090,"vod":14091," Champ":14092,"ftware":14093,"OPT":14094,"django":14095,"release":14096," È":14097,"SR":14098," politician":14099," roi":14100,"aturen":14101," Deutsche":14102,"tagon":14103," Mov":14104,"obierno":14105," daß":14106,"uther":14107,"indi":14108," Wikipedia":14109," anos":14110," observe":14111,"elly":14112," railway":14113,"aton":14114," enum":14115,"hus":14116," inhab":14117,"Psi":14118,"oire":14119," Хо":14120," Space":14121," Архи":14122," anterior":14123," Ł":14124,"isons":14125,"Il":14126," améric":14127,"laps":14128," BBC":14129,"QUEST":14130,"Constra":14131,"mont":14132,"äft":14133," även":14134,"ubern":14135,"<!--":14136," coding":14137,"theory":14138,"athed":14139," Arbe":14140," ши":14141,"forEach":14142,"omorphism":14143,"details":14144,"achsen":14145,"integr":14146,"Vor":14147,"Unknown":14148,"aceae":14149,"inue":14150,"esome":14151," Fir":14152,"chain":14153," extremely":14154,"multicol":14155," Swift":14156," addresses":14157,"hspace":14158," Roger":14159," dessen":14160," consequ":14161,"ualmente":14162," Premier":14163," Record":14164," Bron":14165,"kir":14166,"sex":14167,"intern":14168," benefit":14169,"umen":14170," becoming":14171," lig":14172," popula":14173,"osc":14174," civ":14175," greatest":14176," proces":14177,"]*":14178," место":14179," '$":14180,"hell":14181,"(\"\\":14182," nine":14183," Fac":14184,"ulpt":14185,"jours":14186," Copy":14187," activities":14188," Democr":14189,"Es":14190,"Success":14191," Esta":14192,"itul":14193,"isti":14194," Bed":14195,"jas":14196," тем":14197," Hung":14198,"Game":14199," heav":14200,"onnées":14201," branches":14202,"borg":14203," vl":14204," slowly":14205,"Fa":14206,"Google":14207,"emi":14208," circumstances":14209," '%":14210," Und":14211," Victoria":14212," Typ":14213,"rupted":14214," relativ":14215," slo":14216," padre":14217," daily":14218," orth":14219,"чний":14220," französ":14221," teil":14222," Security":14223,"ordon":14224," sweet":14225,"SIZE":14226," Cel":14227,"ètres":14228,"ommes":14229," сі":14230," efforts":14231,"ąz":14232," ohne":14233," Southern":14234," approximately":14235,"цен":14236,"('#":14237," saving":14238,"nbsp":14239," translate":14240," În":14241,"member":14242," laws":14243," жен":14244," систе":14245,"tc":14246,">\\":14247,"elte":14248," ehem":14249," contrad":14250," рус":14251,"ья":14252," Middle":14253,"quip":14254," chez":14255,"Fields":14256," permit":14257,"ikel":14258," wir":14259," trial":14260," verschied":14261," фев":14262," male":14263," язы":14264," nyel":14265,"akter":14266," denomin":14267,"ceptor":14268," Wat":14269," fino":14270," XVIII":14271,"ryption":14272,"desc":14273,"apa":14274,"лена":14275," kol":14276," Є":14277," dependent":14278," Cra":14279," storm":14280," Гер":14281," pipe":14282," attended":14283," vita":14284,"uzione":14285,"czas":14286,"onda":14287," bold":14288,"Columns":14289,"ició":14290," czę":14291," извест":14292," Cloud":14293," warm":14294," сы":14295," сте":14296," producer":14297," Ludwig":14298," Northern":14299,"łą":14300,"NSString":14301," Had":14302," Иван":14303," Eg":14304," Imp":14305,"ші":14306," Auch":14307,"ток":14308," Hit":14309," quien":14310," department":14311," erhielt":14312," ui":14313," Spr":14314,"сер":14315,"ourt":14316," Stephen":14317,"team":14318," zip":14319," Bang":14320," growth":14321," jam":14322," Kais":14323,"bmatrix":14324," Asia":14325," région":14326,"=/":14327," Pacific":14328," authority":14329," #[":14330,"тами":14331," everyone":14332," attend":14333," timestamp":14334," tries":14335," ff":14336,"шей":14337," developing":14338,"olt":14339,"ups":14340," momento":14341," Sain":14342,"Term":14343," celle":14344,"GR":14345,"Mouse":14346," человек":14347," Collection":14348,"âtre":14349," Write":14350," Pom":14351,"[-":14352,"Cam":14353," locations":14354," Json":14355,"elled":14356,"selector":14357,"repeat":14358,"ctors":14359,"otte":14360,"визи":14361,"ände":14362," achieved":14363," mainly":14364,"________":14365,"!)":14366," является":14367," cities":14368,"single":14369,"гре":14370," Pak":14371," allowing":14372,"ferred":14373," апре":14374,"ходя":14375," browsers":14376," escrit":14377," mountain":14378," networks":14379,"kind":14380,"liver":14381," closing":14382," skip":14383,"út":14384," duration":14385,"était":14386," scr":14387,"BB":14388,"ória":14389," Kultur":14390," outputs":14391,"multicolumn":14392," belongs":14393,"feature":14394,"ucky":14395," juli":14396," района":14397,"зво":14398,"factory":14399,"Func":14400," utter":14401," TODO":14402," obt":14403,"ategories":14404," combine":14405," Wall":14406," underlying":14407,"arono":14408," Prote":14409,"ców":14410,"stan":14411," Gew":14412," optimal":14413," Archivlink":14414," Script":14415," destroyed":14416,"хе":14417," Firefox":14418," sole":14419,"Layer":14420,"тку":14421," stores":14422," displays":14423,"ishing":14424," ост":14425," instant":14426," elő":14427," habitantes":14428," Einwo":14429," ali":14430," ERROR":14431," ahead":14432," goals":14433," már":14434," są":14435," mart":14436,"министра":14437,"Fr":14438," Villa":14439," Marc":14440,"ropy":14441,"agram":14442,"hape":14443,"мей":14444," AL":14445," connexes":14446," Entre":14447,"Step":14448,"лів":14449," Death":14450," rise":14451," fos":14452," lev":14453,"gabe":14454," broke":14455,"products":14456," medi":14457," dispon":14458,"Package":14459,"ImageView":14460," Nag":14461,"ują":14462,"Word":14463," kole":14464,"ßer":14465,")`.":14466," rol":14467," í":14468,"тей":14469,"Progress":14470,"bean":14471," sempre":14472,"Statement":14473,"UPDATE":14474," mondiale":14475," wrapper":14476," Chart":14477," onClick":14478,"чення":14479,"LOG":14480,"something":14481," INSERT":14482,"щения":14483,"uet":14484,"werp":14485,"round":14486,"ichen":14487," XVI":14488,"зни":14489," aveva":14490," Store":14491," xs":14492,"racht":14493,"scar":14494," opera":14495," degrees":14496," citiz":14497,"äsident":14498," classical":14499," Jersey":14500," ersch":14501," treatment":14502," насеље":14503,"ння":14504," boost":14505,"amount":14506," созда":14507,"érieur":14508," telling":14509,"Has":14510," initi":14511," Пи":14512,"eval":14513," Match":14514," corre":14515,"Pointer":14516," passes":14517,"company":14518," ан":14519,"aches":14520," siglo":14521,"нем":14522," exchange":14523,"cito":14524," Bab":14525,"Doc":14526,"ześ":14527," народ":14528," conflict":14529," november":14530,"eau":14531,"öv":14532," Hub":14533," poco":14534,"ensa":14535,"schließ":14536,"lasse":14537,"datas":14538," сти":14539,"univers":14540,"eks":14541," Cho":14542," cô":14543," (.":14544,"ewnę":14545," Chief":14546," chef":14547," управ":14548,"uli":14549," '''":14550,"napshot":14551," relac":14552,"ége":14553,"wt":14554,"wend":14555,"osing":14556," hacer":14557," фран":14558,"autres":14559," fils":14560,"ered":14561," Посилання":14562," therm":14563,"ержа":14564,"such":14565," ihren":14566," encontr":14567," lots":14568,"logo":14569," Wi":14570,"/(":14571,"шње":14572,"DATA":14573," Player":14574," Leipzig":14575," relatives":14576,"рев":14577," newsp":14578,"?,":14579," Stutt":14580," dual":14581," companies":14582," zam":14583,"putation":14584," inequality":14585," trem":14586,"hips":14587,"anch":14588," Ż":14589,"бург":14590," copies":14591,"dash":14592,"вор":14593,"spieler":14594," Revolution":14595,"esty":14596," junto":14597," Indeed":14598,"okal":14599,"ctrine":14600," Ford":14601," CREATE":14602," walls":14603," aute":14604,"SU":14605,"why":14606,"plementation":14607,"rout":14608,"Matrix":14609," sad":14610,"ана":14611," Pic":14612,".“":14613," AC":14614," Fest":14615," desktop":14616," Pay":14617,"ometimes":14618," Tak":14619,"раб":14620," Sever":14621," northern":14622,"anter":14623," Modern":14624,"wal":14625,"{\r":14626,"online":14627,"ök":14628," britann":14629,"$_":14630," jar":14631,"TL":14632,"xxxx":14633,"merge":14634," Namen":14635," KEY":14636," refers":14637," hin":14638," Volks":14639,"steller":14640,"viation":14641,"onio":14642,"ighter":14643,"Compat":14644," CE":14645," pró":14646," encuentra":14647,"theorem":14648," publi":14649," Development":14650,"нд":14651," ros":14652," shr":14653,"seau":14654," generating":14655," difficulty":14656," Express":14657,"Alignment":14658,"deutsch":14659," Влади":14660," suggests":14661," Family":14662,"bbi":14663,"]).":14664,"staw":14665," presidente":14666," stesso":14667,"inx":14668,"setup":14669," conform":14670," fro":14671,"=\\\"":14672," då":14673,"iciones":14674," evolution":14675,"prote":14676," prints":14677," Pont":14678," confusion":14679," Й":14680," dello":14681," manif":14682,"Definition":14683,"ára":14684,"mals":14685," sale":14686," dropdown":14687,"Chain":14688,"American":14689," mk":14690," Bez":14691," Fue":14692," NE":14693,"графи":14694,"docker":14695," ^{":14696,"Assert":14697," horizontal":14698,"(@\"":14699," дву":14700,"proxy":14701,"Uri":14702,"gency":14703," \"[":14704," Qt":14705," Names":14706," evaluate":14707,"!/":14708," einges":14709," synth":14710," YouTube":14711," turning":14712," Eric":14713," бли":14714," klub":14715,"plorer":14716," sports":14717," sia":14718,"ош":14719," dai":14720," europe":14721,"icians":14722,"ingsområ":14723," dre":14724," workaround":14725," suit":14726,"ambigu":14727," quantity":14728," segundo":14729,"Symbol":14730," moral":14731,"Chart":14732," damit":14733," attempts":14734," donn":14735,"jos":14736," ere":14737," homme":14738,"simp":14739,"rypted":14740," acts":14741,"innerHTML":14742," tournament":14743," sky":14744,"Timer":14745," millions":14746,"^+":14747,"agent":14748,"'));":14749," ost":14750," gla":14751," помо":14752," fün":14753,"ством":14754,"ewnętrz":14755," México":14756," lub":14757," Éd":14758,"ifik":14759,"ческий":14760," immer":14761,"ensen":14762,"anny":14763,"inline":14764," gover":14765,"auc":14766," repre":14767," historia":14768,"Ag":14769," plt":14770," Princi":14771,"imeter":14772,"ős":14773,"še":14774," UE":14775,"Equals":14776,"Dispatch":14777,"legen":14778,"лази":14779,"чной":14780," stell":14781,"ńst":14782," cri":14783," Indep":14784,"ède":14785,"}\\)":14786," wyst":14787," figured":14788,"ATCH":14789,"ében":14790,"lacht":14791," succeeded":14792,"gry":14793," pret":14794," Saf":14795," \");":14796,"eh":14797," officiel":14798,"країн":14799,"wind":14800," scatter":14801," Fox":14802,"icious":14803,"Many":14804,"uper":14805," Convert":14806,"sterd":14807," Stein":14808," От":14809,"}^{(":14810,"between":14811,"hire":14812," onCreate":14813,";</":14814,"bably":14815,"SY":14816,"mot":14817," Dire":14818,"itecture":14819,"той":14820," coordinate":14821,"(\"#":14822," süd":14823,"OB":14824," morte":14825," weather":14826," hely":14827," privile":14828,"RELEASE":14829,"atel":14830," recognized":14831," Though":14832,"ссий":14833,"memory":14834," compilation":14835,"bits":14836," wed":14837,"}}_{":14838," GUI":14839,"пня":14840," southern":14841," hay":14842,"ović":14843,"lauf":14844," EL":14845," Full":14846," Hamburg":14847," Mittel":14848,"DU":14849,"approx":14850,"HS":14851," проце":14852," magazine":14853," Mig":14854," clicking":14855,"entr":14856," autre":14857," té":14858," há":14859,"сты":14860," MA":14861,"appy":14862,"ství":14863," selon":14864," gek":14865," Sl":14866,"frastr":14867,"Lib":14868," Ду":14869," facing":14870," стар":14871," Dutch":14872,"atar":14873," keeps":14874," Patrick":14875,"ilio":14876," vig":14877,"тва":14878," Federal":14879," paragraph":14880," interaction":14881," occas":14882," Iran":14883," machines":14884,"(()":14885,"uries":14886," роди":14887," американ":14888,"upp":14889," ice":14890," Say":14891," sail":14892," Begin":14893,"fico":14894,"oga":14895," desar":14896," dv":14897," ради":14898,"ohen":14899,"erei":14900,"ának":14901," daar":14902,"ifiers":14903," thee":14904," byla":14905,"вала":14906,"andro":14907," моло":14908," totally":14909,"iom":14910," aer":14911,"nsylvan":14912," corps":14913," treated":14914," comune":14915,"Mich":14916,"voice":14917,"pgf":14918," anx":14919," Philip":14920," ek":14921," Menschen":14922," dere":14923," permet":14924,"Mail":14925," Vé":14926,"ented":14927," bunch":14928," Piet":14929,"attach":14930," porte":14931,"дат":14932," Britain":14933,"Encoding":14934," `<":14935,"Space":14936," rap":14937," popul":14938,"floor":14939,"specific":14940,"clean":14941," conqu":14942,"fb":14943," introduce":14944," Entity":14945," erfolg":14946,"atol":14947,"ientos":14948,"кипеди":14949," Ut":14950," бри":14951,"eduler":14952," concentr":14953," cher":14954," upgrade":14955," pictures":14956," Familie":14957,"Mus":14958,"Look":14959," eran":14960," gram":14961," Wo":14962,"npm":14963," Salv":14964," cd":14965," Вы":14966,"wahl":14967,"train":14968,"chem":14969," Pil":14970," Connect":14971,"če":14972," hast":14973," Multi":14974,"atta":14975," Sound":14976,"solute":14977," quote":14978," obst":14979,"cciones":14980,"ibly":14981," brand":14982," conversation":14983," toutes":14984," Rub":14985,"ienia":14986,"irit":14987," Анд":14988,"eduled":14989," Total":14990,"Dig":14991,"erem":14992," ski":14993,"Dest":14994,"YY":14995,"еди":14996,"aly":14997," backend":14998,"ulus":14999," featured":15000," personn":15001," schon":15002,"trace":15003," IDE":15004,"áj":15005," animals":15006," snow":15007,"uve":15008,"uerto":15009," drew":15010," Yeah":15011," Sv":15012,"\\,\\":15013," Serie":15014," secondo":15015," Lebens":15016," accord":15017," Cet":15018,"erade":15019," despite":15020," Carlo":15021," zewnętrz":15022," lista":15023,"nico":15024," Corporation":15025,"vspace":15026," войны":15027," stands":15028," worse":15029," simult":15030," practical":15031,"COL":15032,"changed":15033," История":15034,"бри":15035,"indo":15036," Lewis":15037," patterns":15038,"ifica":15039," smart":15040," concerned":15041,"ții":15042," Hello":15043,"rell":15044," Lex":15045," вто":15046," conditional":15047,"otted":15048," shoot":15049," Wed":15050," марта":15051,"aud":15052," ante":15053,"ientras":15054," papers":15055," portug":15056," Management":15057," exercise":15058," Begriff":15059,"commit":15060," rendering":15061," czas":15062,"Drop":15063,"erg":15064," mul":15065," Tan":15066,"iero":15067," locale":15068," inaug":15069,"dump":15070,"ций":15071," symbols":15072,"inta":15073," awarded":15074," sust":15075," Send":15076,"їв":15077,"Rest":15078,"zten":15079,"лим":15080,"rival":15081,"PORT":15082,"ölker":15083,"imately":15084,"igte":15085,"чных":15086," terra":15087,"öglich":15088," Hom":15089," hex":15090,"done":15091,"amps":15092," cet":15093,"PRE":15094,"öst":15095," femme":15096,"Selection":15097," zaw":15098,"spr":15099," horses":15100," snap":15101,"TextBox":15102," Eclipse":15103,"ulle":15104,"owym":15105," comer":15106,"necess":15107,"cook":15108,"enger":15109,"-->":15110," pří":15111,"pandas":15112," Plus":15113,"yll":15114," terror":15115," crim":15116," zak":15117,"issue":15118,"panel":15119,"svg":15120," reb":15121,"Customer":15122,"switch":15123,"обра":15124," Championships":15125,"clo":15126,"atte":15127," anymore":15128," excellent":15129," opportunity":15130," Bahn":15131,"чин":15132,"eting":15133," incident":15134,"tom":15135,"Pers":15136,"bben":15137,"ственной":15138,"их":15139,"router":15140," newly":15141," silence":15142," GNU":15143," Rails":15144," Amb":15145," Qual":15146," Schaus":15147," Sohn":15148," ALL":15149," royal":15150," £":15151,"wię":15152," entfer":15153," Remove":15154," hardly":15155,"Using":15156,"лог":15157," Ich":15158," derni":15159," Connection":15160,"fish":15161," Inform":15162," Ener":15163,"roit":15164,"Bbb":15165,"ViewModel":15166,"Video":15167,"iley":15168," много":15169," Gem":15170," compreh":15171,"enumerate":15172,"ulas":15173," Bah":15174," Yet":15175,"BR":15176,"хра":15177," county":15178," Hist":15179," Гу":15180," Ј":15181," mari":15182," Clar":15183,"Bitmap":15184," Cz":15185," mån":15186," mere":15187," musique":15188,"also":15189,"dates":15190," DVD":15191," gol":15192,"fony":15193," Castle":15194," фами":15195," arrang":15196," Business":15197," Kaz":15198," osc":15199," secolo":15200," affected":15201," Health":15202,"reb":15203,"editor":15204," owned":15205,"tl":15206," ví":15207,"чних":15208,"кви":15209," devient":15210,"Mutable":15211," tegen":15212,"Register":15213,"єю":15214," caracter":15215,"лли":15216," nouvelle":15217,"oko":15218,"ichtet":15219," evol":15220," Hab":15221," militar":15222,
[...]
